{
  "version": "1.0",
  "truncation": null,
  "padding": null,
  "added_tokens": [
    {
      "id": 0,
      "content": "[UNK]",
      "single_word": false,
      "lstrip": false,
      "rstrip": false,
      "normalized": false,
      "special": true
    },
    {
      "id": 1,
      "content": "[PAD]",
      "single_word": false,
      "lstrip": false,
      "rstrip": false,
      "normalized": false,
      "special": true
    },
    {
      "id": 2,
      "content": "[CLS]",
      "single_word": false,
      "lstrip": false,
      "rstrip": false,
      "normalized": false,
      "special": true
    },
    {
      "id": 3,
      "content": "[SEP]",
      "single_word": false,
      "lstrip": false,
      "rstrip": false,
      "normalized": false,
      "special": true
    },
    {
      "id": 4,
      "content": "[MASK]",
      "single_word": false,
      "lstrip": false,
      "rstrip": false,
      "normalized": false,
      "special": true
    }
  ],
  "normalizer": {
    "type": "Sequence",
    "normalizers": [
      {
        "type": "NFD"
      },
      {
        "type": "Lowercase"
      },
      {
        "type": "StripAccents"
      }
    ]
  },
  "pre_tokenizer": {
    "type": "Sequence",
    "pretokenizers": [
      {
        "type": "WhitespaceSplit"
      },
      {
        "type": "Punctuation",
        "behavior": "Isolated"
      }
    ]
  },
  "post_processor": null,
  "decoder": null,
  "model": {
    "type": "WordPiece",
    "unk_token": "[UNK]",
    "continuing_subword_prefix": "##",
    "max_input_chars_per_word": 100,
    "vocab": {
      "[UNK]": 0,
      "[PAD]": 1,
      "[CLS]": 2,
      "[SEP]": 3,
      "[MASK]": 4,
      "!": 5,
      "#": 6,
      "$": 7,
      "%": 8,
      "&": 9,
      "(": 10,
      ")": 11,
      "*": 12,
      "+": 13,
      ",": 14,
      "-": 15,
      ".": 16,
      "/": 17,
      "0": 18,
      "1": 19,
      "2": 20,
      "3": 21,
      "4": 22,
      "5": 23,
      "6": 24,
      "7": 25,
      "8": 26,
      "9": 27,
      ":": 28,
      ";": 29,
      "=": 30,
      "?": 31,
      "@": 32,
      "\\": 33,
      "_": 34,
      "`": 35,
      "a": 36,
      "b": 37,
      "c": 38,
      "d": 39,
      "e": 40,
      "f": 41,
      "g": 42,
      "h": 43,
      "i": 44,
      "j": 45,
      "k": 46,
      "l": 47,
      "m": 48,
      "n": 49,
      "o": 50,
      "p": 51,
      "q": 52,
      "r": 53,
      "s": 54,
      "t": 55,
      "u": 56,
      "v": 57,
      "w": 58,
      "x": 59,
      "y": 60,
      "z": 61,
      "{": 62,
      "}": 63,
      "~": 64,
      "£": 65,
      "©": 66,
      "®": 67,
      "²": 68,
      "¼": 69,
      "½": 70,
      "¾": 71,
      "ø": 72,
      "đ": 73,
      "ย": 74,
      "ร": 75,
      "อ": 76,
      "​": 77,
      "–": 78,
      "—": 79,
      "…": 80,
      "€": 81,
      "": 82,
      "": 83,
      "ｃ": 84,
      "##w": 85,
      "##a": 86,
      "##p": 87,
      "##t": 88,
      "##r": 89,
      "##e": 90,
      "##o": 91,
      "##n": 92,
      "##y": 93,
      "##g": 94,
      "##u": 95,
      "##l": 96,
      "##i": 97,
      "##c": 98,
      "##d": 99,
      "##s": 100,
      "##k": 101,
      "##m": 102,
      "##h": 103,
      "##b": 104,
      "##v": 105,
      "##j": 106,
      "##z": 107,
      "##2": 108,
      "##0": 109,
      "##x": 110,
      "##f": 111,
      "##đ": 112,
      "##9": 113,
      "##6": 114,
      "##1": 115,
      "##5": 116,
      "##4": 117,
      "##7": 118,
      "##8": 119,
      "##q": 120,
      "##3": 121,
      "##ø": 122,
      "##ย": 123,
      "##ร": 124,
      "##ｃ": 125,
      "##ng": 126,
      "##oi": 127,
      "##hu": 128,
      "##an": 129,
      "##ong": 130,
      "##ie": 131,
      "th": 132,
      "##ay": 133,
      "##hung": 134,
      "tr": 135,
      "la": 136,
      "va": 137,
      "kh": 138,
      "##ot": 139,
      "ca": 140,
      "ng": 141,
      "co": 142,
      "ch": 143,
      "##at": 144,
      "toi": 145,
      "cu": 146,
      "##ang": 147,
      "##in": 148,
      "##en": 149,
      "nh": 150,
      "##oc": 151,
      "ta": 152,
      "gi": 153,
      "qu": 154,
      "nhung": 155,
      "mot": 156,
      "##inh": 157,
      "ho": 158,
      "chung": 159,
      "##ien": 160,
      "##ai": 161,
      "the": 162,
      "##ieu": 163,
      "ph": 164,
      "đo": 165,
      "đa": 166,
      "thu": 167,
      "tu": 168,
      "ban": 169,
      "cua": 170,
      "đu": 171,
      "ngu": 172,
      "cac": 173,
      "khong": 174,
      "trong": 175,
      "##anh": 176,
      "su": 177,
      "##ac": 178,
      "##ao": 179,
      "##on": 180,
      "nguoi": 181,
      "đe": 182,
      "##am": 183,
      "nay": 184,
      "ngh": 185,
      "chu": 186,
      "du": 187,
      "voi": 188,
      "##au": 189,
      "đuoc": 190,
      "no": 191,
      "cho": 192,
      "noi": 193,
      "quot": 194,
      "lam": 195,
      "tru": 196,
      "ra": 197,
      "ve": 198,
      "##iet": 199,
      "vi": 200,
      "ma": 201,
      "##et": 202,
      "nhu": 203,
      "an": 204,
      "lu": 205,
      "se": 206,
      "đieu": 207,
      "khi": 208,
      "##yen": 209,
      "đay": 210,
      "con": 211,
      "moi": 212,
      "chi": 213,
      "thay": 214,
      "thuc": 215,
      "##iec": 216,
      "đang": 217,
      "##iem": 218,
      "cung": 219,
      "đen": 220,
      "mu": 221,
      "đau": 222,
      "đoi": 223,
      "lai": 224,
      "rang": 225,
      "nu": 226,
      "nghi": 227,
      "##ch": 228,
      "phai": 229,
      "so": 230,
      "thi": 231,
      "vao": 232,
      "đong": 233,
      "##eu": 234,
      "viec": 235,
      "anh": 236,
      "cong": 237,
      "hon": 238,
      "nhieu": 239,
      "biet": 240,
      "nhan": 241,
      "nao": 242,
      "rat": 243,
      "to": 244,
      "cach": 245,
      "qua": 246,
      "nam": 247,
      "van": 248,
      "cai": 249,
      "khac": 250,
      "dung": 251,
      "tai": 252,
      "##ap": 253,
      "vu": 254,
      "đi": 255,
      "phu": 256,
      "kho": 257,
      "hoi": 258,
      "cau": 259,
      "bo": 260,
      "hoc": 261,
      "tuong": 262,
      "lo": 263,
      "hay": 264,
      "vay": 265,
      "tren": 266,
      "thanh": 267,
      "quan": 268,
      "phan": 269,
      "bao": 270,
      "bat": 271,
      "can": 272,
      "nen": 273,
      "chuyen": 274,
      "gia": 275,
      "minh": 276,
      "bi": 277,
      "tinh": 278,
      "neu": 279,
      "xu": 280,
      "tien": 281,
      "ti": 282,
      "hu": 283,
      "nha": 284,
      "mat": 285,
      "cam": 286,
      "nhat": 287,
      "thong": 288,
      "chinh": 289,
      "ngay": 290,
      "tro": 291,
      "muon": 292,
      "te": 293,
      "ong": 294,
      "sau": 295,
      "ke": 296,
      "gio": 297,
      "boi": 298,
      "gioi": 299,
      "tao": 300,
      "##yet": 301,
      "bang": 302,
      "bu": 303,
      "hien": 304,
      "tat": 305,
      "song": 306,
      "##iep": 307,
      "nghe": 308,
      "nho": 309,
      "that": 310,
      "xe": 311,
      "thoi": 312,
      "ben": 313,
      "hoa": 314,
      "hinh": 315,
      "đat": 316,
      "cuoc": 317,
      "he": 318,
      "đinh": 319,
      "giu": 320,
      "ki": 321,
      "dan": 322,
      "toan": 323,
      "gian": 324,
      "lon": 325,
      "nang": 326,
      "do": 327,
      "luc": 328,
      "theo": 329,
      "##ach": 330,
      "roi": 331,
      "tin": 332,
      "may": 333,
      "hai": 334,
      "ay": 335,
      "nhin": 336,
      "##er": 337,
      "phi": 338,
      "tam": 339,
      "tim": 340,
      "len": 341,
      "bay": 342,
      "mo": 343,
      "tri": 344,
      "truong": 345,
      "thuong": 346,
      "hieu": 347,
      "sao": 348,
      "loai": 349,
      "đua": 350,
      "loi": 351,
      "truoc": 352,
      "lan": 353,
      "sinh": 354,
      "ky": 355,
      "phat": 356,
      "hang": 357,
      "nuoc": 358,
      "hop": 359,
      "hanh": 360,
      "trung": 361,
      "đung": 362,
      "xay": 363,
      "kinh": 364,
      "sang": 365,
      "##00": 366,
      "ba": 367,
      "nhau": 368,
      "ly": 369,
      "ket": 370,
      "vien": 371,
      "san": 372,
      "nua": 373,
      "tot": 374,
      "vat": 375,
      "nhien": 376,
      "trinh": 377,
      "mang": 378,
      "lieu": 379,
      "##ieng": 380,
      "than": 381,
      "le": 382,
      "chua": 383,
      "di": 384,
      "vai": 385,
      "giai": 386,
      "ai": 387,
      "##oai": 388,
      "luong": 389,
      "me": 390,
      "tham": 391,
      "phong": 392,
      "trai": 393,
      "tiep": 394,
      "thiet": 395,
      "tre": 396,
      "giong": 397,
      "dien": 398,
      "xa": 399,
      "giao": 400,
      "bien": 401,
      "kha": 402,
      "xem": 403,
      "khu": 404,
      "goi": 405,
      "mau": 406,
      "tac": 407,
      "thich": 408,
      "huong": 409,
      "be": 410,
      "cuu": 411,
      "tap": 412,
      "đai": 413,
      "đien": 414,
      "vo": 415,
      "đeu": 416,
      "nghiem": 417,
      "ro": 418,
      "canh": 419,
      "đuong": 420,
      "benh": 421,
      "yeu": 422,
      "bai": 423,
      "cao": 424,
      "##ar": 425,
      "tang": 426,
      "chan": 427,
      "thang": 428,
      "on": 429,
      "điem": 430,
      "nghia": 431,
      "tra": 432,
      "hoan": 433,
      "tay": 434,
      "vong": 435,
      "khoi": 436,
      "tung": 437,
      "cuoi": 438,
      "gan": 439,
      "quoc": 440,
      "am": 441,
      "hoac": 442,
      "muc": 443,
      "đon": 444,
      "ngoai": 445,
      "kiem": 446,
      "chat": 447,
      "kien": 448,
      "chiec": 449,
      "đoan": 450,
      "phuc": 451,
      "pham": 452,
      "tuyet": 453,
      "tho": 454,
      "em": 455,
      "ung": 456,
      "khoang": 457,
      "thuat": 458,
      "trang": 459,
      "lien": 460,
      "lap": 461,
      "tranh": 462,
      "trien": 463,
      "cap": 464,
      "thuoc": 465,
      "đao": 466,
      "pho": 467,
      "quyet": 468,
      "khoa": 469,
      "nghien": 470,
      "manh": 471,
      "het": 472,
      "binh": 473,
      "go": 474,
      "##ep": 475,
      "ton": 476,
      "day": 477,
      "truyen": 478,
      "lay": 479,
      "tuoi": 480,
      "quy": 481,
      "giup": 482,
      "ru": 483,
      "tuc": 484,
      "han": 485,
      "sach": 486,
      "quyen": 487,
      "phuong": 488,
      "xuat": 489,
      "choi": 490,
      "##or": 491,
      "nhac": 492,
      "tieng": 493,
      "tan": 494,
      "dang": 495,
      "ngan": 496,
      "phap": 497,
      "##le": 498,
      "tieu": 499,
      "giua": 500,
      "chang": 501,
      "li": 502,
      "ap": 503,
      "chien": 504,
      "gap": 505,
      "my": 506,
      "che": 507,
      "đoc": 508,
      "suc": 509,
      "nguyen": 510,
      "khien": 511,
      "hoat": 512,
      "si": 513,
      "xuong": 514,
      "buc": 515,
      "ngoi": 516,
      "##st": 517,
      "lang": 518,
      "cham": 519,
      "gh": 520,
      "it": 521,
      "de": 522,
      "ty": 523,
      "chuc": 524,
      "ten": 525,
      "hau": 526,
      "chau": 527,
      "bac": 528,
      "vung": 529,
      "luon": 530,
      "nghiep": 531,
      "đan": 532,
      "đac": 533,
      "chon": 534,
      "cuc": 535,
      "cay": 536,
      "truc": 537,
      "viet": 538,
      "mac": 539,
      "danh": 540,
      "##os": 541,
      "thai": 542,
      "##li": 543,
      "thien": 544,
      "mua": 545,
      "pha": 546,
      "giac": 547,
      "##ri": 548,
      "trieu": 549,
      "suy": 550,
      "long": 551,
      "vang": 552,
      "cang": 553,
      "đam": 554,
      "chet": 555,
      "chay": 556,
      "gay": 557,
      "buoc": 558,
      "chia": 559,
      "giam": 560,
      "hom": 561,
      "ngon": 562,
      "duoi": 563,
      "thap": 564,
      "tram": 565,
      "đanh": 566,
      "xin": 567,
      "##al": 568,
      "nhom": 569,
      "##el": 570,
      "them": 571,
      "quay": 572,
      "gang": 573,
      "chong": 574,
      "troi": 575,
      "chac": 576,
      "chut": 577,
      "dai": 578,
      "nhiem": 579,
      "duong": 580,
      "dich": 581,
      "nhanh": 582,
      "lua": 583,
      "khan": 584,
      "phep": 585,
      "niem": 586,
      "sat": 587,
      "quanh": 588,
      "xac": 589,
      "vuc": 590,
      "10": 591,
      "lanh": 592,
      "##it": 593,
      "thieu": 594,
      "thuyet": 595,
      "##ia": 596,
      "phim": 597,
      "man": 598,
      "nguon": 599,
      "##es": 600,
      "bong": 601,
      "dau": 602,
      "in": 603,
      "hat": 604,
      "đep": 605,
      "luan": 606,
      "phia": 607,
      "giay": 608,
      "bieu": 609,
      "vua": 610,
      "đem": 611,
      "20": 612,
      "đia": 613,
      "19": 614,
      "linh": 615,
      "duy": 616,
      "kia": 617,
      "##ic": 618,
      "rong": 619,
      "mai": 620,
      "chieu": 621,
      "da": 622,
      "xung": 623,
      "gu": 624,
      "ne": 625,
      "tich": 626,
      "duc": 627,
      "chuong": 628,
      "kich": 629,
      "thoai": 630,
      "##as": 631,
      "mon": 632,
      "tran": 633,
      "toc": 634,
      "bon": 635,
      "apos": 636,
      "hung": 637,
      "##ra": 638,
      "cuon": 639,
      "sai": 640,
      "hiem": 641,
      "khung": 642,
      "luat": 643,
      "nong": 644,
      "ha": 645,
      "rieng": 646,
      "tuy": 647,
      "lich": 648,
      "quang": 649,
      "lau": 650,
      "đuc": 651,
      "gai": 652,
      "mong": 653,
      "ngo": 654,
      "nan": 655,
      "khai": 656,
      "vui": 657,
      "khoe": 658,
      "lop": 659,
      "ted": 660,
      "mi": 661,
      "cat": 662,
      "200": 663,
      "ao": 664,
      "kieu": 665,
      "tiet": 666,
      "goc": 667,
      "tuan": 668,
      "xo": 669,
      "khap": 670,
      "sac": 671,
      "cha": 672,
      "buoi": 673,
      "đot": 674,
      "##ro": 675,
      "tong": 676,
      "suot": 677,
      "##ll": 678,
      "phut": 679,
      "##ter": 680,
      "000": 681,
      "quen": 682,
      "##re": 683,
      "doanh": 684,
      "toa": 685,
      "##de": 686,
      "kham": 687,
      "huu": 688,
      "nhap": 689,
      "xet": 690,
      "ngac": 691,
      "st": 692,
      "đap": 693,
      "xuc": 694,
      "hoang": 695,
      "hi": 696,
      "chup": 697,
      "hy": 698,
      "doi": 699,
      "thach": 700,
      "lac": 701,
      "nganh": 702,
      "sap": 703,
      "thao": 704,
      "dua": 705,
      "ghi": 706,
      "tuyen": 707,
      "banh": 708,
      "coi": 709,
      "ich": 710,
      "xanh": 711,
      "##eb": 712,
      "##ou": 713,
      "gui": 714,
      "chuan": 715,
      "chiu": 716,
      "re": 717,
      "100": 718,
      "hao": 719,
      "huy": 720,
      "keo": 721,
      "##and": 722,
      "##is": 723,
      "##ad": 724,
      "soc": 725,
      "vuot": 726,
      "nhay": 727,
      "xau": 728,
      "au": 729,
      "gom": 730,
      "nguy": 731,
      "30": 732,
      "new": 733,
      "tron": 734,
      "##us": 735,
      "nguoc": 736,
      "luu": 737,
      "nhiet": 738,
      "lao": 739,
      "đich": 740,
      "luoi": 741,
      "trao": 742,
      "nuoi": 743,
      "nhi": 744,
      "ngheo": 745,
      "chim": 746,
      "15": 747,
      "##lo": 748,
      "50": 749,
      "uoc": 750,
      "tiem": 751,
      "khoan": 752,
      "##op": 753,
      "sot": 754,
      "##net": 755,
      "mien": 756,
      "khach": 757,
      "nhe": 758,
      "rung": 759,
      "khau": 760,
      "rob": 761,
      "phoi": 762,
      "tau": 763,
      "gen": 764,
      "##ran": 765,
      "chap": 766,
      "ngai": 767,
      "sua": 768,
      "giau": 769,
      "nham": 770,
      "soat": 771,
      "bau": 772,
      "dong": 773,
      "inter": 774,
      "dam": 775,
      "hoach": 776,
      "ham": 777,
      "ga": 778,
      "thua": 779,
      "giet": 780,
      "##il": 781,
      "internet": 782,
      "thuan": 783,
      "web": 784,
      "xep": 785,
      "buon": 786,
      "hut": 787,
      "nien": 788,
      "##ol": 789,
      "##gh": 790,
      "al": 791,
      "trach": 792,
      "##th": 793,
      "bot": 794,
      "phau": 795,
      "phien": 796,
      "##ard": 797,
      "12": 798,
      "kem": 799,
      "sieu": 800,
      "thuy": 801,
      "mar": 802,
      "##ing": 803,
      "sung": 804,
      "93": 805,
      "xuyen": 806,
      "91": 807,
      "##ine": 808,
      "đuoi": 809,
      "cuong": 810,
      "vide": 811,
      "ghe": 812,
      "hap": 813,
      "video": 814,
      "jo": 815,
      "sh": 816,
      "mui": 817,
      "mach": 818,
      "soi": 819,
      "##son": 820,
      "luyen": 821,
      "uong": 822,
      "##ah": 823,
      "##om": 824,
      "rac": 825,
      "##ork": 826,
      "chuot": 827,
      "##id": 828,
      "khuon": 829,
      "kim": 830,
      "dieu": 831,
      "ken": 832,
      "rap": 833,
      "york": 834,
      "khang": 835,
      "hong": 836,
      "thinh": 837,
      "robot": 838,
      "liet": 839,
      "mem": 840,
      "bua": 841,
      "gop": 842,
      "18": 843,
      "moc": 844,
      "muoi": 845,
      "mieng": 846,
      "ngam": 847,
      "40": 848,
      "##og": 849,
      "##ist": 850,
      "lung": 851,
      "ad": 852,
      "loan": 853,
      "ngung": 854,
      "sy": 855,
      "phe": 856,
      "##ein": 857,
      "sanh": 858,
      "##la": 859,
      "met": 860,
      "25": 861,
      "chiem": 862,
      "cot": 863,
      "von": 864,
      "rut": 865,
      "##ag": 866,
      "vuong": 867,
      "ac": 868,
      "nui": 869,
      "ri": 870,
      "##oo": 871,
      "##ke": 872,
      "oi": 873,
      "som": 874,
      "##ton": 875,
      "uc": 876,
      "tom": 877,
      "thac": 878,
      "chuoi": 879,
      "##les": 880,
      "xi": 881,
      "ok": 882,
      "chao": 883,
      "dinh": 884,
      "khao": 885,
      "nga": 886,
      "##ed": 887,
      "giang": 888,
      "##man": 889,
      "khuan": 890,
      "##im": 891,
      "khuyen": 892,
      "vinh": 893,
      "##ur": 894,
      "coc": 895,
      "tui": 896,
      "men": 897,
      "nghin": 898,
      "##di": 899,
      "xam": 900,
      "##istan": 901,
      "loc": 902,
      "thit": 903,
      "thoat": 904,
      "hiep": 905,
      "pr": 906,
      "bom": 907,
      "##ry": 908,
      "##ow": 909,
      "##for": 910,
      "khich": 911,
      "11": 912,
      "tach": 913,
      "##sh": 914,
      "loat": 915,
      "##ve": 916,
      "##ak": 917,
      "##ber": 918,
      "tha": 919,
      "thue": 920,
      "oc": 921,
      "lat": 922,
      "bung": 923,
      "goog": 924,
      "xoay": 925,
      "80": 926,
      "vet": 927,
      "##ne": 928,
      "##ck": 929,
      "car": 930,
      "sup": 931,
      "suat": 932,
      "thoa": 933,
      "google": 934,
      "khoanh": 935,
      "gam": 936,
      "##one": 937,
      "vuon": 938,
      "tiec": 939,
      "ar": 940,
      "##ger": 941,
      "##ph": 942,
      "##ab": 943,
      "chot": 944,
      "hen": 945,
      "triet": 946,
      "cum": 947,
      "qui": 948,
      "ko": 949,
      "##ss": 950,
      "##hn": 951,
      "ruoi": 952,
      "60": 953,
      "ngau": 954,
      "##na": 955,
      "##ack": 956,
      "and": 957,
      "phieu": 958,
      "ghep": 959,
      "ron": 960,
      "ngua": 961,
      "ni": 962,
      "leo": 963,
      "thung": 964,
      "ox": 965,
      "doc": 966,
      "boc": 967,
      "dao": 968,
      "bach": 969,
      "nau": 970,
      "##ti": 971,
      "điep": 972,
      "john": 973,
      "ngang": 974,
      "199": 975,
      "##bon": 976,
      "uu": 977,
      "thau": 978,
      "que": 979,
      "##ster": 980,
      "yen": 981,
      "nhuan": 982,
      "mung": 983,
      "doa": 984,
      "##ge": 985,
      "##lin": 986,
      "trich": 987,
      "bam": 988,
      "vac": 989,
      "map": 990,
      "##ds": 991,
      "vir": 992,
      "diet": 993,
      "ge": 994,
      "is": 995,
      "16": 996,
      "luoc": 997,
      "hiv": 998,
      "mao": 999,
      "##lu": 1000,
      "nhua": 1001,
      "af": 1002,
      "sc": 1003,
      "##ent": 1004,
      "hoai": 1005,
      "500": 1006,
      "90": 1007,
      "nhip": 1008,
      "prot": 1009,
      "##ver": 1010,
      "sa": 1011,
      "##se": 1012,
      "##yn": 1013,
      "##don": 1014,
      "##ff": 1015,
      "14": 1016,
      "gon": 1017,
      "##ian": 1018,
      "nut": 1019,
      "70": 1020,
      "chep": 1021,
      "thuyen": 1022,
      "##az": 1023,
      "201": 1024,
      "thiep": 1025,
      "##ce": 1026,
      "meo": 1027,
      "13": 1028,
      "##ya": 1029,
      "beo": 1030,
      "nem": 1031,
      "br": 1032,
      "ju": 1033,
      "khia": 1034,
      "keu": 1035,
      "nguong": 1036,
      "par": 1037,
      "##ma": 1038,
      "chri": 1039,
      "adn": 1040,
      "afgh": 1041,
      "fran": 1042,
      "sam": 1043,
      "tia": 1044,
      "##ley": 1045,
      "xoa": 1046,
      "##era": 1047,
      "afghan": 1048,
      "protein": 1049,
      "uy": 1050,
      "thoang": 1051,
      "ruou": 1052,
      "ven": 1053,
      "xong": 1054,
      "luot": 1055,
      "huan": 1056,
      "dav": 1057,
      "##log": 1058,
      "17": 1059,
      "wi": 1060,
      "khoc": 1061,
      "##ut": 1062,
      "300": 1063,
      "har": 1064,
      "nat": 1065,
      "##land": 1066,
      "rao": 1067,
      "ghet": 1068,
      "##all": 1069,
      "fe": 1070,
      "khat": 1071,
      "truy": 1072,
      "rui": 1073,
      "im": 1074,
      "net": 1075,
      "##ash": 1076,
      "don": 1077,
      "ngot": 1078,
      "xua": 1079,
      "cut": 1080,
      "iran": 1081,
      "chai": 1082,
      "quat": 1083,
      "tw": 1084,
      "##ore": 1085,
      "##ld": 1086,
      "##ana": 1087,
      "amp": 1088,
      "21": 1089,
      "gat": 1090,
      "oh": 1091,
      "##nia": 1092,
      "##50": 1093,
      "##ct": 1094,
      "bia": 1095,
      "afghanistan": 1096,
      "om": 1097,
      "pin": 1098,
      "##by": 1099,
      "##ell": 1100,
      "##ico": 1101,
      "guong": 1102,
      "rau": 1103,
      "heo": 1104,
      "david": 1105,
      "bra": 1106,
      "ranh": 1107,
      "##un": 1108,
      "##yt": 1109,
      "##ail": 1110,
      "lui": 1111,
      "ste": 1112,
      "##art": 1113,
      "##um": 1114,
      "khiep": 1115,
      "huyet": 1116,
      "sp": 1117,
      "trac": 1118,
      "gianh": 1119,
      "198": 1120,
      "tv": 1121,
      "huoc": 1122,
      "char": 1123,
      "##ook": 1124,
      "##co": 1125,
      "at": 1126,
      "ep": 1127,
      "ret": 1128,
      "đom": 1129,
      "dat": 1130,
      "son": 1131,
      "##ock": 1132,
      "en": 1133,
      "##ess": 1134,
      "isra": 1135,
      "na": 1136,
      "##be": 1137,
      "quai": 1138,
      "nuong": 1139,
      "24": 1140,
      "blog": 1141,
      "##ara": 1142,
      "fac": 1143,
      "non": 1144,
      "##ta": 1145,
      "##ron": 1146,
      "ran": 1147,
      "rai": 1148,
      "##ip": 1149,
      "khiem": 1150,
      "tue": 1151,
      "israel": 1152,
      "ang": 1153,
      "##da": 1154,
      "choc": 1155,
      "mieu": 1156,
      "##mb": 1157,
      "khon": 1158,
      "ngoc": 1159,
      "##ebook": 1160,
      "facebook": 1161,
      "cali": 1162,
      "game": 1163,
      "ber": 1164,
      "##mp": 1165,
      "##att": 1166,
      "quet": 1167,
      "##to": 1168,
      "##go": 1169,
      "##ion": 1170,
      "nguc": 1171,
      "mich": 1172,
      "hua": 1173,
      "giuong": 1174,
      "##ada": 1175,
      "not": 1176,
      "##he": 1177,
      "##ama": 1178,
      "bill": 1179,
      "##fornia": 1180,
      "mic": 1181,
      "say": 1182,
      "you": 1183,
      "##te": 1184,
      "##ham": 1185,
      "đeo": 1186,
      "khoai": 1187,
      "california": 1188,
      "dna": 1189,
      "##tu": 1190,
      "thon": 1191,
      "bar": 1192,
      "treo": 1193,
      "kenh": 1194,
      "##dio": 1195,
      "##ite": 1196,
      "##ler": 1197,
      "thom": 1198,
      "rua": 1199,
      "##ina": 1200,
      "400": 1201,
      "##ni": 1202,
      "lenh": 1203,
      "197": 1204,
      "ngoan": 1205,
      "ira": 1206,
      "mit": 1207,
      "ninh": 1208,
      "##ren": 1209,
      "bro": 1210,
      "chris": 1211,
      "kin": 1212,
      "##ate": 1213,
      "##eo": 1214,
      "dut": 1215,
      "ed": 1216,
      "pau": 1217,
      "##ale": 1218,
      "##ram": 1219,
      "mex": 1220,
      "##stein": 1221,
      "##ly": 1222,
      "##lip": 1223,
      "##anda": 1224,
      "gau": 1225,
      "je": 1226,
      "mc": 1227,
      "ye": 1228,
      "##vi": 1229,
      "canada": 1230,
      "email": 1231,
      "menh": 1232,
      "##ford": 1233,
      "mexico": 1234,
      "sm": 1235,
      "##ling": 1236,
      "ua": 1237,
      "##zil": 1238,
      "duoc": 1239,
      "2000": 1240,
      "##der": 1241,
      "tua": 1242,
      "##ith": 1243,
      "##lly": 1244,
      "lot": 1245,
      "suu": 1246,
      "for": 1247,
      "##za": 1248,
      "brazil": 1249,
      "but": 1250,
      "bui": 1251,
      "bep": 1252,
      "##ick": 1253,
      "geor": 1254,
      "##bur": 1255,
      "khieu": 1256,
      "ngap": 1257,
      "giat": 1258,
      "aids": 1259,
      "virus": 1260,
      "ray": 1261,
      "xinh": 1262,
      "##sc": 1263,
      "##qu": 1264,
      "trua": 1265,
      "camera": 1266,
      "##ere": 1267,
      "ab": 1268,
      "##den": 1269,
      "london": 1270,
      "kenya": 1271,
      "3d": 1272,
      "##ka": 1273,
      "##me": 1274,
      "##han": 1275,
      "##ington": 1276,
      "##geria": 1277,
      "jam": 1278,
      "phot": 1279,
      "mark": 1280,
      "ram": 1281,
      "##bi": 1282,
      "truot": 1283,
      "##ky": 1284,
      "##mon": 1285,
      "chuoc": 1286,
      "xom": 1287,
      "196": 1288,
      "iraq": 1289,
      "or": 1290,
      "##we": 1291,
      "##ca": 1292,
      "phang": 1293,
      "chop": 1294,
      "ganh": 1295,
      "gre": 1296,
      "rot": 1297,
      "sli": 1298,
      "vit": 1299,
      "##itter": 1300,
      "150": 1301,
      "cl": 1302,
      "##ps": 1303,
      "##lk": 1304,
      "##ho": 1305,
      "chin": 1306,
      "##dp": 1307,
      "##dy": 1308,
      "com": 1309,
      "##ins": 1310,
      "khop": 1311,
      "feet": 1312,
      "twitter": 1313,
      "dar": 1314,
      "xoi": 1315,
      "gdp": 1316,
      "nap": 1317,
      "##hi": 1318,
      "co2": 1319,
      "nhiep": 1320,
      "kip": 1321,
      "nhang": 1322,
      "##ok": 1323,
      "##ba": 1324,
      "huyen": 1325,
      "##ert": 1326,
      "str": 1327,
      "pet": 1328,
      "wash": 1329,
      "##ric": 1330,
      "##gg": 1331,
      "lin": 1332,
      "xao": 1333,
      "##lan": 1334,
      "##lor": 1335,
      "##bo": 1336,
      "ein": 1337,
      "##pe": 1338,
      "##ans": 1339,
      "cacbon": 1340,
      "nghich": 1341,
      "hep": 1342,
      "##ier": 1343,
      "einstein": 1344,
      "bap": 1345,
      "paul": 1346,
      "slide": 1347,
      "bri": 1348,
      "jon": 1349,
      "##ts": 1350,
      "##tin": 1351,
      "##000": 1352,
      "khuc": 1353,
      "##lia": 1354,
      "tedx": 1355,
      "gene": 1356,
      "carbon": 1357,
      "##ael": 1358,
      "franc": 1359,
      "wik": 1360,
      "##ros": 1361,
      "##ban": 1362,
      "vach": 1363,
      "nhao": 1364,
      "##ston": 1365,
      "rich": 1366,
      "##phone": 1367,
      "washington": 1368,
      "chen": 1369,
      "##eph": 1370,
      "##lex": 1371,
      "george": 1372,
      "det": 1373,
      "ria": 1374,
      "duyet": 1375,
      "webs": 1376,
      "hack": 1377,
      "wil": 1378,
      "##nh": 1379,
      "##con": 1380,
      "website": 1381,
      "45": 1382,
      "##ward": 1383,
      "##ill": 1384,
      "chip": 1385,
      "nigeria": 1386,
      "charles": 1387,
      "35": 1388,
      "set": 1389,
      "##rus": 1390,
      "##est": 1391,
      "##van": 1392,
      "nhen": 1393,
      "pak": 1394,
      "##ny": 1395,
      "nor": 1396,
      "nhuong": 1397,
      "kep": 1398,
      "khuyet": 1399,
      "2008": 1400,
      "1000": 1401,
      "stress": 1402,
      "ah": 1403,
      "fi": 1404,
      "jos": 1405,
      "nep": 1406,
      "po": 1407,
      "##ner": 1408,
      "deo": 1409,
      "adam": 1410,
      "michael": 1411,
      "##per": 1412,
      "cuop": 1413,
      "francis": 1414,
      "23": 1415,
      "min": 1416,
      "##yl": 1417,
      "##vard": 1418,
      "nghen": 1419,
      "##ela": 1420,
      "huynh": 1421,
      "pakistan": 1422,
      "##win": 1423,
      "lech": 1424,
      "##asa": 1425,
      "thomas": 1426,
      "75": 1427,
      "el": 1428,
      "##ga": 1429,
      "##ath": 1430,
      "khuyn": 1431,
      "##ander": 1432,
      "youtu": 1433,
      "khuynh": 1434,
      "youtube": 1435,
      "##iel": 1436,
      "suong": 1437,
      "los": 1438,
      "##are": 1439,
      "kiet": 1440,
      "pm": 1441,
      "##ru": 1442,
      "xuan": 1443,
      "richard": 1444,
      "##ey": 1445,
      "##bu": 1446,
      "##ft": 1447,
      "thep": 1448,
      "haiti": 1449,
      "##ria": 1450,
      "##ght": 1451,
      "frank": 1452,
      "gps": 1453,
      "us": 1454,
      "trat": 1455,
      "ngat": 1456,
      "quac": 1457,
      "buyt": 1458,
      "##ica": 1459,
      "##ass": 1460,
      "##rop": 1461,
      "2010": 1462,
      "99": 1463,
      "hit": 1464,
      "iphone": 1465,
      "ob": 1466,
      "rw": 1467,
      "ren": 1468,
      "##ox": 1469,
      "##ir": 1470,
      "kheo": 1471,
      "nhon": 1472,
      "vut": 1473,
      "robert": 1474,
      "ip": 1475,
      "##lf": 1476,
      "##vil": 1477,
      "tit": 1478,
      "22": 1479,
      "fre": 1480,
      "sw": 1481,
      "sch": 1482,
      "nhoc": 1483,
      "gac": 1484,
      "##si": 1485,
      "##ven": 1486,
      "##30": 1487,
      "xiu": 1488,
      "james": 1489,
      "ari": 1490,
      "pi": 1491,
      "pro": 1492,
      "wal": 1493,
      "xang": 1494,
      "talk": 1495,
      "phac": 1496,
      "choang": 1497,
      "radio": 1498,
      "stu": 1499,
      "##oun": 1500,
      "hach": 1501,
      "##ker": 1502,
      "truu": 1503,
      "buom": 1504,
      "app": 1505,
      "194": 1506,
      "##ood": 1507,
      "##ney": 1508,
      "oxy": 1509,
      "scot": 1510,
      "hot": 1511,
      "##men": 1512,
      "##ett": 1513,
      "ser": 1514,
      "vun": 1515,
      "bur": 1516,
      "2007": 1517,
      "##edia": 1518,
      "cent": 1519,
      "dep": 1520,
      "dere": 1521,
      "caro": 1522,
      "nhoi": 1523,
      "tuoc": 1524,
      "luy": 1525,
      "log": 1526,
      "##heim": 1527,
      "hacker": 1528,
      "bl": 1529,
      "ech": 1530,
      "jaz": 1531,
      "of": 1532,
      "##lt": 1533,
      "##fe": 1534,
      "ngui": 1535,
      "nghiet": 1536,
      "trom": 1537,
      "##ago": 1538,
      "peter": 1539,
      "wikip": 1540,
      "alex": 1541,
      "mam": 1542,
      "##bri": 1543,
      "##bel": 1544,
      "xich": 1545,
      "obama": 1546,
      "jer": 1547,
      "nai": 1548,
      "wor": 1549,
      "##av": 1550,
      "##pt": 1551,
      "##ech": 1552,
      "##bby": 1553,
      "soan": 1554,
      "steve": 1555,
      "wikipedia": 1556,
      "gin": 1557,
      "leu": 1558,
      "nin": 1559,
      "nasa": 1560,
      "##top": 1561,
      "##lie": 1562,
      "##dro": 1563,
      "big": 1564,
      "nano": 1565,
      "##low": 1566,
      "smith": 1567,
      "600": 1568,
      "pale": 1569,
      "sah": 1570,
      "##wn": 1571,
      "##line": 1572,
      "##mm": 1573,
      "##ja": 1574,
      "suon": 1575,
      "##ami": 1576,
      "ruot": 1577,
      "martin": 1578,
      "paris": 1579,
      "gr": 1580,
      "##gan": 1581,
      "##dd": 1582,
      "##her": 1583,
      "phao": 1584,
      "run": 1585,
      "coca": 1586,
      "harvard": 1587,
      "36": 1588,
      "eu": 1589,
      "per": 1590,
      "##eles": 1591,
      "##lad": 1592,
      "##dan": 1593,
      "ros": 1594,
      "##thal": 1595,
      "darwin": 1596,
      "derek": 1597,
      "logic": 1598,
      "gie": 1599,
      "kar": 1600,
      "op": 1601,
      "vot": 1602,
      "wat": 1603,
      "##nes": 1604,
      "##cel": 1605,
      "##20": 1606,
      "ngao": 1607,
      "##ocin": 1608,
      "giot": 1609,
      "##ace": 1610,
      "nobel": 1611,
      "buong": 1612,
      "##ity": 1613,
      "inch": 1614,
      "2009": 1615,
      "##berg": 1616,
      "oxyt": 1617,
      "virut": 1618,
      "angeles": 1619,
      "francisco": 1620,
      "gieng": 1621,
      "ze": 1622,
      "##attan": 1623,
      "green": 1624,
      "oxytocin": 1625,
      "den": 1626,
      "##let": 1627,
      "tuu": 1628,
      "suoi": 1629,
      "phun": 1630,
      "tivi": 1631,
      "##ary": 1632,
      "sili": 1633,
      "##azon": 1634,
      "yeah": 1635,
      "##heimer": 1636,
      "27": 1637,
      "km": 1638,
      "kieng": 1639,
      "pop": 1640,
      "##mo": 1641,
      "##ha": 1642,
      "##vin": 1643,
      "##ota": 1644,
      "cop": 1645,
      "sun": 1646,
      "bit": 1647,
      "##ald": 1648,
      "2005": 1649,
      "stan": 1650,
      "okay": 1651,
      "christ": 1652,
      "sahara": 1653,
      "fr": 1654,
      "##du": 1655,
      "amazon": 1656,
      "##ice": 1657,
      "pu": 1658,
      "wh": 1659,
      "đc": 1660,
      "##wood": 1661,
      "##nis": 1662,
      "##len": 1663,
      "##ko": 1664,
      "then": 1665,
      "cui": 1666,
      "nhuc": 1667,
      "loa": 1668,
      "laptop": 1669,
      "manhattan": 1670,
      "##ript": 1671,
      "##raham": 1672,
      "ele": 1673,
      "gach": 1674,
      "jack": 1675,
      "rach": 1676,
      "xen": 1677,
      "##rr": 1678,
      "##do": 1679,
      "##zheimer": 1680,
      "chic": 1681,
      "##rig": 1682,
      "alzheimer": 1683,
      "250": 1684,
      "26": 1685,
      "gal": 1686,
      "nac": 1687,
      "rock": 1688,
      "war": 1689,
      "##ec": 1690,
      "##sa": 1691,
      "##su": 1692,
      "##bt": 1693,
      "dip": 1694,
      "##lian": 1695,
      "haw": 1696,
      "joe": 1697,
      "silicon": 1698,
      "chicago": 1699,
      "95": 1700,
      "dap": 1701,
      "eric": 1702,
      "##wi": 1703,
      "##dge": 1704,
      "đoat": 1705,
      "##amin": 1706,
      "boston": 1707,
      "xoan": 1708,
      "higg": 1709,
      "art": 1710,
      "1990": 1711,
      "vacc": 1712,
      "willi": 1713,
      "rwanda": 1714,
      "studio": 1715,
      "pat": 1716,
      "ui": 1717,
      "##io": 1718,
      "##mer": 1719,
      "thot": 1720,
      "hoanh": 1721,
      "đola": 1722,
      "##ala": 1723,
      "mont": 1724,
      "jan": 1725,
      "##od": 1726,
      "##gen": 1727,
      "##inc": 1728,
      "sing": 1729,
      "##rew": 1730,
      "hydro": 1731,
      "##ola": 1732,
      "##ound": 1733,
      "ali": 1734,
      "ii": 1735,
      "jim": 1736,
      "kor": 1737,
      "mri": 1738,
      "ot": 1739,
      "pl": 1740,
      "pen": 1741,
      "sar": 1742,
      "##ies": 1743,
      "nhai": 1744,
      "giap": 1745,
      "golf": 1746,
      "transc": 1747,
      "star": 1748,
      "gabby": 1749,
      "##age": 1750,
      "gates": 1751,
      "apple": 1752,
      "william": 1753,
      "65": 1754,
      "ax": 1755,
      "mt": 1756,
      "wol": 1757,
      "##lyn": 1758,
      "##va": 1759,
      "subt": 1760,
      "king": 1761,
      "hans": 1762,
      "##itles": 1763,
      "show": 1764,
      "##bert": 1765,
      "transcript": 1766,
      "subtitles": 1767,
      "32": 1768,
      "ag": 1769,
      "we": 1770,
      "##roi": 1771,
      "##sp": 1772,
      "##kin": 1773,
      "##hua": 1774,
      "##eth": 1775,
      "times": 1776,
      "mor": 1777,
      "micro": 1778,
      "##rigami": 1779,
      "28": 1780,
      "gien": 1781,
      "gao": 1782,
      "sen": 1783,
      "wow": 1784,
      "##sman": 1785,
      "##zza": 1786,
      "chui": 1787,
      "bun": 1788,
      "diu": 1789,
      "195": 1790,
      "2006": 1791,
      "2004": 1792,
      "##sey": 1793,
      "palest": 1794,
      "koran": 1795,
      "got": 1796,
      "nit": 1797,
      "origami": 1798,
      "pal": 1799,
      "un": 1800,
      "xach": 1801,
      "##via": 1802,
      "thieng": 1803,
      "tes": 1804,
      "vom": 1805,
      "##espe": 1806,
      "all": 1807,
      "bin": 1808,
      "cy": 1809,
      "flor": 1810,
      "jen": 1811,
      "pan": 1812,
      "pian": 1813,
      "uon": 1814,
      "xon": 1815,
      "##hur": 1816,
      "##ation": 1817,
      "đut": 1818,
      "online": 1819,
      "tony": 1820,
      "rio": 1821,
      "1970": 1822,
      "1960": 1823,
      "piano": 1824,
      "biem": 1825,
      "clip": 1826,
      "##met": 1827,
      "##ble": 1828,
      "##vel": 1829,
      "khen": 1830,
      "cola": 1831,
      "tali": 1832,
      "howard": 1833,
      "mah": 1834,
      "cambri": 1835,
      "del": 1836,
      "##lick": 1837,
      "2003": 1838,
      "2011": 1839,
      "##mbia": 1840,
      "jazz": 1841,
      "vaccine": 1842,
      "33": 1843,
      "cr": 1844,
      "##oft": 1845,
      "##nt": 1846,
      "##uel": 1847,
      "##ure": 1848,
      "##ves": 1849,
      "##xi": 1850,
      "las": 1851,
      "##atch": 1852,
      "trum": 1853,
      "congo": 1854,
      "##erson": 1855,
      "lego": 1856,
      "120": 1857,
      "henry": 1858,
      "pizza": 1859,
      "world": 1860,
      "eli": 1861,
      "eth": 1862,
      "fer": 1863,
      "por": 1864,
      "ug": 1865,
      "wall": 1866,
      "yo": 1867,
      "##ast": 1868,
      "##rk": 1869,
      "##eet": 1870,
      "##mi": 1871,
      "nhet": 1872,
      "tasman": 1873,
      "bush": 1874,
      "led": 1875,
      "ent": 1876,
      "micros": 1877,
      "##que": 1878,
      "brian": 1879,
      "700": 1880,
      "800": 1881,
      "##ul": 1882,
      "##my": 1883,
      "##zan": 1884,
      "khe": 1885,
      "cor": 1886,
      "muu": 1887,
      "mep": 1888,
      "ghana": 1889,
      "##esh": 1890,
      "##llo": 1891,
      "huyt": 1892,
      "oxford": 1893,
      "3000": 1894,
      "##mpic": 1895,
      "yemen": 1896,
      "ford": 1897,
      "arist": 1898,
      "elect": 1899,
      "higgs": 1900,
      "cambridge": 1901,
      "uganda": 1902,
      "fg": 1903,
      "nl": 1904,
      "syria": 1905,
      "tweet": 1906,
      "gieo": 1907,
      "axit": 1908,
      "entrop": 1909,
      "microsoft": 1910,
      "aristot": 1911,
      "85": 1912,
      "pe": 1913,
      "vanh": 1914,
      "##aw": 1915,
      "##kg": 1916,
      "her": 1917,
      "sand": 1918,
      "ruc": 1919,
      "mand": 1920,
      "1950": 1921,
      "##ida": 1922,
      "aristotle": 1923,
      "av": 1924,
      "fox": 1925,
      "ku": 1926,
      "oto": 1927,
      "oly": 1928,
      "um": 1929,
      "##wart": 1930,
      "##lli": 1931,
      "##ki": 1932,
      "##bs": 1933,
      "##bal": 1934,
      "##ini": 1935,
      "nhot": 1936,
      "mari": 1937,
      "quad": 1938,
      "tex": 1939,
      "doll": 1940,
      "##ose": 1941,
      "sal": 1942,
      "xit": 1943,
      "##ov": 1944,
      "##har": 1945,
      "##ati": 1946,
      "##enh": 1947,
      "chum": 1948,
      "mad": 1949,
      "sep": 1950,
      "nuot": 1951,
      "buu": 1952,
      "philip": 1953,
      "lee": 1954,
      "lester": 1955,
      "##itz": 1956,
      "##esia": 1957,
      "neander": 1958,
      "2001": 1959,
      "##the": 1960,
      "##ther": 1961,
      "oxi": 1962,
      "##ctor": 1963,
      "##byl": 1964,
      "charlie": 1965,
      "stanford": 1966,
      "taliban": 1967,
      "entropy": 1968,
      "neanderthal": 1969,
      "55": 1970,
      "blu": 1971,
      "jor": 1972,
      "noc": 1973,
      "uot": 1974,
      "##ain": 1975,
      "##pa": 1976,
      "##tan": 1977,
      "##bor": 1978,
      "##ino": 1979,
      "sut": 1980,
      "nghieng": 1981,
      "nhuom": 1982,
      "nuc": 1983,
      "amy": 1984,
      "##ardo": 1985,
      "shak": 1986,
      "abraham": 1987,
      "market": 1988,
      "florida": 1989,
      "texas": 1990,
      "29": 1991,
      "lieng": 1992,
      "nick": 1993,
      "pol": 1994,
      "##pp": 1995,
      "##ror": 1996,
      "##eg": 1997,
      "##oh": 1998,
      "##oot": 1999,
      "##no": 2000,
      "##ug": 2001,
      "##zy": 2002,
      "##fer": 2003,
      "holly": 2004,
      "đun": 2005,
      "daniel": 2006,
      "##ris": 2007,
      "##ish": 2008,
      "##beria": 2009,
      "bron": 2010,
      "1980": 2011,
      "jeff": 2012,
      "olympic": 2013,
      "37": 2014,
      "##ty": 2015,
      "##rry": 2016,
      "##col": 2017,
      "##kins": 2018,
      "##ze": 2019,
      "##fi": 2020,
      "lach": 2021,
      "mal": 2022,
      "sou": 2023,
      "bos": 2024,
      "insu": 2025,
      "mike": 2026,
      "##agen": 2027,
      "brook": 2028,
      "brown": 2029,
      "usd": 2030,
      "##ville": 2031,
      "dollar": 2032,
      "insulin": 2033,
      "31": 2034,
      "bj": 2035,
      "viem": 2036,
      "##gin": 2037,
      "cher": 2038,
      "##cha": 2039,
      "lou": 2040,
      "loang": 2041,
      "bip": 2042,
      "dis": 2043,
      "khuat": 2044,
      "cheo": 2045,
      "2050": 2046,
      "stre": 2047,
      "##our": 2048,
      "she": 2049,
      "rosling": 2050,
      "cyrus": 2051,
      "dv": 2052,
      "far": 2053,
      "ib": 2054,
      "jac": 2055,
      "ooh": 2056,
      "win": 2057,
      "##wen": 2058,
      "##wis": 2059,
      "##rap": 2060,
      "##yan": 2061,
      "##gu": 2062,
      "##bia": 2063,
      "##ony": 2064,
      "bop": 2065,
      "##ero": 2066,
      "##ari": 2067,
      "191": 2068,
      "##red": 2069,
      "##eda": 2070,
      "latin": 2071,
      "andrew": 2072,
      "norden": 2073,
      "black": 2074,
      "watson": 2075,
      "wolf": 2076,
      "palestine": 2077,
      "south": 2078,
      "48": 2079,
      "ceo": 2080,
      "ear": 2081,
      "gram": 2082,
      "ts": 2083,
      "up": 2084,
      "xap": 2085,
      "##gar": 2086,
      "##mad": 2087,
      "##med": 2088,
      "##hus": 2089,
      "treu": 2090,
      "khep": 2091,
      "cal": 2092,
      "tut": 2093,
      "luom": 2094,
      "chile": 2095,
      "air": 2096,
      "gore": 2097,
      "##aland": 2098,
      "steph": 2099,
      "##lobal": 2100,
      "##key": 2101,
      "##ower": 2102,
      "detroi": 2103,
      "scotland": 2104,
      "arthur": 2105,
      "singap": 2106,
      "mandela": 2107,
      "marketing": 2108,
      "street": 2109,
      "stephen": 2110,
      "detroit": 2111,
      "ex": 2112,
      "ever": 2113,
      "hal": 2114,
      "ir": 2115,
      "jes": 2116,
      "woo": 2117,
      "##nie": 2118,
      "##gon": 2119,
      "##dam": 2120,
      "##bab": 2121,
      "##val": 2122,
      "##je": 2123,
      "##jo": 2124,
      "##ant": 2125,
      "khiet": 2126,
      "chanh": 2127,
      "##air": 2128,
      "##ona": 2129,
      "indon": 2130,
      "high": 2131,
      "##lina": 2132,
      "##burg": 2133,
      "##burgh": 2134,
      "##ansas": 2135,
      "laser": 2136,
      "shakespe": 2137,
      "hollywood": 2138,
      "bronx": 2139,
      "singapore": 2140,
      "indonesia": 2141,
      "cd": 2142,
      "dot": 2143,
      "icel": 2144,
      "jay": 2145,
      "nel": 2146,
      "pri": 2147,
      "sky": 2148,
      "uh": 2149,
      "xai": 2150,
      "##well": 2151,
      "##alia": 2152,
      "##ten": 2153,
      "##ci": 2154,
      "##zo": 2155,
      "laden": 2156,
      "victor": 2157,
      "nhuoc": 2158,
      "logo": 2159,
      "gold": 2160,
      "##sta": 2161,
      "devil": 2162,
      "##row": 2163,
      "alph": 2164,
      "##idi": 2165,
      "##own": 2166,
      "scan": 2167,
      "joseph": 2168,
      "electron": 2169,
      "iceland": 2170,
      "nelson": 2171,
      "46": 2172,
      "click": 2173,
      "fu": 2174,
      "ig": 2175,
      "mia": 2176,
      "oli": 2177,
      "pound": 2178,
      "zim": 2179,
      "##way": 2180,
      "##ire": 2181,
      "lak": 2182,
      "##och": 2183,
      "bob": 2184,
      "phich": 2185,
      "beat": 2186,
      "##osh": 2187,
      "##right": 2188,
      "##asc": 2189,
      "2002": 2190,
      "##phia": 2191,
      "##rence": 2192,
      "org": 2193,
      "carolina": 2194,
      "zealand": 2195,
      "montana": 2196,
      "dvd": 2197,
      "shakespeare": 2198,
      "alpha": 2199,
      "es": 2200,
      "rand": 2201,
      "who": 2202,
      "##wor": 2203,
      "##las": 2204,
      "##ken": 2205,
      "##king": 2206,
      "##min": 2207,
      "cafe": 2208,
      "toilet": 2209,
      "##amine": 2210,
      "mag": 2211,
      "lut": 2212,
      "kevin": 2213,
      "gand": 2214,
      "newton": 2215,
      "##old": 2216,
      "riu": 2217,
      "virgin": 2218,
      "jean": 2219,
      "joshua": 2220,
      "ibm": 2221,
      "38": 2222,
      "cri": 2223,
      "eng": 2224,
      "gg": 2225,
      "##tal": 2226,
      "##nic": 2227,
      "##sin": 2228,
      "##oint": 2229,
      "khinh": 2230,
      "##atar": 2231,
      "##cher": 2232,
      "khoac": 2233,
      "hun": 2234,
      "leon": 2235,
      "##orn": 2236,
      "simon": 2237,
      "1900": 2238,
      "1930": 2239,
      "##ller": 2240,
      "##oud": 2241,
      "mary": 2242,
      "carl": 2243,
      "1999": 2244,
      "jane": 2245,
      "delhi": 2246,
      "gandhi": 2247,
      "44": 2248,
      "cp": 2249,
      "cel": 2250,
      "clin": 2251,
      "glu": 2252,
      "kg": 2253,
      "mer": 2254,
      "wright": 2255,
      "##tic": 2256,
      "##ks": 2257,
      "##mat": 2258,
      "##mal": 2259,
      "##fa": 2260,
      "trau": 2261,
      "colo": 2262,
      "##ato": 2263,
      "hor": 2264,
      "nop": 2265,
      "muong": 2266,
      "dop": 2267,
      "lewis": 2268,
      "suyt": 2269,
      "miss": 2270,
      "2012": 2271,
      "nation": 2272,
      "atlan": 2273,
      "alexander": 2274,
      "opera": 2275,
      "sarah": 2276,
      "##kinson": 2277,
      "##raph": 2278,
      "wolfram": 2279,
      "gra": 2280,
      "hac": 2281,
      "jh": 2282,
      "os": 2283,
      "pa": 2284,
      "power": 2285,
      "qa": 2286,
      "ut": 2287,
      "wk": 2288,
      "##wa": 2289,
      "##ua": 2290,
      "##ik": 2291,
      "##dr": 2292,
      "val": 2293,
      "colu": 2294,
      "gil": 2295,
      "huc": 2296,
      "matt": 2297,
      "temp": 2298,
      "##eron": 2299,
      "phil": 2300,
      "##aron": 2301,
      "tanzan": 2302,
      "lit": 2303,
      "##sto": 2304,
      "ghen": 2305,
      "xop": 2306,
      "##rey": 2307,
      "hill": 2308,
      "alb": 2309,
      "arg": 2310,
      "stewart": 2311,
      "vitamin": 2312,
      "scott": 2313,
      "disney": 2314,
      "qaeda": 2315,
      "72": 2316,
      "86": 2317,
      "as": 2318,
      "ach": 2319,
      "ash": 2320,
      "dr": 2321,
      "edi": 2322,
      "jill": 2323,
      "##ns": 2324,
      "##global": 2325,
      "##ih": 2326,
      "##din": 2327,
      "##dia": 2328,
      "##zu": 2329,
      "hooc": 2330,
      "sus": 2331,
      "via": 2332,
      "chich": 2333,
      "moz": 2334,
      "lib": 2335,
      "2030": 2336,
      "193": 2337,
      "tedglobal": 2338,
      "mili": 2339,
      "aust": 2340,
      "##mann": 2341,
      "johnny": 2342,
      "##entina": 2343,
      "nathan": 2344,
      "1984": 2345,
      "##nik": 2346,
      "poster": 2347,
      "brooklyn": 2348,
      "dopamine": 2349,
      "ak": 2350,
      "kat": 2351,
      "kal": 2352,
      "line": 2353,
      "roc": 2354,
      "sier": 2355,
      "ush": 2356,
      "uni": 2357,
      "wa": 2358,
      "xot": 2359,
      "##ollo": 2360,
      "##lash": 2361,
      "##lvia": 2362,
      "##ig": 2363,
      "##iop": 2364,
      "##sch": 2365,
      "##bar": 2366,
      "##vo": 2367,
      "##zab": 2368,
      "##zler": 2369,
      "tah": 2370,
      "phanh": 2371,
      "viol": 2372,
      "bir": 2373,
      "bud": 2374,
      "moore": 2375,
      "khuech": 2376,
      "bell": 2377,
      "##rib": 2378,
      "192": 2379,
      "guc": 2380,
      "##ardy": 2381,
      "##ograph": 2382,
      "##cks": 2383,
      "julia": 2384,
      "julian": 2385,
      "parkinson": 2386,
      "venice": 2387,
      "bert": 2388,
      "jones": 2389,
      "chenh": 2390,
      "copenh": 2391,
      "hawai": 2392,
      "elizab": 2393,
      "bosnia": 2394,
      "virginia": 2395,
      "tanzania": 2396,
      "album": 2397,
      "copenhagen": 2398,
      "elizabeth": 2399,
      "98": 2400,
      "by": 2401,
      "cn": 2402,
      "dj": 2403,
      "kam": 2404,
      "nico": 2405,
      "rep": 2406,
      "##bai": 2407,
      "##athan": 2408,
      "##ens": 2409,
      "gion": 2410,
      "##etti": 2411,
      "top": 2412,
      "maya": 2413,
      "roy": 2414,
      "rom": 2415,
      "ross": 2416,
      "chech": 2417,
      "##ring": 2418,
      "##iti": 2419,
      "##usale": 2420,
      "shir": 2421,
      "acid": 2422,
      "##tion": 2423,
      "130": 2424,
      "bren": 2425,
      "edward": 2426,
      "georg": 2427,
      "jerusale": 2428,
      "euro": 2429,
      "teszler": 2430,
      "ethiop": 2431,
      "clinton": 2432,
      "argentina": 2433,
      "jerusalem": 2434,
      "42": 2435,
      "96": 2436,
      "blo": 2437,
      "est": 2438,
      "gar": 2439,
      "gran": 2440,
      "xy": 2441,
      "##pi": 2442,
      "##tcha": 2443,
      "##rat": 2444,
      "##ned": 2445,
      "##br": 2446,
      "##bin": 2447,
      "##jamin": 2448,
      "##ied": 2449,
      "coll": 2450,
      "comp": 2451,
      "taxi": 2452,
      "pher": 2453,
      "lun": 2454,
      "muham": 2455,
      "benjamin": 2456,
      "mom": 2457,
      "babyl": 2458,
      "leone": 2459,
      "amer": 2460,
      "##lem": 2461,
      "##ellow": 2462,
      "had": 2463,
      "ghim": 2464,
      "##ily": 2465,
      "marc": 2466,
      "sher": 2467,
      "sylvia": 2468,
      "arch": 2469,
      "steven": 2470,
      "lincol": 2471,
      "ipad": 2472,
      "water": 2473,
      "wei": 2474,
      "columbia": 2475,
      "sierra": 2476,
      "ethiopia": 2477,
      "pherom": 2478,
      "muhammad": 2479,
      "babylon": 2480,
      "lincoln": 2481,
      "350": 2482,
      "64": 2483,
      "aw": 2484,
      "cm": 2485,
      "city": 2486,
      "eb": 2487,
      "fan": 2488,
      "kong": 2489,
      "kiep": 2490,
      "oec": 2491,
      "pep": 2492,
      "qatar": 2493,
      "uyen": 2494,
      "voc": 2495,
      "west": 2496,
      "##if": 2497,
      "##igan": 2498,
      "##cer": 2499,
      "##km": 2500,
      "##mber": 2501,
      "##zz": 2502,
      "##ani": 2503,
      "##ield": 2504,
      "law": 2505,
      "ngach": 2506,
      "nung": 2507,
      "xuoi": 2508,
      "cameron": 2509,
      "philad": 2510,
      "bali": 2511,
      "khuay": 2512,
      "roger": 2513,
      "apollo": 2514,
      "trans": 2515,
      "bono": 2516,
      "##rah": 2517,
      "mim": 2518,
      "hip": 2519,
      "news": 2520,
      "##keley": 2521,
      "somalia": 2522,
      "anderson": 2523,
      "##und": 2524,
      "broad": 2525,
      "##kyo": 2526,
      "jonathan": 2527,
      "ipod": 2528,
      "greenland": 2529,
      "##wich": 2530,
      "victoria": 2531,
      "zimbab": 2532,
      "leonardo": 2533,
      "hawaii": 2534,
      "oecd": 2535,
      "900": 2536,
      "ara": 2537,
      "die": 2538,
      "eve": 2539,
      "fis": 2540,
      "sk": 2541,
      "uoi": 2542,
      "well": 2543,
      "xan": 2544,
      "##eera": 2545,
      "##des": 2546,
      "##ses": 2547,
      "##kt": 2548,
      "##bie": 2549,
      "##vis": 2550,
      "##ju": 2551,
      "##oto": 2552,
      "##inburgh": 2553,
      "phinh": 2554,
      "banjo": 2555,
      "mas": 2556,
      "luther": 2557,
      "tokyo": 2558,
      "loe": 2559,
      "hum": 2560,
      "kelly": 2561,
      "##ering": 2562,
      "move": 2563,
      "bas": 2564,
      "emma": 2565,
      "gor": 2566,
      "siberia": 2567,
      "##aly": 2568,
      "ngoat": 2569,
      "##ops": 2570,
      "hambur": 2571,
      "alan": 2572,
      "##ahidi": 2573,
      "185": 2574,
      "187": 2575,
      "160": 2576,
      "140": 2577,
      "##utnik": 2578,
      "sputnik": 2579,
      "berkeley": 2580,
      "edinburgh": 2581,
      "free": 2582,
      "##ladesh": 2583,
      "christop": 2584,
      "whit": 2585,
      "alice": 2586,
      "starbu": 2587,
      "tasmanian": 2588,
      "earth": 2589,
      "national": 2590,
      "ushahidi": 2591,
      "zimbabwe": 2592,
      "hamburger": 2593,
      "47": 2594,
      "43": 2595,
      "bhu": 2596,
      "bet": 2597,
      "et": 2598,
      "fai": 2599,
      "gel": 2600,
      "gas": 2601,
      "ion": 2602,
      "ka": 2603,
      "kur": 2604,
      "oz": 2605,
      "pass": 2606,
      "rick": 2607,
      "yves": 2608,
      "điec": 2609,
      "##wom": 2610,
      "##rd": 2611,
      "##gie": 2612,
      "##iv": 2613,
      "##cy": 2614,
      "##cu": 2615,
      "##dor": 2616,
      "##mar": 2617,
      "##hr": 2618,
      "trot": 2619,
      "coper": 2620,
      "chiet": 2621,
      "##aig": 2622,
      "tur": 2623,
      "mass": 2624,
      "anas": 2625,
      "boy": 2626,
      "camp": 2627,
      "bangladesh": 2628,
      "buou": 2629,
      "hem": 2630,
      "giun": 2631,
      "giuc": 2632,
      "doug": 2633,
      "time": 2634,
      "##str": 2635,
      "##elphia": 2636,
      "##ican": 2637,
      "##aska": 2638,
      "hungary": 2639,
      "##rane": 2640,
      "kenned": 2641,
      "180": 2642,
      "##ima": 2643,
      "##negie": 2644,
      "carr": 2645,
      "carnegie": 2646,
      "super": 2647,
      "nike": 2648,
      "1996": 2649,
      "##sterone": 2650,
      "geo": 2651,
      "5000": 2652,
      "michigan": 2653,
      "jeop": 2654,
      "north": 2655,
      "jazeera": 2656,
      "##thalate": 2657,
      "tesla": 2658,
      "jordan": 2659,
      "poly": 2660,
      "colombia": 2661,
      "atlanta": 2662,
      "philadelphia": 2663,
      "starbucks": 2664,
      "copernic": 2665,
      "kennedy": 2666,
      "41": 2667,
      "58": 2668,
      "bla": 2669,
      "ivan": 2670,
      "jih": 2671,
      "mg": 2672,
      "nic": 2673,
      "pot": 2674,
      "pac": 2675,
      "res": 2676,
      "uk": 2677,
      "watt": 2678,
      "##agh": 2679,
      "##point": 2680,
      "##tis": 2681,
      "##ud": 2682,
      "##cc": 2683,
      "##sy": 2684,
      "##sen": 2685,
      "##hy": 2686,
      "##bc": 2687,
      "##xon": 2688,
      "phthalate": 2689,
      "thuo": 2690,
      "tuot": 2691,
      "duyen": 2692,
      "ver": 2693,
      "ann": 2694,
      "mut": 2695,
      "tor": 2696,
      "##apag": 2697,
      "bow": 2698,
      "bich": 2699,
      "heli": 2700,
      "kilo": 2701,
      "emily": 2702,
      "captcha": 2703,
      "like": 2704,
      "##lic": 2705,
      "nanop": 2706,
      "##ison": 2707,
      "##olas": 2708,
      "marco": 2709,
      "joel": 2710,
      "acc": 2711,
      "princ": 2712,
      "##phere": 2713,
      "1998": 2714,
      "##vers": 2715,
      "mitch": 2716,
      "##ween": 2717,
      "jackson": 2718,
      "galapag": 2719,
      "warren": 2720,
      "plato": 2721,
      "tasmania": 2722,
      "sandwich": 2723,
      "louis": 2724,
      "everest": 2725,
      "lakota": 2726,
      "susan": 2727,
      "##ographic": 2728,
      "movember": 2729,
      "jihad": 2730,
      "nanopatch": 2731,
      "galapagos": 2732,
      "52": 2733,
      "54": 2734,
      "74": 2735,
      "97": 2736,
      "aaron": 2737,
      "er": 2738,
      "ei": 2739,
      "gro": 2740,
      "kri": 2741,
      "kansas": 2742,
      "mm": 2743,
      "nach": 2744,
      "oak": 2745,
      "sin": 2746,
      "sad": 2747,
      "vin": 2748,
      "##wan": 2749,
      "##ex": 2750,
      "##lle": 2751,
      "##car": 2752,
      "##hh": 2753,
      "##zi": 2754,
      "##zona": 2755,
      "##field": 2756,
      "##oton": 2757,
      "##ata": 2758,
      "nguyet": 2759,
      "sudan": 2760,
      "##ame": 2761,
      "##eton": 2762,
      "##etho": 2763,
      "nhun": 2764,
      "mun": 2765,
      "mumb": 2766,
      "##eus": 2767,
      "neuron": 2768,
      "teo": 2769,
      "testo": 2770,
      "bum": 2771,
      "dom": 2772,
      "##rich": 2773,
      "##ita": 2774,
      "190": 2775,
      "##ado": 2776,
      "##oph": 2777,
      "robin": 2778,
      "125": 2779,
      "johnson": 2780,
      "1995": 2781,
      "1994": 2782,
      "just": 2783,
      "samuel": 2784,
      "will": 2785,
      "enzy": 2786,
      "##attle": 2787,
      "##nifer": 2788,
      "great": 2789,
      "nepal": 2790,
      "post": 2791,
      "arizona": 2792,
      "jennifer": 2793,
      "port": 2794,
      "fgm": 2795,
      "jesus": 2796,
      "powerpoint": 2797,
      "tempest": 2798,
      "christopher": 2799,
      "bhutan": 2800,
      "jeopardy": 2801,
      "princeton": 2802,
      "mumbai": 2803,
      "testosterone": 2804,
      "34": 2805,
      "68": 2806,
      "77": 2807,
      "cru": 2808,
      "foot": 2809,
      "ger": 2810,
      "iq": 2811,
      "lh": 2812,
      "sr": 2813,
      "vv": 2814,
      "vieng": 2815,
      "##tel": 2816,
      "##yer": 2817,
      "##lb": 2818,
      "##dt": 2819,
      "##kh": 2820,
      "larry": 2821,
      "ngong": 2822,
      "theu": 2823,
      "tup": 2824,
      "seo": 2825,
      "thiu": 2826,
      "cairo": 2827,
      "bus": 2828,
      "kirib": 2829,
      "doo": 2830,
      "##ers": 2831,
      "bazo": 2832,
      "les": 2833,
      "beetho": 2834,
      "romo": 2835,
      "taylor": 2836,
      "##ora": 2837,
      "##stan": 2838,
      "##osphere": 2839,
      "##lis": 2840,
      "##rit": 2841,
      "##alin": 2842,
      "havard": 2843,
      "ngop": 2844,
      "reo": 2845,
      "red": 2846,
      "socola": 2847,
      "alaska": 2848,
      "games": 2849,
      "nich": 2850,
      "##see": 2851,
      "##donald": 2852,
      "stef": 2853,
      "berlin": 2854,
      "clay": 2855,
      "jonas": 2856,
      "wiki": 2857,
      "grand": 2858,
      "grace": 2859,
      "rachel": 2860,
      "blue": 2861,
      "##garet": 2862,
      "skype": 2863,
      "violin": 2864,
      "kiribati": 2865,
      "beethoven": 2866,
      "450": 2867,
      "82": 2868,
      "bre": 2869,
      "diem": 2870,
      "eo": 2871,
      "gall": 2872,
      "graham": 2873,
      "has": 2874,
      "mama": 2875,
      "ore": 2876,
      "pic": 2877,
      "rid": 2878,
      "ryan": 2879,
      "wo": 2880,
      "xl": 2881,
      "zu": 2882,
      "##ue": 2883,
      "##ich": 2884,
      "##cra": 2885,
      "##cou": 2886,
      "##ding": 2887,
      "##ku": 2888,
      "##ms": 2889,
      "##hen": 2890,
      "##bb": 2891,
      "##bot": 2892,
      "##bble": 2893,
      "cad": 2894,
      "cass": 2895,
      "cuba": 2896,
      "##ines": 2897,
      "##ait": 2898,
      "##ette": 2899,
      "anth": 2900,
      "seattle": 2901,
      "love": 2902,
      "head": 2903,
      "kit": 2904,
      "dol": 2905,
      "khuya": 2906,
      "rose": 2907,
      "ruong": 2908,
      "indi": 2909,
      "##asure": 2910,
      "chad": 2911,
      "##ters": 2912,
      "margaret": 2913,
      "yorker": 2914,
      "##ows": 2915,
      "arn": 2916,
      "geographic": 2917,
      "spe": 2918,
      "##tech": 2919,
      "1975": 2920,
      "link": 2921,
      "##ropa": 2922,
      "titus": 2923,
      "##ltim": 2924,
      "jersey": 2925,
      "europa": 2926,
      "craig": 2927,
      "lesterland": 2928,
      "jefferson": 2929,
      "cheryl": 2930,
      "##malay": 2931,
      "cnn": 2932,
      "lawrence": 2933,
      "78": 2934,
      "are": 2935,
      "fil": 2936,
      "fbi": 2937,
      "gieu": 2938,
      "gary": 2939,
      "jr": 2940,
      "jar": 2941,
      "pap": 2942,
      "pra": 2943,
      "pier": 2944,
      "sn": 2945,
      "sara": 2946,
      "uop": 2947,
      "vinc": 2948,
      "##aa": 2949,
      "##ake": 2950,
      "##pro": 2951,
      "##tor": 2952,
      "##tom": 2953,
      "##ral": 2954,
      "##rina": 2955,
      "##em": 2956,
      "##eli": 2957,
      "##ux": 2958,
      "##ji": 2959,
      "##anic": 2960,
      "lab": 2961,
      "##ena": 2962,
      "tum": 2963,
      "##acy": 2964,
      "dun": 2965,
      "chom": 2966,
      "trut": 2967,
      "rain": 2968,
      "murr": 2969,
      "toron": 2970,
      "bor": 2971,
      "huou": 2972,
      "teen": 2973,
      "keith": 2974,
      "doha": 2975,
      "kyoto": 2976,
      "diana": 2977,
      "aime": 2978,
      "beau": 2979,
      "beach": 2980,
      "rome": 2981,
      "russ": 2982,
      "lim": 2983,
      "##stone": 2984,
      "dean": 2985,
      "##lile": 2986,
      "##rick": 2987,
      "##eland": 2988,
      "dave": 2989,
      "guine": 2990,
      "neo": 2991,
      "tedtal": 2992,
      "##robi": 2993,
      "rem": 2994,
      "##rani": 2995,
      "##tha": 2996,
      "marath": 2997,
      "metan": 2998,
      "prin": 2999,
      "##berry": 3000,
      "1992": 3001,
      "1997": 3002,
      "##linda": 3003,
      "island": 3004,
      "scr": 3005,
      "julie": 3006,
      "park": 3007,
      "spagh": 3008,
      "blogger": 3009,
      "micror": 3010,
      "4000": 3011,
      "mcdonald": 3012,
      "greg": 3013,
      "brit": 3014,
      "file": 3015,
      "##side": 3016,
      "walker": 3017,
      "1945": 3018,
      "seroton": 3019,
      "carol": 3020,
      "jerry": 3021,
      "nairobi": 3022,
      "peru": 3023,
      "denis": 3024,
      "fried": 3025,
      "hawking": 3026,
      "foxo": 3027,
      "##thew": 3028,
      "jaco": 3029,
      "uhm": 3030,
      "oliver": 3031,
      "##word": 3032,
      "katrina": 3033,
      "bertie": 3034,
      "diego": 3035,
      "password": 3036,
      "##women": 3037,
      "mitchell": 3038,
      "oregon": 3039,
      "##couver": 3040,
      "murray": 3041,
      "toronto": 3042,
      "aimee": 3043,
      "guinea": 3044,
      "marathon": 3045,
      "spaghetti": 3046,
      "microrna": 3047,
      "serotonin": 3048,
      "05": 3049,
      "57": 3050,
      "6000": 3051,
      "84": 3052,
      "dp": 3053,
      "der": 3054,
      "fda": 3055,
      "fellow": 3056,
      "gri": 3057,
      "gwen": 3058,
      "liem": 3059,
      "miet": 3060,
      "nanh": 3061,
      "phung": 3062,
      "rg": 3063,
      "reu": 3064,
      "sween": 3065,
      "##ezu": 3066,
      "##n1": 3067,
      "##yc": 3068,
      "##uc": 3069,
      "##com": 3070,
      "##dney": 3071,
      "##so": 3072,
      "##mart": 3073,
      "##hou": 3074,
      "##hol": 3075,
      "##vian": 3076,
      "##zer": 3077,
      "##fred": 3078,
      "calo": 3079,
      "code": 3080,
      "##ink": 3081,
      "tuon": 3082,
      "tunis": 3083,
      "##acci": 3084,
      "dum": 3085,
      "dubai": 3086,
      "##aurus": 3087,
      "rad": 3088,
      "##etown": 3089,
      "nhut": 3090,
      "seba": 3091,
      "sobu": 3092,
      "vancouver": 3093,
      "bolt": 3094,
      "lol": 3095,
      "canxi": 3096,
      "matthew": 3097,
      "teh": 3098,
      "bangal": 3099,
      "moma": 3100,
      "baltim": 3101,
      "leban": 3102,
      "treasure": 3103,
      "##ars": 3104,
      "liu": 3105,
      "limb": 3106,
      "chem": 3107,
      "2020": 3108,
      "ngoac": 3109,
      "ted20": 3110,
      "##lla": 3111,
      "stock": 3112,
      "state": 3113,
      "stir": 3114,
      "himalay": 3115,
      "##iss": 3116,
      "##use": 3117,
      "alber": 3118,
      "shock": 3119,
      "##agan": 3120,
      "##ager": 3121,
      "river": 3122,
      "##abad": 3123,
      "##bonacci": 3124,
      "geh": 3125,
      "bru": 3126,
      "venezu": 3127,
      "##ctic": 3128,
      "bern": 3129,
      "sms": 3130,
      "fibonacci": 3131,
      "franklin": 3132,
      "nitric": 3133,
      "allen": 3134,
      "mario": 3135,
      "milimet": 3136,
      "copernicus": 3137,
      "ukra": 3138,
      "oakland": 3139,
      "sebast": 3140,
      "sobule": 3141,
      "bangalore": 3142,
      "baltimore": 3143,
      "lebanon": 3144,
      "ted201": 3145,
      "venezuela": 3146,
      "00": 3147,
      "53": 3148,
      "dh": 3149,
      "ess": 3150,
      "ike": 3151,
      "jas": 3152,
      "kn": 3153,
      "kay": 3154,
      "kle": 3155,
      "py": 3156,
      "reb": 3157,
      "ur": 3158,
      "yale": 3159,
      "##war": 3160,
      "##ek": 3161,
      "##yon": 3162,
      "##uch": 3163,
      "##lot": 3164,
      "##lar": 3165,
      "##iro": 3166,
      "##ide": 3167,
      "##day": 3168,
      "##mala": 3169,
      "##bro": 3170,
      "##oid": 3171,
      "##ane": 3172,
      "coop": 3173,
      "##oca": 3174,
      "tara": 3175,
      "motor": 3176,
      "đui": 3177,
      "##ones": 3178,
      "conne": 3179,
      "mus": 3180,
      "num": 3181,
      "sopa": 3182,
      "toai": 3183,
      "lom": 3184,
      "tem": 3185,
      "saudi": 3186,
      "##ern": 3187,
      "dick": 3188,
      "melinda": 3189,
      "rory": 3190,
      "##arin": 3191,
      "gando": 3192,
      "god": 3193,
      "##ory": 3194,
      "liberia": 3195,
      "home": 3196,
      "##ition": 3197,
      "daf": 3198,
      "mill": 3199,
      "##nett": 3200,
      "gaza": 3201,
      "##ila": 3202,
      "albert": 3203,
      "alfred": 3204,
      "shar": 3205,
      "188": 3206,
      "404": 3207,
      "110": 3208,
      "##shire": 3209,
      "##aks": 3210,
      "##bera": 3211,
      "harlem": 3212,
      "billy": 3213,
      "fort": 3214,
      "abu": 3215,
      "jamai": 3216,
      "photosh": 3217,
      "##box": 3218,
      "nghenh": 3219,
      "copy": 3220,
      "white": 3221,
      "panthe": 3222,
      "##nobyl": 3223,
      "chernobyl": 3224,
      "caltech": 3225,
      "##ject": 3226,
      "phillip": 3227,
      "mozart": 3228,
      "american": 3229,
      "pheromone": 3230,
      "potter": 3231,
      "justin": 3232,
      "stefan": 3233,
      "gallon": 3234,
      "sweeney": 3235,
      "tehran": 3236,
      "stirling": 3237,
      "photoshop": 3238,
      "pantheon": 3239,
      "39": 3240,
      "67": 3241,
      "76": 3242,
      "94": 3243,
      "bm": 3244,
      "bieng": 3245,
      "cc": 3246,
      "evan": 3247,
      "east": 3248,
      "hin": 3249,
      "id": 3250,
      "ix": 3251,
      "mw": 3252,
      "nar": 3253,
      "osc": 3254,
      "sri": 3255,
      "uom": 3256,
      "yog": 3257,
      "zip": 3258,
      "##tos": 3259,
      "##rch": 3260,
      "##yu": 3261,
      "##uld": 3262,
      "##lv": 3263,
      "##ix": 3264,
      "##dg": 3265,
      "##sia": 3266,
      "##mu": 3267,
      "##ml": 3268,
      "##mara": 3269,
      "##xtin": 3270,
      "thet": 3271,
      "phon": 3272,
      "nom": 3273,
      "noel": 3274,
      "max": 3275,
      "##che": 3276,
      "tora": 3277,
      "tour": 3278,
      "khoat": 3279,
      "hup": 3280,
      "mathe": 3281,
      "tech": 3282,
      "ker": 3283,
      "buff": 3284,
      "heath": 3285,
      "helen": 3286,
      "kibera": 3287,
      "moses": 3288,
      "santa": 3289,
      "meyer": 3290,
      "##ark": 3291,
      "##ort": 3292,
      "sil": 3293,
      "sim": 3294,
      "##sty": 3295,
      "langley": 3296,
      "tennes": 3297,
      "##lix": 3298,
      "##rir": 3299,
      "##ites": 3300,
      "intel": 3301,
      "guate": 3302,
      "neil": 3303,
      "bonnie": 3304,
      "haz": 3305,
      "ngom": 3306,
      "stone": 3307,
      "##oux": 3308,
      "##olate": 3309,
      "mars": 3310,
      "marsh": 3311,
      "189": 3312,
      "186": 3313,
      "latinh": 3314,
      "andre": 3315,
      "##sterdam": 3316,
      "##logy": 3317,
      "1989": 3318,
      "angel": 3319,
      "chocolate": 3320,
      "michel": 3321,
      "barack": 3322,
      "irag": 3323,
      "wilson": 3324,
      "norman": 3325,
      "freespe": 3326,
      "progeria": 3327,
      "palextin": 3328,
      "360": 3329,
      "oprah": 3330,
      "williams": 3331,
      "nito": 3332,
      "cello": 3333,
      "tahrir": 3334,
      "pepsi": 3335,
      "dolby": 3336,
      "gehry": 3337,
      "bruce": 3338,
      "essex": 3339,
      "oscar": 3340,
      "guatemala": 3341,
      "freespeech": 3342,
      "66": 3343,
      "cia": 3344,
      "eg": 3345,
      "ell": 3346,
      "econ": 3347,
      "esp": 3348,
      "fm": 3349,
      "hs": 3350,
      "hall": 3351,
      "hmm": 3352,
      "ill": 3353,
      "jake": 3354,
      "kos": 3355,
      "kate": 3356,
      "mr": 3357,
      "nba": 3358,
      "ol": 3359,
      "oai": 3360,
      "pit": 3361,
      "pre": 3362,
      "pun": 3363,
      "pip": 3364,
      "ss": 3365,
      "siet": 3366,
      "tb": 3367,
      "ub": 3368,
      "wis": 3369,
      "zk": 3370,
      "##ww": 3371,
      "##watt": 3372,
      "##wait": 3373,
      "##rie": 3374,
      "##oop": 3375,
      "##non": 3376,
      "##ili": 3377,
      "##cap": 3378,
      "##cor": 3379,
      "##cia": 3380,
      "##sw": 3381,
      "##kar": 3382,
      "##kansas": 3383,
      "##ment": 3384,
      "##moud": 3385,
      "##humara": 3386,
      "vap": 3387,
      "##other": 3388,
      "calor": 3389,
      "coch": 3390,
      "##ene": 3391,
      "##aid": 3392,
      "thula": 3393,
      "##achus": 3394,
      "##etts": 3395,
      "chit": 3396,
      "solo": 3397,
      "solly": 3398,
      "##eud": 3399,
      "nhoang": 3400,
      "kiva": 3401,
      "aye": 3402,
      "moham": 3403,
      "hopkins": 3404,
      "ailen": 3405,
      "bel": 3406,
      "##aren": 3407,
      "one": 3408,
      "goa": 3409,
      "goering": 3410,
      "##leans": 3411,
      "lip": 3412,
      "##sten": 3413,
      "##esa": 3414,
      "##ics": 3415,
      "tedmed": 3416,
      "tedwomen": 3417,
      "miller": 3418,
      "##ream": 3419,
      "stand": 3420,
      "hiros": 3421,
      "10000": 3422,
      "##thia": 3423,
      "joey": 3424,
      "##ister": 3425,
      "##imet": 3426,
      "##vey": 3427,
      "##cky": 3428,
      "carter": 3429,
      "arkansas": 3430,
      "##aba": 3431,
      "nauy": 3432,
      "##sters": 3433,
      "2013": 3434,
      "brand": 3435,
      "harry": 3436,
      "##ally": 3437,
      "##eller": 3438,
      "##untu": 3439,
      "1986": 3440,
      "charlot": 3441,
      "##ders": 3442,
      "orleans": 3443,
      "##okie": 3444,
      "##vania": 3445,
      "kepler": 3446,
      "##ylvania": 3447,
      "serge": 3448,
      "karl": 3449,
      "dennis": 3450,
      "stanley": 3451,
      "play": 3452,
      "penns": 3453,
      "mahmoud": 3454,
      "jacqu": 3455,
      "irac": 3456,
      "ireland": 3457,
      "esg": 3458,
      "maryland": 3459,
      "gluc": 3460,
      "gilbert": 3461,
      "univers": 3462,
      "bloom": 3463,
      "archie": 3464,
      "weibo": 3465,
      "kilomet": 3466,
      "nicholas": 3467,
      "anthony": 3468,
      "scratch": 3469,
      "ikea": 3470,
      "cooper": 3471,
      "tarahumara": 3472,
      "toraja": 3473,
      "tennessee": 3474,
      "pipa": 3475,
      "ubuntu": 3476,
      "pennsylvania": 3477,
      "56": 3478,
      "avi": 3479,
      "bp": 3480,
      "cle": 3481,
      "cre": 3482,
      "found": 3483,
      "kath": 3484,
      "mp": 3485,
      "mck": 3486,
      "oa": 3487,
      "oan": 3488,
      "out": 3489,
      "ody": 3490,
      "pc": 3491,
      "pao": 3492,
      "sb": 3493,
      "wang": 3494,
      "##wne": 3495,
      "##ras": 3496,
      "##rsh": 3497,
      "##ool": 3498,
      "##nah": 3499,
      "##yager": 3500,
      "##ial": 3501,
      "##cam": 3502,
      "##cop": 3503,
      "##del": 3504,
      "##sk": 3505,
      "##hima": 3506,
      "##zero": 3507,
      "##flix": 3508,
      "##12": 3509,
      "##ois": 3510,
      "khay": 3511,
      "khanh": 3512,
      "##ott": 3513,
      "color": 3514,
      "cup": 3515,
      "cun": 3516,
      "##ange": 3517,
      "##int": 3518,
      "git": 3519,
      "hou": 3520,
      "hol": 3521,
      "suyen": 3522,
      "##ont": 3523,
      "noah": 3524,
      "mala": 3525,
      "maria": 3526,
      "sex": 3527,
      "hur": 3528,
      "xeo": 3529,
      "down": 3530,
      "##ery": 3531,
      "bayes": 3532,
      "lanka": 3533,
      "ball": 3534,
      "bass": 3535,
      "lyn": 3536,
      "amsterdam": 3537,
      "sioux": 3538,
      "##stle": 3539,
      "##rid": 3540,
      "homo": 3541,
      "##elli": 3542,
      "inst": 3543,
      "catad": 3544,
      "##ref": 3545,
      "hipp": 3546,
      "read": 3547,
      "rezero": 3548,
      "auror": 3549,
      "1500": 3550,
      "hamp": 3551,
      "##ilot": 3552,
      "marat": 3553,
      "johan": 3554,
      "shah": 3555,
      "1800": 3556,
      "ucla": 3557,
      "##sha": 3558,
      "##nee": 3559,
      "gamma": 3560,
      "andy": 3561,
      "johns": 3562,
      "scien": 3563,
      "scoop": 3564,
      "##ffe": 3565,
      "netflix": 3566,
      "donald": 3567,
      "##yte": 3568,
      "1985": 3569,
      "1988": 3570,
      "young": 3571,
      "browne": 3572,
      "##itha": 3573,
      "##ggie": 3574,
      "linux": 3575,
      "ahmed": 3576,
      "fred": 3577,
      "##leton": 3578,
      "##moor": 3579,
      "freud": 3580,
      "jimmy": 3581,
      "agnes": 3582,
      "palestin": 3583,
      "palm": 3584,
      "##colm": 3585,
      "malay": 3586,
      "malcolm": 3587,
      "tso": 3588,
      "##jevo": 3589,
      "whoa": 3590,
      "##matica": 3591,
      "hormon": 3592,
      "libya": 3593,
      "broadmoor": 3594,
      "freeman": 3595,
      "jacob": 3596,
      "##holm": 3597,
      "##cticut": 3598,
      "sebastian": 3599,
      "jason": 3600,
      "connecticut": 3601,
      "jamaica": 3602,
      "yoga": 3603,
      "mathematica": 3604,
      "econom": 3605,
      "cochrane": 3606,
      "##achusetts": 3607,
      "charlotte": 3608,
      "glucose": 3609,
      "odyss": 3610,
      "catadore": 3611,
      "aurora": 3612,
      "59": 3613,
      "71": 3614,
      "750": 3615,
      "7000": 3616,
      "89": 3617,
      "83": 3618,
      "dy": 3619,
      "evel": 3620,
      "fin": 3621,
      "gt": 3622,
      "hp": 3623,
      "jk": 3624,
      "kb": 3625,
      "kab": 3626,
      "mbi": 3627,
      "mba": 3628,
      "niet": 3629,
      "nia": 3630,
      "pran": 3631,
      "pasc": 3632,
      "rho": 3633,
      "wy": 3634,
      "zet": 3635,
      "##phua": 3636,
      "##tt": 3637,
      "##ress": 3638,
      "##ness": 3639,
      "##yota": 3640,
      "##gs": 3641,
      "##gos": 3642,
      "##lam": 3643,
      "##cm": 3644,
      "##sf": 3645,
      "##kim": 3646,
      "##ming": 3647,
      "##horn": 3648,
      "##bes": 3649,
      "##blin": 3650,
      "##vy": 3651,
      "##zar": 3652,
      "##200": 3653,
      "##xin": 3654,
      "##xter": 3655,
      "##fr": 3656,
      "##fl": 3657,
      "##fur": 3658,
      "##oit": 3659,
      "trin": 3660,
      "lar": 3661,
      "##ote": 3662,
      "chk": 3663,
      "##atma": 3664,
      "##atops": 3665,
      "tar": 3666,
      "tal": 3667,
      "phiet": 3668,
      "chun": 3669,
      "dur": 3670,
      "viking": 3671,
      "anne": 3672,
      "luke": 3673,
      "sean": 3674,
      "child": 3675,
      "##chi": 3676,
      "loanh": 3677,
      "biosphere": 3678,
      "huck": 3679,
      "tel": 3680,
      "hey": 3681,
      "danny": 3682,
      "dor": 3683,
      "tamif": 3684,
      "tricer": 3685,
      "baham": 3686,
      "baxter": 3687,
      "med": 3688,
      "mell": 3689,
      "mega": 3690,
      "media": 3691,
      "khuu": 3692,
      "bever": 3693,
      "voyager": 3694,
      "rod": 3695,
      "lisa": 3696,
      "gapmin": 3697,
      "##alie": 3698,
      "##els": 3699,
      "incra": 3700,
      "guard": 3701,
      "monter": 3702,
      "bonnet": 3703,
      "##ralia": 3704,
      "mir": 3705,
      "mil": 3706,
      "mix": 3707,
      "##rom": 3708,
      "##rogen": 3709,
      "stein": 3710,
      "hirsh": 3711,
      "##ous": 3712,
      "##ough": 3713,
      "redd": 3714,
      "gabr": 3715,
      "robots": 3716,
      "rives": 3717,
      "##manuel": 3718,
      "cockt": 3719,
      "##ryn": 3720,
      "##owitz": 3721,
      "arm": 3722,
      "##able": 3723,
      "1991": 3724,
      "1993": 3725,
      "schu": 3726,
      "##enture": 3727,
      "proton": 3728,
      "juan": 3729,
      "brad": 3730,
      "data": 3731,
      "naj": 3732,
      "##mpson": 3733,
      "jamie": 3734,
      "##mond": 3735,
      "##wey": 3736,
      "##west": 3737,
      "cloud": 3738,
      "##insky": 3739,
      "elvis": 3740,
      "##asso": 3741,
      "walmart": 3742,
      "1940": 3743,
      "central": 3744,
      "##ava": 3745,
      "##ddin": 3746,
      "karen": 3747,
      "rockett": 3748,
      "##velt": 3749,
      "mahatma": 3750,
      "##ovo": 3751,
      "wind": 3752,
      "osama": 3753,
      "libang": 3754,
      "australia": 3755,
      "wales": 3756,
      "brenda": 3757,
      "grant": 3758,
      "##rates": 3759,
      "ebay": 3760,
      "gordon": 3761,
      "carroca": 3762,
      "robinson": 3763,
      "enzyme": 3764,
      "wikile": 3765,
      "indiana": 3766,
      "papua": 3767,
      "sarajevo": 3768,
      "russell": 3769,
      "prince": 3770,
      "stockholm": 3771,
      "ixaren": 3772,
      "zipcar": 3773,
      "heather": 3774,
      "foundation": 3775,
      "mp3": 3776,
      "maratong": 3777,
      "malaysia": 3778,
      "odysseus": 3779,
      "pascal": 3780,
      "tamiflu": 3781,
      "triceratops": 3782,
      "bahamas": 3783,
      "beverly": 3784,
      "gapminder": 3785,
      "gabriel": 3786,
      "cocktail": 3787,
      "88": 3788,
      "ast": 3789,
      "ath": 3790,
      "bbc": 3791,
      "cyn": 3792,
      "diep": 3793,
      "eri": 3794,
      "eeg": 3795,
      "ft": 3796,
      "flick": 3797,
      "gara": 3798,
      "h5": 3799,
      "jet": 3800,
      "jess": 3801,
      "jere": 3802,
      "kang": 3803,
      "kap": 3804,
      "kas": 3805,
      "kni": 3806,
      "lg": 3807,
      "owen": 3808,
      "pp": 3809,
      "pilot": 3810,
      "rit": 3811,
      "shu": 3812,
      "sag": 3813,
      "tg": 3814,
      "td": 3815,
      "wing": 3816,
      "##par": 3817,
      "##tar": 3818,
      "##rl": 3819,
      "##ret": 3820,
      "##rett": 3821,
      "##eau": 3822,
      "##nel": 3823,
      "##ning": 3824,
      "##yd": 3825,
      "##gas": 3826,
      "##up": 3827,
      "##uk": 3828,
      "##ust": 3829,
      "##lau": 3830,
      "##dson": 3831,
      "##more": 3832,
      "##mail": 3833,
      "##bus": 3834,
      "##bara": 3835,
      "##jan": 3836,
      "##fen": 3837,
      "##fel": 3838,
      "##fus": 3839,
      "##oin": 3840,
      "##anol": 3841,
      "casey": 3842,
      "cohen": 3843,
      "cur": 3844,
      "##iner": 3845,
      "house": 3846,
      "turk": 3847,
      "##act": 3848,
      "chuon": 3849,
      "nov": 3850,
      "mak": 3851,
      "maf": 3852,
      "##ete": 3853,
      "##ets": 3854,
      "anton": 3855,
      "anna": 3856,
      "sec": 3857,
      "seri": 3858,
      "mubar": 3859,
      "naomi": 3860,
      "token": 3861,
      "toyota": 3862,
      "phuoc": 3863,
      "canyon": 3864,
      "bilb": 3865,
      "troy": 3866,
      "ter": 3867,
      "heh": 3868,
      "molly": 3869,
      "bagh": 3870,
      "dim": 3871,
      "diox": 3872,
      "meer": 3873,
      "beep": 3874,
      "row": 3875,
      "amino": 3876,
      "rufus": 3877,
      "sisy": 3878,
      "demo": 3879,
      "gayla": 3880,
      "101": 3881,
      "##ias": 3882,
      "##ese": 3883,
      "##esom": 3884,
      "1920": 3885,
      "ted200": 3886,
      "##ree": 3887,
      "##read": 3888,
      "##dez": 3889,
      "##uss": 3890,
      "nhim": 3891,
      "##load": 3892,
      "robb": 3893,
      "shi": 3894,
      "##oma": 3895,
      "kend": 3896,
      "401": 3897,
      "2500": 3898,
      "riley": 3899,
      "##shi": 3900,
      "##phi": 3901,
      "nik": 3902,
      "##lub": 3903,
      "##ffiti": 3904,
      "2015": 3905,
      "brother": 3906,
      "judy": 3907,
      "##master": 3908,
      "wide": 3909,
      "imp": 3910,
      "imf": 3911,
      "ohio": 3912,
      "splash": 3913,
      "1983": 3914,
      "1979": 3915,
      "1973": 3916,
      "1965": 3917,
      "darpa": 3918,
      "linus": 3919,
      "##tsburgh": 3920,
      "##illa": 3921,
      "hitler": 3922,
      "##etty": 3923,
      "burger": 3924,
      "365": 3925,
      "christian": 3926,
      "ottom": 3927,
      "1957": 3928,
      "cortis": 3929,
      "oxide": 3930,
      "1918": 3931,
      "oliu": 3932,
      "critic": 3933,
      "hunter": 3934,
      "graffiti": 3935,
      "nicole": 3936,
      "georgia": 3937,
      "estrogen": 3938,
      "beta": 3939,
      "massachusetts": 3940,
      "campuch": 3941,
      "##strong": 3942,
      "geoff": 3943,
      "polymer": 3944,
      "helium": 3945,
      "accenture": 3946,
      "picasso": 3947,
      "vinci": 3948,
      "tedtalk": 3949,
      "friedman": 3950,
      "tunisia": 3951,
      "marshall": 3952,
      "illin": 3953,
      "kosovo": 3954,
      "pittsburgh": 3955,
      "hiroshima": 3956,
      "sergey": 3957,
      "hampshire": 3958,
      "mellon": 3959,
      "guardian": 3960,
      "monterey": 3961,
      "reddit": 3962,
      "cynthia": 3963,
      "flickr": 3964,
      "h5n1": 3965,
      "mubarak": 3966,
      "bilbao": 3967,
      "splashy": 3968,
      "cortisol": 3969,
      "campuchia": 3970,
      "62": 3971,
      "73": 3972,
      "8000": 3973,
      "aah": 3974,
      "asp": 3975,
      "civ": 3976,
      "cern": 3977,
      "cphi": 3978,
      "dc": 3979,
      "fab": 3980,
      "flash": 3981,
      "gv": 3982,
      "gard": 3983,
      "glad": 3984,
      "kan": 3985,
      "lt": 3986,
      "let": 3987,
      "ny": 3988,
      "o2": 3989,
      "ola": 3990,
      "pach": 3991,
      "pur": 3992,
      "ris": 3993,
      "ster": 3994,
      "sinc": 3995,
      "xat": 3996,
      "xiet": 3997,
      "yum": 3998,
      "##wl": 3999,
      "##wal": 4000,
      "##ali": 4001,
      "##pines": 4002,
      "##rin": 4003,
      "##rand": 4004,
      "##rne": 4005,
      "##rass": 4006,
      "##oac": 4007,
      "##ole": 4008,
      "##oling": 4009,
      "##nya": 4010,
      "##nell": 4011,
      "##nick": 4012,
      "##gn": 4013,
      "##gi": 4014,
      "##gel": 4015,
      "##git": 4016,
      "##gab": 4017,
      "##uj": 4018,
      "##lass": 4019,
      "##lair": 4020,
      "##cas": 4021,
      "##dad": 4022,
      "##sson": 4023,
      "##sky": 4024,
      "##sburg": 4025,
      "##kes": 4026,
      "##kley": 4027,
      "##bach": 4028,
      "##vie": 4029,
      "##vent": 4030,
      "##oir": 4031,
      "lake": 4032,
      "laze": 4033,
      "##othy": 4034,
      "coun": 4035,
      "cookie": 4036,
      "curi": 4037,
      "moto": 4038,
      "hoo": 4039,
      "##iend": 4040,
      "phen": 4041,
      "phach": 4042,
      "thut": 4043,
      "bandu": 4044,
      "sulf": 4045,
      "##acre": 4046,
      "##onie": 4047,
      "##ambi": 4048,
      "nghinh": 4049,
      "church": 4050,
      "duoling": 4051,
      "nhum": 4052,
      "sofa": 4053,
      "neut": 4054,
      "xui": 4055,
      "hunt": 4056,
      "tera": 4057,
      "terence": 4058,
      "kerry": 4059,
      "mooc": 4060,
      "balk": 4061,
      "baref": 4062,
      "diam": 4063,
      "meh": 4064,
      "mech": 4065,
      "khali": 4066,
      "vol": 4067,
      "roman": 4068,
      "roma": 4069,
      "roose": 4070,
      "amanda": 4071,
      "emmanuel": 4072,
      "cape": 4073,
      "good": 4074,
      "##stal": 4075,
      "##stream": 4076,
      "dem": 4077,
      "##rice": 4078,
      "##its": 4079,
      "mann": 4080,
      "##esar": 4081,
      "202": 4082,
      "##icill": 4083,
      "mail": 4084,
      "monkey": 4085,
      "mid": 4086,
      "##reka": 4087,
      "hidro": 4088,
      "hyder": 4089,
      "##ouri": 4090,
      "##adus": 4091,
      "nheo": 4092,
      "gener": 4093,
      "hamlet": 4094,
      "gaga": 4095,
      "galile": 4096,
      "webcam": 4097,
      "##olu": 4098,
      "sha": 4099,
      "sheph": 4100,
      "##aha": 4101,
      "kentu": 4102,
      "actor": 4103,
      "##abel": 4104,
      "afgan": 4105,
      "##sek": 4106,
      "brun": 4107,
      "saman": 4108,
      "venh": 4109,
      "venter": 4110,
      "davis": 4111,
      "wired": 4112,
      "harris": 4113,
      "fear": 4114,
      "##unds": 4115,
      "1982": 4116,
      "encel": 4117,
      "michoac": 4118,
      "barbara": 4119,
      "paula": 4120,
      "##burn": 4121,
      "abc": 4122,
      "photon": 4123,
      "1962": 4124,
      "clonie": 4125,
      "josh": 4126,
      "##ners": 4127,
      "minnes": 4128,
      "elli": 4129,
      "##bul": 4130,
      "usda": 4131,
      "school": 4132,
      "project": 4133,
      "1949": 4134,
      "serra": 4135,
      "series": 4136,
      "eureka": 4137,
      "perry": 4138,
      "whis": 4139,
      "penicill": 4140,
      "##space": 4141,
      "pants": 4142,
      "##veland": 4143,
      "##quez": 4144,
      "tweets": 4145,
      "madag": 4146,
      "olympics": 4147,
      "dollars": 4148,
      "blackberry": 4149,
      "exxon": 4150,
      "prize": 4151,
      "##ascar": 4152,
      "##worth": 4153,
      "england": 4154,
      "mozambi": 4155,
      "byrne": 4156,
      "bloop": 4157,
      "complex": 4158,
      "awesom": 4159,
      "transition": 4160,
      "bonobo": 4161,
      "1858": 4162,
      "faiza": 4163,
      "film": 4164,
      "snow": 4165,
      "riverside": 4166,
      "ukraine": 4167,
      "klein": 4168,
      "pyth": 4169,
      "##muddin": 4170,
      "ellen": 4171,
      "jacques": 4172,
      "colorado": 4173,
      "malawi": 4174,
      "hormones": 4175,
      "evelyn": 4176,
      "kabul": 4177,
      "najmuddin": 4178,
      "windows": 4179,
      "wikileaks": 4180,
      "jeremy": 4181,
      "ottoman": 4182,
      "illinois": 4183,
      "civic": 4184,
      "sinclair": 4185,
      "bandura": 4186,
      "barefoot": 4187,
      "roosevelt": 4188,
      "galileo": 4189,
      "afganistan": 4190,
      "enceladus": 4191,
      "minnesota": 4192,
      "penicillin": 4193,
      "mozambique": 4194,
      "awesome": 4195,
      "03": 4196,
      "63": 4197,
      "650": 4198,
      "92": 4199,
      "ass": 4200,
      "beth": 4201,
      "ct": 4202,
      "cro": 4203,
      "cis": 4204,
      "citi": 4205,
      "eston": 4206,
      "fo": 4207,
      "hc": 4208,
      "h2": 4209,
      "hlv": 4210,
      "istan": 4211,
      "jans": 4212,
      "jaw": 4213,
      "kw": 4214,
      "knee": 4215,
      "lm": 4216,
      "nad": 4217,
      "pam": 4218,
      "pia": 4219,
      "pine": 4220,
      "past": 4221,
      "point": 4222,
      "rna": 4223,
      "sle": 4224,
      "ue": 4225,
      "uat": 4226,
      "won": 4227,
      "xdr": 4228,
      "yah": 4229,
      "zach": 4230,
      "##wick": 4231,
      "##pl": 4232,
      "##phus": 4233,
      "##rino": 4234,
      "##ee": 4235,
      "##een": 4236,
      "##oon": 4237,
      "##nc": 4238,
      "##nan": 4239,
      "##nders": 4240,
      "##gr": 4241,
      "##gram": 4242,
      "##gill": 4243,
      "##gata": 4244,
      "##ung": 4245,
      "##uza": 4246,
      "##ira": 4247,
      "##cl": 4248,
      "##corn": 4249,
      "##dle": 4250,
      "##kat": 4251,
      "##jah": 4252,
      "##zen": 4253,
      "##zim": 4254,
      "##zmann": 4255,
      "thoc": 4256,
      "lady": 4257,
      "khet": 4258,
      "coke": 4259,
      "##ats": 4260,
      "##ence": 4261,
      "gif": 4262,
      "quo": 4263,
      "hoff": 4264,
      "##aire": 4265,
      "thun": 4266,
      "tulu": 4267,
      "##ams": 4268,
      "trui": 4269,
      "ragu": 4270,
      "vivian": 4271,
      "nhuyen": 4272,
      "luria": 4273,
      "khit": 4274,
      "muot": 4275,
      "##chan": 4276,
      "toby": 4277,
      "bol": 4278,
      "low": 4279,
      "loet": 4280,
      "neumann": 4281,
      "tide": 4282,
      "huss": 4283,
      "saul": 4284,
      "saunders": 4285,
      "nghech": 4286,
      "dou": 4287,
      "dolly": 4288,
      "bal": 4289,
      "dia": 4290,
      "vod": 4291,
      "roll": 4292,
      "##aro": 4293,
      "amen": 4294,
      "gowan": 4295,
      "hannah": 4296,
      "lia": 4297,
      "life": 4298,
      "libby": 4299,
      "deep": 4300,
      "tennis": 4301,
      "##rian": 4302,
      "##alth": 4303,
      "##itar": 4304,
      "##icsek": 4305,
      "gup": 4306,
      "guy": 4307,
      "guom": 4308,
      "##rove": 4309,
      "sty": 4310,
      "sting": 4311,
      "reagan": 4312,
      "newca": 4313,
      "robicsek": 4314,
      "##olph": 4315,
      "algeria": 4316,
      "altos": 4317,
      "1200": 4318,
      "mardu": 4319,
      "##ineering": 4320,
      "joan": 4321,
      "182": 4322,
      "adren": 4323,
      "cotton": 4324,
      "##agra": 4325,
      "pros": 4326,
      "##shmi": 4327,
      "##aki": 4328,
      "##cker": 4329,
      "cargill": 4330,
      "##gers": 4331,
      "androi": 4332,
      "nih": 4333,
      "##tium": 4334,
      "isa": 4335,
      "isabel": 4336,
      "##ffel": 4337,
      "2014": 4338,
      "jul": 4339,
      "170": 4340,
      "feyn": 4341,
      "##lden": 4342,
      "##unes": 4343,
      "spring": 4344,
      "1987": 4345,
      "sony": 4346,
      "enzim": 4347,
      "##mbo": 4348,
      "##tune": 4349,
      "##rene": 4350,
      "pauling": 4351,
      "smart": 4352,
      "##linger": 4353,
      "fortune": 4354,
      "##meister": 4355,
      "1968": 4356,
      "organ": 4357,
      "chopin": 4358,
      "##hov": 4359,
      "darfur": 4360,
      "linda": 4361,
      "##rosaurus": 4362,
      "##consin": 4363,
      "jose": 4364,
      "mini": 4365,
      "##gade": 4366,
      "titan": 4367,
      "freder": 4368,
      "1948": 4369,
      "centimet": 4370,
      "caroline": 4371,
      "blah": 4372,
      "blair": 4373,
      "##ltan": 4374,
      "##ecca": 4375,
      "##suit": 4376,
      "janine": 4377,
      "seneg": 4378,
      "pear": 4379,
      "salad": 4380,
      "##ative": 4381,
      "brooks": 4382,
      "sheila": 4383,
      "farmer": 4384,
      "jesse": 4385,
      "cdc": 4386,
      "crick": 4387,
      "engineering": 4388,
      "missouri": 4389,
      "gillian": 4390,
      "kaluza": 4391,
      "budrus": 4392,
      "chechnya": 4393,
      "shirley": 4394,
      "collins": 4395,
      "sheryl": 4396,
      "pheromones": 4397,
      "broadway": 4398,
      "arab": 4399,
      "fischer": 4400,
      "whitacre": 4401,
      "kurd": 4402,
      "eiffel": 4403,
      "saddam": 4404,
      "lhc": 4405,
      "cassini": 4406,
      "himalayas": 4407,
      "rebecca": 4408,
      "prego": 4409,
      "university": 4410,
      "aviv": 4411,
      "cleveland": 4412,
      "science": 4413,
      "zetas": 4414,
      "hirshhorn": 4415,
      "erik": 4416,
      "jessica": 4417,
      "kaplan": 4418,
      "sagmeister": 4419,
      "mafia": 4420,
      "baghdad": 4421,
      "meerkat": 4422,
      "sisyphus": 4423,
      "duolingo": 4424,
      "hyderabad": 4425,
      "kentucky": 4426,
      "samantha": 4427,
      "madagascar": 4428,
      "estonia": 4429,
      "istanbul": 4430,
      "sleep": 4431,
      "hussein": 4432,
      "gowanus": 4433,
      "marduk": 4434,
      "senegal": 4435,
      "49": 4436,
      "61": 4437,
      "79": 4438,
      "aqu": 4439,
      "azer": 4440,
      "beu": 4441,
      "blan": 4442,
      "bkt": 4443,
      "cla": 4444,
      "dac": 4445,
      "ddt": 4446,
      "ec": 4447,
      "ev": 4448,
      "eam": 4449,
      "ere": 4450,
      "fa": 4451,
      "fed": 4452,
      "gw": 4453,
      "gros": 4454,
      "glen": 4455,
      "iv": 4456,
      "ing": 4457,
      "ian": 4458,
      "iss": 4459,
      "ice": 4460,
      "jy": 4461,
      "jm": 4462,
      "jour": 4463,
      "kr": 4464,
      "kant": 4465,
      "lb": 4466,
      "liec": 4467,
      "nell": 4468,
      "nice": 4469,
      "nsa": 4470,
      "pad": 4471,
      "pla": 4472,
      "poun": 4473,
      "slo": 4474,
      "squ": 4475,
      "slow": 4476,
      "sally": 4477,
      "tet": 4478,
      "vie": 4479,
      "wit": 4480,
      "with": 4481,
      "whi": 4482,
      "xiec": 4483,
      "yan": 4484,
      "zam": 4485,
      "##work": 4486,
      "##ware": 4487,
      "##tes": 4488,
      "##eng": 4489,
      "##ovan": 4490,
      "##get": 4491,
      "##gman": 4492,
      "##lley": 4493,
      "##ii": 4494,
      "##chu": 4495,
      "##cot": 4496,
      "##cal": 4497,
      "##ced": 4498,
      "##cock": 4499,
      "##dler": 4500,
      "##dans": 4501,
      "##sion": 4502,
      "##kel": 4503,
      "##kut": 4504,
      "##map": 4505,
      "##mur": 4506,
      "##bart": 4507,
      "##bago": 4508,
      "##vada": 4509,
      "##vold": 4510,
      "##jaz": 4511,
      "##xo": 4512,
      "##ful": 4513,
      "##feller": 4514,
      "##any": 4515,
      "##anor": 4516,
      "##ieber": 4517,
      "##iely": 4518,
      "tret": 4519,
      "laram": 4520,
      "lagos": 4521,
      "khieng": 4522,
      "colli": 4523,
      "costa": 4524,
      "##enos": 4525,
      "##enberg": 4526,
      "##enix": 4527,
      "taj": 4528,
      "gic": 4529,
      "phet": 4530,
      "sue": 4531,
      "sugata": 4532,
      "##ond": 4533,
      "##onic": 4534,
      "nghet": 4535,
      "##aus": 4536,
      "now": 4537,
      "noron": 4538,
      "vila": 4539,
      "đenh": 4540,
      "mull": 4541,
      "##chry": 4542,
      "sophia": 4543,
      "toat": 4544,
      "torosaurus": 4545,
      "tobago": 4546,
      "quark": 4547,
      "bog": 4548,
      "boom": 4549,
      "tiju": 4550,
      "hudson": 4551,
      "matth": 4552,
      "bup": 4553,
      "buenos": 4554,
      "nhoa": 4555,
      "hect": 4556,
      "health": 4557,
      "gium": 4558,
      "lucy": 4559,
      "more": 4560,
      "mosc": 4561,
      "triu": 4562,
      "kyi": 4563,
      "sandy": 4564,
      "lev": 4565,
      "ding": 4566,
      "mead": 4567,
      "##arke": 4568,
      "amin": 4569,
      "amyl": 4570,
      "goro": 4571,
      "rup": 4572,
      "tucson": 4573,
      "hany": 4574,
      "light": 4575,
      "apar": 4576,
      "myhr": 4577,
      "simpson": 4578,
      "##star": 4579,
      "##stine": 4580,
      "itunes": 4581,
      "##itan": 4582,
      "nevada": 4583,
      "##ase": 4584,
      "milli": 4585,
      "chaz": 4586,
      "##rolu": 4587,
      "hydr": 4588,
      "##oul": 4589,
      "##outh": 4590,
      "aung": 4591,
      "augu": 4592,
      "alab": 4593,
      "alban": 4594,
      "alain": 4595,
      "joy": 4596,
      "shan": 4597,
      "shack": 4598,
      "##idad": 4599,
      "##agram": 4600,
      "##imp": 4601,
      "lock": 4602,
      "##fords": 4603,
      "##oney": 4604,
      "ariely": 4605,
      "quix": 4606,
      "ronald": 4607,
      "niu": 4608,
      "nixon": 4609,
      "##tigr": 4610,
      "##sterol": 4611,
      "brent": 4612,
      "frans": 4613,
      "175": 4614,
      "wii": 4615,
      "##uten": 4616,
      "harvey": 4617,
      "ome": 4618,
      "pinker": 4619,
      "##ocks": 4620,
      "##ippi": 4621,
      "##dale": 4622,
      "##hem": 4623,
      "barry": 4624,
      "1976": 4625,
      "1974": 4626,
      "mitra": 4627,
      "paulo": 4628,
      "mcgon": 4629,
      "mcchry": 4630,
      "forbes": 4631,
      "##hane": 4632,
      "orkut": 4633,
      "##hod": 4634,
      "##oko": 4635,
      "##ggen": 4636,
      "seth": 4637,
      "fire": 4638,
      "titanic": 4639,
      "schwart": 4640,
      "1947": 4641,
      "cents": 4642,
      "petersburg": 4643,
      "##bright": 4644,
      "nino": 4645,
      "ninja": 4646,
      "sunni": 4647,
      "sunphua": 4648,
      "bitc": 4649,
      "##nish": 4650,
      "eleanor": 4651,
      "hansen": 4652,
      "microphone": 4653,
      "1953": 4654,
      "palin": 4655,
      "peace": 4656,
      "kuwait": 4657,
      "philippines": 4658,
      "blueg": 4659,
      "jordans": 4660,
      "##borough": 4661,
      "aires": 4662,
      "airstream": 4663,
      "beatles": 4664,
      "eskim": 4665,
      "randolph": 4666,
      "celine": 4667,
      "gluten": 4668,
      "mississ": 4669,
      "utah": 4670,
      "hills": 4671,
      "##baijan": 4672,
      "rossy": 4673,
      "georgetown": 4674,
      "america": 4675,
      "hadron": 4676,
      "arabia": 4677,
      "skid": 4678,
      "maslow": 4679,
      "etc": 4680,
      "747": 4681,
      "enzym": 4682,
      "lhq": 4683,
      "hasan": 4684,
      "ridge": 4685,
      "heads": 4686,
      "jarrett": 4687,
      "boltzmann": 4688,
      "alberta": 4689,
      "alberto": 4690,
      "hindu": 4691,
      "fmri": 4692,
      "hurtigr": 4693,
      "hippoc": 4694,
      "economist": 4695,
      "dyson": 4696,
      "pranav": 4697,
      "##mingham": 4698,
      "trinidad": 4699,
      "armstrong": 4700,
      "owens": 4701,
      "wingsuit": 4702,
      "nikola": 4703,
      "gladwell": 4704,
      "mehico": 4705,
      "giffords": 4706,
      "gupta": 4707,
      "newcastle": 4708,
      "android": 4709,
      "juliet": 4710,
      "feynman": 4711,
      "kurdistan": 4712,
      "azerbaijan": 4713,
      "eames": 4714,
      "pounds": 4715,
      "zambia": 4716,
      "laramie": 4717,
      "collider": 4718,
      "matthieu": 4719,
      "moscow": 4720,
      "amyloid": 4721,
      "myhrvold": 4722,
      "##rolux": 4723,
      "alabama": 4724,
      "mcchrystal": 4725,
      "schwartz": 4726,
      "bluegrass": 4727,
      "mississippi": 4728,
      "hurtigruten": 4729,
      "09": 4730,
      "1kg": 4731,
      "3g": 4732,
      "51": 4733,
      "bb": 4734,
      "cen": 4735,
      "cli": 4736,
      "cta": 4737,
      "csf": 4738,
      "dm": 4739,
      "dies": 4740,
      "dror": 4741,
      "eis": 4742,
      "fl": 4743,
      "fro": 4744,
      "fus": 4745,
      "fav": 4746,
      "four": 4747,
      "font": 4748,
      "gell": 4749,
      "global": 4750,
      "ide": 4751,
      "js": 4752,
      "jur": 4753,
      "kros": 4754,
      "mmm": 4755,
      "niel": 4756,
      "oat": 4757,
      "pto": 4758,
      "pav": 4759,
      "rinh": 4760,
      "rica": 4761,
      "sie": 4762,
      "tnc": 4763,
      "vs": 4764,
      "wong": 4765,
      "xoc": 4766,
      "yu": 4767,
      "yug": 4768,
      "yellow": 4769,
      "zero": 4770,
      "đh": 4771,
      "##wh": 4772,
      "##aver": 4773,
      "##pur": 4774,
      "##tz": 4775,
      "##tle": 4776,
      "##tree": 4777,
      "##oke": 4778,
      "##nal": 4779,
      "##nica": 4780,
      "##yle": 4781,
      "##yama": 4782,
      "##uba": 4783,
      "##lah": 4784,
      "##lling": 4785,
      "##ij": 4786,
      "##ior": 4787,
      "##cd": 4788,
      "##can": 4789,
      "##card": 4790,
      "##cent": 4791,
      "##df": 4792,
      "##dar": 4793,
      "##kw": 4794,
      "##mit": 4795,
      "##mite": 4796,
      "##hz": 4797,
      "##hah": 4798,
      "##hman": 4799,
      "##bis": 4800,
      "##blog": 4801,
      "##ball": 4802,
      "##vet": 4803,
      "##jad": 4804,
      "##znet": 4805,
      "##zka": 4806,
      "##xt": 4807,
      "##80": 4808,
      "##anna": 4809,
      "##aya": 4810,
      "##ayan": 4811,
      "troc": 4812,
      "vali": 4813,
      "cash": 4814,
      "cabin": 4815,
      "cour": 4816,
      "coum": 4817,
      "coban": 4818,
      "colle": 4819,
      "##atin": 4820,
      "##ater": 4821,
      "##ator": 4822,
      "##atur": 4823,
      "##inas": 4824,
      "##end": 4825,
      "##occo": 4826,
      "##oczka": 4827,
      "##ient": 4828,
      "##ais": 4829,
      "phay": 4830,
      "bank": 4831,
      "sur": 4832,
      "suther": 4833,
      "##amer": 4834,
      "duke": 4835,
      "##aust": 4836,
      "chole": 4837,
      "veo": 4838,
      "vel": 4839,
      "vec": 4840,
      "vegas": 4841,
      "maz": 4842,
      "mali": 4843,
      "mall": 4844,
      "mash": 4845,
      "malt": 4846,
      "madd": 4847,
      "annie": 4848,
      "lup": 4849,
      "cont": 4850,
      "sole": 4851,
      "honolu": 4852,
      "nami": 4853,
      "khoet": 4854,
      "boot": 4855,
      "boli": 4856,
      "biu": 4857,
      "bionic": 4858,
      "tep": 4859,
      "tele": 4860,
      "key": 4861,
      "buy": 4862,
      "thatcher": 4863,
      "heb": 4864,
      "kid": 4865,
      "kirk": 4866,
      "dow": 4867,
      "##achi": 4868,
      "haidt": 4869,
      "##erto": 4870,
      "moon": 4871,
      "moun": 4872,
      "base": 4873,
      "lei": 4874,
      "diy": 4875,
      "dic": 4876,
      "mee": 4877,
      "rou": 4878,
      "##arch": 4879,
      "channel": 4880,
      "emp": 4881,
      "phoenix": 4882,
      "gogh": 4883,
      "gould": 4884,
      "##ephan": 4885,
      "rumi": 4886,
      "rupi": 4887,
      "sachs": 4888,
      "##lever": 4889,
      "##lemy": 4890,
      "liz": 4891,
      "list": 4892,
      "lick": 4893,
      "sir": 4894,
      "siri": 4895,
      "##stry": 4896,
      "ghr": 4897,
      "dec": 4898,
      "des": 4899,
      "deb": 4900,
      "desi": 4901,
      "debor": 4902,
      "chuck": 4903,
      "##lider": 4904,
      "##ribe": 4905,
      "##alo": 4906,
      "##alog": 4907,
      "##elling": 4908,
      "103": 4909,
      "##itor": 4910,
      "##ited": 4911,
      "mania": 4912,
      "manche": 4913,
      "##esha": 4914,
      "hatz": 4915,
      "gung": 4916,
      "gulf": 4917,
      "guitar": 4918,
      "##asy": 4919,
      "money": 4920,
      "tedster": 4921,
      "miles": 4922,
      "##rol": 4923,
      "##terdam": 4924,
      "##real": 4925,
      "##redd": 4926,
      "##ded": 4927,
      "stalin": 4928,
      "hyper": 4929,
      "##out": 4930,
      "rev": 4931,
      "remi": 4932,
      "##adda": 4933,
      "chimbor": 4934,
      "##opath": 4935,
      "##ilocks": 4936,
      "##olf": 4937,
      "botton": 4938,
      "botsw": 4939,
      "marx": 4940,
      "marie": 4941,
      "jobs": 4942,
      "shaw": 4943,
      "shredd": 4944,
      "##sonian": 4945,
      "##ider": 4946,
      "##idge": 4947,
      "181": 4948,
      "##istor": 4949,
      "25000": 4950,
      "acry": 4951,
      "##kefeller": 4952,
      "##less": 4953,
      "okina": 4954,
      "1100": 4955,
      "##she": 4956,
      "##shna": 4957,
      "##abili": 4958,
      "koh": 4959,
      "andes": 4960,
      "night": 4961,
      "##tiba": 4962,
      "##lulo": 4963,
      "##ffen": 4964,
      "##azo": 4965,
      "jung": 4966,
      "parag": 4967,
      "wifi": 4968,
      "harr": 4969,
      "fez": 4970,
      "network": 4971,
      "2100": 4972,
      "pink": 4973,
      "steward": 4974,
      "1981": 4975,
      "atm": 4976,
      "atkins": 4977,
      "angela": 4978,
      "bergen": 4979,
      "your": 4980,
      "barbie": 4981,
      "1972": 4982,
      "1977": 4983,
      "1978": 4984,
      "edison": 4985,
      "mcca": 4986,
      "1969": 4987,
      "ornish": 4988,
      "##weil": 4989,
      "grey": 4990,
      "britan": 4991,
      "riaa": 4992,
      "ahmad": 4993,
      "poll": 4994,
      "##wind": 4995,
      "usain": 4996,
      "ipo": 4997,
      "ipcc": 4998,
      "walk": 4999,
      "carolyn": 5000,
      "alexis": 5001,
      "percy": 5002,
      "karachi": 5003,
      "greenville": 5004,
      "pope": 5005,
      "popcorn": 5006,
      "sunf": 5007,
      "##icef": 5008,
      "warner": 5009,
      "vaccin": 5010,
      "patel": 5011,
      "patrick": 5012,
      "penn": 5013,
      "shows": 5014,
      "agar": 5015,
      "microblog": 5016,
      "unicef": 5017,
      "allan": 5018,
      "allosphere": 5019,
      "ethanol": 5020,
      "ferris": 5021,
      "porter": 5022,
      "##zanne": 5023,
      "electrolux": 5024,
      "kuznet": 5025,
      "umar": 5026,
      "##llis": 5027,
      "farm": 5028,
      "earle": 5029,
      "goldilocks": 5030,
      "full": 5031,
      "igbo": 5032,
      "lakshmi": 5033,
      "beatbox": 5034,
      "beatrice": 5035,
      "randi": 5036,
      "magie": 5037,
      "engel": 5038,
      "atlantic": 5039,
      "valley": 5040,
      "valdez": 5041,
      "hoocmon": 5042,
      "austin": 5043,
      "nathaniel": 5044,
      "rockefeller": 5045,
      "unilever": 5046,
      "budap": 5047,
      "kamen": 5048,
      "report": 5049,
      "shirky": 5050,
      "esther": 5051,
      "collagen": 5052,
      "marcus": 5053,
      "transistor": 5054,
      "kaaba": 5055,
      "##mark": 5056,
      "turbo": 5057,
      "nicolas": 5058,
      "resnick": 5059,
      "bowl": 5060,
      "spect": 5061,
      "british": 5062,
      "derart": 5063,
      "griff": 5064,
      "bernard": 5065,
      "allende": 5066,
      "buffett": 5067,
      "silver": 5068,
      "punk": 5069,
      "wisconsin": 5070,
      "mohamed": 5071,
      "##cope": 5072,
      "sexy": 5073,
      "instagram": 5074,
      "rhode": 5075,
      "durga": 5076,
      "knight": 5077,
      "makoko": 5078,
      "robbins": 5079,
      "brothers": 5080,
      "##view": 5081,
      "curitiba": 5082,
      "neutron": 5083,
      "terawatt": 5084,
      "diamond": 5085,
      "democ": 5086,
      "bruno": 5087,
      "michoacan": 5088,
      "whiskey": 5089,
      "snowden": 5090,
      "foster": 5091,
      "yahoo": 5092,
      "hoffman": 5093,
      "vodka": 5094,
      "evans": 5095,
      "tijuana": 5096,
      "drori": 5097,
      "krosoczka": 5098,
      "ptolemy": 5099,
      "yellowstone": 5100,
      "coumarin": 5101,
      "sutherland": 5102,
      "cholesterol": 5103,
      "honolulu": 5104,
      "licklider": 5105,
      "chimborazo": 5106,
      "botswana": 5107,
      "shreddies": 5108,
      "acrylic": 5109,
      "okinawa": 5110,
      "mccain": 5111,
      "britannica": 5112,
      "9000": 5113,
      "aa": 5114,
      "bran": 5115,
      "betty": 5116,
      "ce": 5117,
      "cra": 5118,
      "csi": 5119,
      "cesar": 5120,
      "dry": 5121,
      "dall": 5122,
      "drew": 5123,
      "ey": 5124,
      "ez": 5125,
      "ebert": 5126,
      "ecu": 5127,
      "fb": 5128,
      "fow": 5129,
      "flow": 5130,
      "gb": 5131,
      "g20": 5132,
      "glas": 5133,
      "iow": 5134,
      "ibu": 5135,
      "jai": 5136,
      "jav": 5137,
      "kaz": 5138,
      "nina": 5139,
      "nrk": 5140,
      "oed": 5141,
      "off": 5142,
      "olden": 5143,
      "pis": 5144,
      "pack": 5145,
      "pall": 5146,
      "pash": 5147,
      "plan": 5148,
      "psa": 5149,
      "pesa": 5150,
      "pimp": 5151,
      "rca": 5152,
      "rita": 5153,
      "sl": 5154,
      "sard": 5155,
      "sala": 5156,
      "tanh": 5157,
      "unes": 5158,
      "vent": 5159,
      "wes": 5160,
      "wad": 5161,
      "wag": 5162,
      "whe": 5163,
      "wood": 5164,
      "xien": 5165,
      "xcot": 5166,
      "yr": 5167,
      "yay": 5168,
      "yao": 5169,
      "yard": 5170,
      "zo": 5171,
      "zap": 5172,
      "##witz": 5173,
      "##pton": 5174,
      "##pera": 5175,
      "##tct": 5176,
      "##racy": 5177,
      "##ev": 5178,
      "##eing": 5179,
      "##earch": 5180,
      "##oli": 5181,
      "##olis": 5182,
      "##nu": 5183,
      "##nor": 5184,
      "##yo": 5185,
      "##gall": 5186,
      "##gana": 5187,
      "##gio": 5188,
      "##guel": 5189,
      "##ub": 5190,
      "##uit": 5191,
      "##ura": 5192,
      "##lz": 5193,
      "##ium": 5194,
      "##cli": 5195,
      "##dl": 5196,
      "##die": 5197,
      "##down": 5198,
      "##sm": 5199,
      "##sph": 5200,
      "##kina": 5201,
      "##mor": 5202,
      "##hic": 5203,
      "##bet": 5204,
      "##bell": 5205,
      "##bale": 5206,
      "##vre": 5207,
      "##zon": 5208,
      "##xic": 5209,
      "##flu": 5210,
      "##fly": 5211,
      "##fford": 5212,
      "##đi": 5213,
      "##42": 5214,
      "##nge": 5215,
      "##hub": 5216,
      "##iev": 5217,
      "trc": 5218,
      "lazar": 5219,
      "var": 5220,
      "cas": 5221,
      "coast": 5222,
      "##aton": 5223,
      "##inck": 5224,
      "take": 5225,
      "hos": 5226,
      "##aim": 5227,
      "phiem": 5228,
      "turing": 5229,
      "tulley": 5230,
      "nguech": 5231,
      "sushi": 5232,
      "suzanne": 5233,
      "##acore": 5234,
      "##oni": 5235,
      "##onia": 5236,
      "##aman": 5237,
      "dui": 5238,
      "durk": 5239,
      "nok": 5240,
      "noir": 5241,
      "vill": 5242,
      "viagra": 5243,
      "maj": 5244,
      "maas": 5245,
      "maine": 5246,
      "maggie": 5247,
      "anat": 5248,
      "luton": 5249,
      "ses": 5250,
      "seli": 5251,
      "mul": 5252,
      "soph": 5253,
      "sounds": 5254,
      "thia": 5255,
      "too": 5256,
      "##ape": 5257,
      "vul": 5258,
      "đit": 5259,
      "boeing": 5260,
      "loren": 5261,
      "bing": 5262,
      "bioph": 5263,
      "xup": 5264,
      "tip": 5265,
      "tiu": 5266,
      "tivo": 5267,
      "huh": 5268,
      "hubble": 5269,
      "terr": 5270,
      "terry": 5271,
      "buot": 5272,
      "tata": 5273,
      "hex": 5274,
      "hell": 5275,
      "heidi": 5276,
      "doyle": 5277,
      "##erinck": 5278,
      "tamil": 5279,
      "tamara": 5280,
      "mode": 5281,
      "mobi": 5282,
      "babb": 5283,
      "less": 5284,
      "diane": 5285,
      "aicha": 5286,
      "mel": 5287,
      "mello": 5288,
      "meggen": 5289,
      "khadi": 5290,
      "best": 5291,
      "beij": 5292,
      "rov": 5293,
      "tango": 5294,
      "ganđi": 5295,
      "capetown": 5296,
      "tonya": 5297,
      "ruy": 5298,
      "ruby": 5299,
      "##ority": 5300,
      "##orrow": 5301,
      "##led": 5302,
      "lith": 5303,
      "##stri": 5304,
      "ghiec": 5305,
      "italy": 5306,
      "##osia": 5307,
      "##osla": 5308,
      "##lim": 5309,
      "giacom": 5310,
      "##rider": 5311,
      "##alos": 5312,
      "##elas": 5313,
      "##elah": 5314,
      "daily": 5315,
      "manju": 5316,
      "india": 5317,
      "inuit": 5318,
      "dah": 5319,
      "##aso": 5320,
      "##asca": 5321,
      "monster": 5322,
      "monica": 5323,
      "tuyp": 5324,
      "laura": 5325,
      "lauren": 5326,
      "nancy": 5327,
      "milly": 5328,
      "milan": 5329,
      "20000": 5330,
      "xoang": 5331,
      "##rou": 5332,
      "##roll": 5333,
      "##reen": 5334,
      "stephan": 5335,
      "reed": 5336,
      "huych": 5337,
      "##ise": 5338,
      "##ady": 5339,
      "##usd": 5340,
      "##loyd": 5341,
      "##opy": 5342,
      "##oplin": 5343,
      "##oprene": 5344,
      "##neth": 5345,
      "nhem": 5346,
      "robbie": 5347,
      "##illes": 5348,
      "##ilding": 5349,
      "hutch": 5350,
      "##ols": 5351,
      "marcel": 5352,
      "martha": 5353,
      "job": 5354,
      "shin": 5355,
      "183": 5356,
      "advent": 5357,
      "syn": 5358,
      "sydney": 5359,
      "tomorrow": 5360,
      "oklah": 5361,
      "##imi": 5362,
      "mena": 5363,
      "locke": 5364,
      "##akh": 5365,
      "##cken": 5366,
      "card": 5367,
      "gambia": 5368,
      "ares": 5369,
      "kool": 5370,
      "kobe": 5371,
      "##ssa": 5372,
      "maps": 5373,
      "dietrich": 5374,
      "gever": 5375,
      "1600": 5376,
      "##luhan": 5377,
      "scand": 5378,
      "##ento": 5379,
      "1400": 5380,
      "##azi": 5381,
      "1300": 5382,
      "brck": 5383,
      "juli": 5384,
      "jump": 5385,
      "part": 5386,
      "parab": 5387,
      "party": 5388,
      "parik": 5389,
      "wire": 5390,
      "##ute": 5391,
      "30000": 5392,
      "hart": 5393,
      "harold": 5394,
      "nato": 5395,
      "natalie": 5396,
      "fede": 5397,
      "feki": 5398,
      "impro": 5399,
      "donna": 5400,
      "spec": 5401,
      "atala": 5402,
      "epox": 5403,
      "enron": 5404,
      "##mbor": 5405,
      "notrino": 5406,
      "##teng": 5407,
      "bart": 5408,
      "barric": 5409,
      "barcel": 5410,
      "kinsey": 5411,
      "eddy": 5412,
      "jeep": 5413,
      "mcke": 5414,
      "mcmur": 5415,
      "mcluhan": 5416,
      "yem": 5417,
      "##qui": 5418,
      "##meer": 5419,
      "##monia": 5420,
      "1963": 5421,
      "slick": 5422,
      "clarke": 5423,
      "darwl": 5424,
      "kipp": 5425,
      "lind": 5426,
      "cacbonat": 5427,
      "geneva": 5428,
      "poli": 5429,
      "adams": 5430,
      "230": 5431,
      "minority": 5432,
      "pmtct": 5433,
      "richards": 5434,
      "frankie": 5435,
      "franken": 5436,
      "usb": 5437,
      "220": 5438,
      "swap": 5439,
      "walt": 5440,
      "walter": 5441,
      "hotmail": 5442,
      "burn": 5443,
      "burma": 5444,
      "burkina": 5445,
      "dereck": 5446,
      "smithsonian": 5447,
      "cocaine": 5448,
      "inches": 5449,
      "sunitha": 5450,
      "pugh": 5451,
      "jackie": 5452,
      "alisa": 5453,
      "sars": 5454,
      "agra": 5455,
      "morocco": 5456,
      "morgana": 5457,
      "1954": 5458,
      "gothic": 5459,
      "palmer": 5460,
      "jenny": 5461,
      "avatar": 5462,
      "kung": 5463,
      "marilyn": 5464,
      "madrid": 5465,
      "philips": 5466,
      "polar": 5467,
      "##ooth": 5468,
      "##zeiro": 5469,
      "disco": 5470,
      "1910": 5471,
      "exp": 5472,
      "every": 5473,
      "##valds": 5474,
      "##tenberg": 5475,
      "goldman": 5476,
      "##ascript": 5477,
      "whole": 5478,
      "janeiro": 5479,
      "merced": 5480,
      "mission": 5481,
      "hillary": 5482,
      "achilles": 5483,
      "dracore": 5484,
      "##igal": 5485,
      "birmingham": 5486,
      "1926": 5487,
      "bye": 5488,
      "edwards": 5489,
      "granny": 5490,
      "lunch": 5491,
      "pepper": 5492,
      "##dorfer": 5493,
      "research": 5494,
      "torvalds": 5495,
      "erin": 5496,
      "ground": 5497,
      "portland": 5498,
      "cruzeiro": 5499,
      "hasbro": 5500,
      "zurich": 5501,
      "fildes": 5502,
      "pierre": 5503,
      "vincent": 5504,
      "##profen": 5505,
      "tedtalks": 5506,
      "denisovan": 5507,
      "##house": 5508,
      "radar": 5509,
      "radcli": 5510,
      "himalaya": 5511,
      "ukraina": 5512,
      "motors": 5513,
      "homeopath": 5514,
      "mills": 5515,
      "phillips": 5516,
      "bmw": 5517,
      "meyerowitz": 5518,
      "solomon": 5519,
      "mohammed": 5520,
      "standford": 5521,
      "paolo": 5522,
      "##intosh": 5523,
      "houston": 5524,
      "johannes": 5525,
      "children": 5526,
      "megawatt": 5527,
      "miranda": 5528,
      "##rlwind": 5529,
      "curtis": 5530,
      "dioxit": 5531,
      "kendall": 5532,
      "impact": 5533,
      "aspen": 5534,
      "fabian": 5535,
      "garden": 5536,
      "stern": 5537,
      "moocs": 5538,
      "midwest": 5539,
      "python": 5540,
      "prospera": 5541,
      "frederick": 5542,
      "fischeri": 5543,
      "ecosia": 5544,
      "gross": 5545,
      "journal": 5546,
      "whirlwind": 5547,
      "mcgonigal": 5548,
      "eskimo": 5549,
      "diesel": 5550,
      "yugosla": 5551,
      "malthus": 5552,
      "namibia": 5553,
      "bolivia": 5554,
      "remix": 5555,
      "##ability": 5556,
      "harriet": 5557,
      "kuznets": 5558,
      "engelbart": 5559,
      "budapest": 5560,
      "derartu": 5561,
      "democracy": 5562,
      "fowler": 5563,
      "iowa": 5564,
      "ibuprofen": 5565,
      "javascript": 5566,
      "oldenburg": 5567,
      "salaam": 5568,
      "unesco": 5569,
      "durkheim": 5570,
      "seligman": 5571,
      "soundscap": 5572,
      "babbage": 5573,
      "meggendorfer": 5574,
      "khadija": 5575,
      "beijerinck": 5576,
      "adventist": 5577,
      "oklahoma": 5578,
      "epoxy": 5579,
      "barcelona": 5580,
      "mcmurdo": 5581,
      "darwln": 5582,
      "dracorex": 5583,
      "radcliffe": 5584,
      "homeopathy": 5585,
      "democracyos": 5586,
      "01": 5587,
      "04": 5588,
      "1m": 5589,
      "3m": 5590,
      "4sh": 5591,
      "4chan": 5592,
      "ave": 5593,
      "aaa": 5594,
      "bhar": 5595,
      "byte": 5596,
      "bieber": 5597,
      "ced": 5598,
      "cron": 5599,
      "cir": 5600,
      "club": 5601,
      "db": 5602,
      "dhar": 5603,
      "dink": 5604,
      "eco": 5605,
      "ely": 5606,
      "eva": 5607,
      "erick": 5608,
      "fn": 5609,
      "fat": 5610,
      "fall": 5611,
      "fren": 5612,
      "flip": 5613,
      "fitz": 5614,
      "flem": 5615,
      "faso": 5616,
      "gc": 5617,
      "gle": 5618,
      "h1": 5619,
      "hard": 5620,
      "iki": 5621,
      "jn": 5622,
      "jb": 5623,
      "joplin": 5624,
      "kra": 5625,
      "kum": 5626,
      "kare": 5627,
      "kiev": 5628,
      "nt": 5629,
      "nas": 5630,
      "nab": 5631,
      "nash": 5632,
      "oe": 5633,
      "oops": 5634,
      "panh": 5635,
      "pom": 5636,
      "ric": 5637,
      "sash": 5638,
      "sval": 5639,
      "tt": 5640,
      "tm": 5641,
      "tq": 5642,
      "uru": 5643,
      "urani": 5644,
      "vm": 5645,
      "wt": 5646,
      "wael": 5647,
      "woun": 5648,
      "www": 5649,
      "xia": 5650,
      "xml": 5651,
      "yun": 5652,
      "yoch": 5653,
      "zab": 5654,
      "zul": 5655,
      "##wat": 5656,
      "##ae": 5657,
      "##pont": 5658,
      "##tia": 5659,
      "##tist": 5660,
      "##roc": 5661,
      "##res": 5662,
      "##run": 5663,
      "##rhod": 5664,
      "##eal": 5665,
      "##nac": 5666,
      "##nus": 5667,
      "##nation": 5668,
      "##name": 5669,
      "##ym": 5670,
      "##yat": 5671,
      "##gy": 5672,
      "##gai": 5673,
      "##gli": 5674,
      "##gus": 5675,
      "##gger": 5676,
      "##gate": 5677,
      "##lap": 5678,
      "##lton": 5679,
      "##lph": 5680,
      "##lgar": 5681,
      "##iz": 5682,
      "##ive": 5683,
      "##iuk": 5684,
      "##ces": 5685,
      "##cus": 5686,
      "##cut": 5687,
      "##cca": 5688,
      "##cret": 5689,
      "##dh": 5690,
      "##dou": 5691,
      "##dom": 5692,
      "##dog": 5693,
      "##dore": 5694,
      "##sal": 5695,
      "##sus": 5696,
      "##sing": 5697,
      "##sby": 5698,
      "##sler": 5699,
      "##kon": 5700,
      "##kota": 5701,
      "##mone": 5702,
      "##mouth": 5703,
      "##hd": 5704,
      "##bard": 5705,
      "##bath": 5706,
      "##vu": 5707,
      "##ving": 5708,
      "##ved": 5709,
      "##jit": 5710,
      "##zac": 5711,
      "##zweil": 5712,
      "##xe": 5713,
      "##far": 5714,
      "##99": 5715,
      "##14": 5716,
      "##40": 5717,
      "##anth": 5718,
      "##ayne": 5719,
      "laf": 5720,
      "valen": 5721,
      "col": 5722,
      "cox": 5723,
      "cole": 5724,
      "coler": 5725,
      "coust": 5726,
      "china": 5727,
      "##atz": 5728,
      "##atan": 5729,
      "##anga": 5730,
      "##anging": 5731,
      "##endo": 5732,
      "nhong": 5733,
      "##ocar": 5734,
      "##ocaust": 5735,
      "tak": 5736,
      "tab": 5737,
      "gib": 5738,
      "##aib": 5739,
      "##aids": 5740,
      "thui": 5741,
      "tulip": 5742,
      "tuts": 5743,
      "đup": 5744,
      "sui": 5745,
      "sum": 5746,
      "sugh": 5747,
      "summ": 5748,
      "##onen": 5749,
      "##onchi": 5750,
      "dublin": 5751,
      "laman": 5752,
      "raja": 5753,
      "rabin": 5754,
      "ralph": 5755,
      "mason": 5756,
      "masters": 5757,
      "seng": 5758,
      "seoul": 5759,
      "const": 5760,
      "conta": 5761,
      "##chen": 5762,
      "##changing": 5763,
      "ratan": 5764,
      "toang": 5765,
      "town": 5766,
      "toxo": 5767,
      "toonchi": 5768,
      "caucas": 5769,
      "boong": 5770,
      "bose": 5771,
      "bobby": 5772,
      "borane": 5773,
      "bould": 5774,
      "lord": 5775,
      "batiuk": 5776,
      "bis": 5777,
      "bits": 5778,
      "xuoc": 5779,
      "til": 5780,
      "tic": 5781,
      "huang": 5782,
      "hugh": 5783,
      "match": 5784,
      "matty": 5785,
      "teles": 5786,
      "kev": 5787,
      "keyn": 5788,
      "bulgar": 5789,
      "bennett": 5790,
      "benoit": 5791,
      "hec": 5792,
      "heroi": 5793,
      "kiran": 5794,
      "theodore": 5795,
      "mosk": 5796,
      "baby": 5797,
      "lem": 5798,
      "lead": 5799,
      "legade": 5800,
      "lehman": 5801,
      "trek": 5802,
      "khua": 5803,
      "khuy": 5804,
      "khuyu": 5805,
      "maui": 5806,
      "beng": 5807,
      "beck": 5808,
      "bess": 5809,
      "behar": 5810,
      "volk": 5811,
      "##arina": 5812,
      "chandler": 5813,
      "ami": 5814,
      "ammonia": 5815,
      "eman": 5816,
      "capit": 5817,
      "pholer": 5818,
      "phosph": 5819,
      "gol": 5820,
      "rush": 5821,
      "##orio": 5822,
      "##lee": 5823,
      "apoph": 5824,
      "mycop": 5825,
      "myspace": 5826,
      "chek": 5827,
      "cheval": 5828,
      "sivers": 5829,
      "buck": 5830,
      "##stock": 5831,
      "##sthan": 5832,
      "##station": 5833,
      "dewey": 5834,
      "bacon": 5835,
      "macintosh": 5836,
      "##lium": 5837,
      "##rio": 5838,
      "##rive": 5839,
      "##rillo": 5840,
      "##als": 5841,
      "##alach": 5842,
      "##alah": 5843,
      "##elin": 5844,
      "##eline": 5845,
      "##ito": 5846,
      "##eson": 5847,
      "##esca": 5848,
      "ink": 5849,
      "inside": 5850,
      "maidan": 5851,
      "daw": 5852,
      "dakota": 5853,
      "gut": 5854,
      "guga": 5855,
      "neg": 5856,
      "bond": 5857,
      "##rad": 5858,
      "##rabble": 5859,
      "tuynis": 5860,
      "laur": 5861,
      "laurie": 5862,
      "mik": 5863,
      "mistry": 5864,
      "miguel": 5865,
      "cather": 5866,
      "sacram": 5867,
      "##roe": 5868,
      "##roflu": 5869,
      "##rect": 5870,
      "store": 5871,
      "start": 5872,
      "##oulli": 5873,
      "rey": 5874,
      "reg": 5875,
      "reich": 5876,
      "recor": 5877,
      "##andro": 5878,
      "##isel": 5879,
      "socrates": 5880,
      "aud": 5881,
      "auto": 5882,
      "audio": 5883,
      "ausch": 5884,
      "##opo": 5885,
      "##ople": 5886,
      "genes": 5887,
      "interval": 5888,
      "internation": 5889,
      "hama": 5890,
      "hamburg": 5891,
      "##ilton": 5892,
      "webb": 5893,
      "webster": 5894,
      "hutu": 5895,
      "alley": 5896,
      "shel": 5897,
      "shere": 5898,
      "##ides": 5899,
      "kenneth": 5900,
      "meme": 5901,
      "1850": 5902,
      "adrian": 5903,
      "adhd": 5904,
      "##lag": 5905,
      "##ague": 5906,
      "acum": 5907,
      "action": 5908,
      "rip": 5909,
      "##oooo": 5910,
      "somali": 5911,
      "tombo": 5912,
      "tommy": 5913,
      "##edic": 5914,
      "##urf": 5915,
      "##dian": 5916,
      "##shasa": 5917,
      "##aka": 5918,
      "thali": 5919,
      "caram": 5920,
      "carmen": 5921,
      "carrillo": 5922,
      "gamble": 5923,
      "ariel": 5924,
      "##geren": 5925,
      "##abi": 5926,
      "##abasca": 5927,
      "kohn": 5928,
      "##acking": 5929,
      "oxit": 5930,
      "##stern": 5931,
      "##lint": 5932,
      "165": 5933,
      "##lup": 5934,
      "afri": 5935,
      "scru": 5936,
      "scrabble": 5937,
      "50000": 5938,
      "saf": 5939,
      "saint": 5940,
      "##secret": 5941,
      "2016": 5942,
      "brin": 5943,
      "jun": 5944,
      "partic": 5945,
      "178": 5946,
      "173": 5947,
      "natur": 5948,
      "brah": 5949,
      "bragg": 5950,
      "braxin": 5951,
      "##undi": 5952,
      "spock": 5953,
      "tracy": 5954,
      "atten": 5955,
      "atlas": 5956,
      "enri": 5957,
      "##bee": 5958,
      "240": 5959,
      "angola": 5960,
      "berry": 5961,
      "berners": 5962,
      "##mpet": 5963,
      "##tok": 5964,
      "barn": 5965,
      "bartok": 5966,
      "kindle": 5967,
      "kinshasa": 5968,
      "jeans": 5969,
      "mca": 5970,
      "mcg": 5971,
      "##vik": 5972,
      "##vich": 5973,
      "##virus": 5974,
      "small": 5975,
      "lothar": 5976,
      "forer": 5977,
      "##burst": 5978,
      "##biot": 5979,
      "##mons": 5980,
      "1967": 5981,
      "orwell": 5982,
      "rotterdam": 5983,
      "clau": 5984,
      "clark": 5985,
      "napot": 5986,
      "##oker": 5987,
      "##lano": 5988,
      "bridge": 5989,
      "jonny": 5990,
      "##ephalos": 5991,
      "wilkins": 5992,
      "##vani": 5993,
      "##ylon": 5994,
      "elyn": 5995,
      "##athai": 5996,
      "##anderson": 5997,
      "##arez": 5998,
      "prom": 5999,
      "talks": 6000,
      "appalach": 6001,
      "burg": 6002,
      "burns": 6003,
      "depp": 6004,
      "gray": 6005,
      "grier": 6006,
      "karate": 6007,
      "karmap": 6008,
      "greene": 6009,
      "##haas": 6010,
      "fras": 6011,
      "friend": 6012,
      "puerto": 6013,
      "##koff": 6014,
      "##kozy": 6015,
      "xenlulo": 6016,
      "gallup": 6017,
      "warcra": 6018,
      "##wide": 6019,
      "montreal": 6020,
      "alison": 6021,
      "sarkozy": 6022,
      "starck": 6023,
      "bundy": 6024,
      "1959": 6025,
      "palo": 6026,
      "under": 6027,
      "united": 6028,
      "florence": 6029,
      "jenn": 6030,
      "jenning": 6031,
      "panama": 6032,
      "worldwide": 6033,
      "eliot": 6034,
      "elias": 6035,
      "fergus": 6036,
      "ferroflu": 6037,
      "cornell": 6038,
      "pew": 6039,
      "##awton": 6040,
      "herbie": 6041,
      "hercu": 6042,
      "sandberg": 6043,
      "salman": 6044,
      "salinas": 6045,
      "madison": 6046,
      "neanderthals": 6047,
      "nucle": 6048,
      "nickname": 6049,
      "sheik": 6050,
      "sheena": 6051,
      "winky": 6052,
      "##guay": 6053,
      "grameen": 6054,
      "upload": 6055,
      "calcut": 6056,
      "prius": 6057,
      "466": 6058,
      "fuller": 6059,
      "igf": 6060,
      "##lasma": 6061,
      "##minster": 6062,
      "jeanny": 6063,
      "crimer": 6064,
      "carlton": 6065,
      "colombo": 6066,
      "hormone": 6067,
      "oslo": 6068,
      "osorio": 6069,
      "temple": 6070,
      "disneyland": 6071,
      "ashdown": 6072,
      "1938": 6073,
      "austen": 6074,
      "roche": 6075,
      "birds": 6076,
      "1929": 6077,
      "bertrand": 6078,
      "kamal": 6079,
      "kamkw": 6080,
      "##tions": 6081,
      "brene": 6082,
      "georges": 6083,
      "garage": 6084,
      "##brot": 6085,
      "fission": 6086,
      "##desk": 6087,
      "1879": 6088,
      "kaf": 6089,
      "kurzweil": 6090,
      "ozone": 6091,
      "douglas": 6092,
      "##hydr": 6093,
      "vermeer": 6094,
      "grove": 6095,
      "sinai": 6096,
      "postsecret": 6097,
      "cruz": 6098,
      "break": 6099,
      "ridley": 6100,
      "wool": 6101,
      "wofford": 6102,
      "arnold": 6103,
      "speed": 6104,
      "jared": 6105,
      "pierson": 6106,
      "dunlap": 6107,
      "gregory": 6108,
      "reuters": 6109,
      "##ycephalos": 6110,
      "bernoulli": 6111,
      "klee": 6112,
      "kerala": 6113,
      "kermit": 6114,
      "hazleton": 6115,
      "1890": 6116,
      "andrea": 6117,
      "angelo": 6118,
      "punta": 6119,
      "playstation": 6120,
      "creative": 6121,
      "mckay": 6122,
      "wangari": 6123,
      "holocaust": 6124,
      "reader": 6125,
      "dorothy": 6126,
      "medic": 6127,
      "cloudburst": 6128,
      "athabasca": 6129,
      "kaspar": 6130,
      "##laug": 6131,
      "pachycephalos": 6132,
      "risd": 6133,
      "##gabyte": 6134,
      "churchill": 6135,
      "huntington": 6136,
      "balkans": 6137,
      "khalil": 6138,
      "shephelah": 6139,
      "wonder": 6140,
      "##amsala": 6141,
      "bolte": 6142,
      "adrenalin": 6143,
      "blanc": 6144,
      "claes": 6145,
      "erez": 6146,
      "feder": 6147,
      "nellie": 6148,
      "square": 6149,
      "mullins": 6150,
      "bogota": 6151,
      "hecta": 6152,
      "meadow": 6153,
      "milliken": 6154,
      "albania": 6155,
      "shackleton": 6156,
      "quixote": 6157,
      "bitcoin": 6158,
      "dmca": 6159,
      "jurvet": 6160,
      "tncs": 6161,
      "##where": 6162,
      "college": 6163,
      "maddie": 6164,
      "bionicle": 6165,
      "meegeren": 6166,
      "channelrhod": 6167,
      "ghraib": 6168,
      "design": 6169,
      "manchester": 6170,
      "hatzalah": 6171,
      "hypercard": 6172,
      "ipods": 6173,
      "drybath": 6174,
      "sardin": 6175,
      "wagner": 6176,
      "##baleen": 6177,
      "lazarus": 6178,
      "hosni": 6179,
      "nokia": 6180,
      "sesame": 6181,
      "terroir": 6182,
      "modem": 6183,
      "lithium": 6184,
      "koolhaas": 6185,
      "improv": 6186,
      "frankenstein": 6187,
      "swaptree": 6188,
      "everywhere": 6189,
      "4shbab": 6190,
      "avelile": 6191,
      "dharamsala": 6192,
      "h1n1": 6193,
      "ikigai": 6194,
      "svalbard": 6195,
      "uruguay": 6196,
      "uranium": 6197,
      "wounded": 6198,
      "yunus": 6199,
      "yochai": 6200,
      "zabbaleen": 6201,
      "zullinger": 6202,
      "cousteau": 6203,
      "sughar": 6204,
      "rajasthan": 6205,
      "container": 6206,
      "boulder": 6207,
      "telescope": 6208,
      "bulgaria": 6209,
      "heroin": 6210,
      "moskowitz": 6211,
      "legadema": 6212,
      "pholeros": 6213,
      "apophis": 6214,
      "tuynisi": 6215,
      "catherine": 6216,
      "sacramento": 6217,
      "autodesk": 6218,
      "international": 6219,
      "shereen": 6220,
      "acumen": 6221,
      "particip": 6222,
      "attenborough": 6223,
      "karmapa": 6224,
      "warcraft": 6225,
      "ferguson": 6226,
      "ferrofluid": 6227,
      "calcutta": 6228,
      "kasparov": 6229,
      "jurvetson": 6230,
      "07": 6231,
      "2d": 6232,
      "2kg": 6233,
      "3k": 6234,
      "330": 6235,
      "5m": 6236,
      "87": 6237,
      "9kg": 6238,
      "aber": 6239,
      "ahn": 6240,
      "aria": 6241,
      "astr": 6242,
      "cb": 6243,
      "dd": 6244,
      "dra": 6245,
      "egan": 6246,
      "easy": 6247,
      "fen": 6248,
      "fam": 6249,
      "foo": 6250,
      "fur": 6251,
      "fore": 6252,
      "food": 6253,
      "flint": 6254,
      "g8": 6255,
      "gart": 6256,
      "gnh": 6257,
      "gmail": 6258,
      "glass": 6259,
      "ht": 6260,
      "hardy": 6261,
      "jt": 6262,
      "jal": 6263,
      "jeb": 6264,
      "jak": 6265,
      "java": 6266,
      "jpl": 6267,
      "kai": 6268,
      "kun": 6269,
      "kru": 6270,
      "lbs": 6271,
      "ms": 6272,
      "nc": 6273,
      "nag": 6274,
      "nfl": 6275,
      "nylon": 6276,
      "og": 6277,
      "oanh": 6278,
      "pos": 6279,
      "pand": 6280,
      "pog": 6281,
      "ped": 6282,
      "plu": 6283,
      "patt": 6284,
      "pts": 6285,
      "plex": 6286,
      "page": 6287,
      "pbs": 6288,
      "poker": 6289,
      "ry": 6290,
      "rico": 6291,
      "rice": 6292,
      "sj": 6293,
      "siem": 6294,
      "sieng": 6295,
      "sker": 6296,
      "sno": 6297,
      "szy": 6298,
      "slash": 6299,
      "sagan": 6300,
      "tc": 6301,
      "uz": 6302,
      "uri": 6303,
      "uyn": 6304,
      "usc": 6305,
      "wen": 6306,
      "ward": 6307,
      "wid": 6308,
      "wuj": 6309,
      "xk": 6310,
      "yb": 6311,
      "yor": 6312,
      "yose": 6313,
      "yuc": 6314,
      "zig": 6315,
      "##wak": 6316,
      "##awi": 6317,
      "##po": 6318,
      "##pon": 6319,
      "##pos": 6320,
      "##pri": 6321,
      "##plex": 6322,
      "##tr": 6323,
      "##ting": 6324,
      "##eh": 6325,
      "##nand": 6326,
      "##nington": 6327,
      "##nister": 6328,
      "##yp": 6329,
      "##gb": 6330,
      "##gor": 6331,
      "##ges": 6332,
      "##gim": 6333,
      "##gow": 6334,
      "##grove": 6335,
      "##lett": 6336,
      "##ifer": 6337,
      "##iyama": 6338,
      "##cco": 6339,
      "##dn": 6340,
      "##d4": 6341,
      "##dai": 6342,
      "##ddy": 6343,
      "##desh": 6344,
      "##san": 6345,
      "##ska": 6346,
      "##smet": 6347,
      "##sworth": 6348,
      "##mes": 6349,
      "##mid": 6350,
      "##mwood": 6351,
      "##hl": 6352,
      "##hm": 6353,
      "##hoo": 6354,
      "##hne": 6355,
      "##hall": 6356,
      "##hyl": 6357,
      "##bine": 6358,
      "##bian": 6359,
      "##bardo": 6360,
      "##bread": 6361,
      "##vat": 6362,
      "##var": 6363,
      "##vid": 6364,
      "##jin": 6365,
      "##jiv": 6366,
      "##25": 6367,
      "##fam": 6368,
      "##97": 6369,
      "##10": 6370,
      "##45": 6371,
      "##ngs": 6372,
      "##huhu": 6373,
      "##anet": 6374,
      "##ania": 6375,
      "##anti": 6376,
      "thri": 6377,
      "thal": 6378,
      "thrun": 6379,
      "tray": 6380,
      "kheu": 6381,
      "##oth": 6382,
      "casa": 6383,
      "carib": 6384,
      "caribe": 6385,
      "cod": 6386,
      "cool": 6387,
      "coltan": 6388,
      "chyen": 6389,
      "##atic": 6390,
      "##atford": 6391,
      "##angel": 6392,
      "##ocure": 6393,
      "table": 6394,
      "give": 6395,
      "girl": 6396,
      "hog": 6397,
      "hoay": 6398,
      "holl": 6399,
      "hood": 6400,
      "horow": 6401,
      "##ienne": 6402,
      "##aik": 6403,
      "##aise": 6404,
      "thum": 6405,
      "tuf": 6406,
      "tusc": 6407,
      "band": 6408,
      "bannister": 6409,
      "ngum": 6410,
      "sufi": 6411,
      "##acs": 6412,
      "##acama": 6413,
      "##onim": 6414,
      "##onte": 6415,
      "nghanh": 6416,
      "due": 6417,
      "duplex": 6418,
      "##aur": 6419,
      "##aux": 6420,
      "nouj": 6421,
      "true": 6422,
      "vik": 6423,
      "mae": 6424,
      "main": 6425,
      "made": 6426,
      "maathai": 6427,
      "##etor": 6428,
      "##etooth": 6429,
      "nhuy": 6430,
      "analog": 6431,
      "lud": 6432,
      "see": 6433,
      "sequ": 6434,
      "sears": 6435,
      "conan": 6436,
      "muni": 6437,
      "musta": 6438,
      "mujah": 6439,
      "##chie": 6440,
      "sol": 6441,
      "sox": 6442,
      "toac": 6443,
      "torr": 6444,
      "today": 6445,
      "vanier": 6446,
      "phui": 6447,
      "khom": 6448,
      "bolin": 6449,
      "baobab": 6450,
      "canal": 6451,
      "cannes": 6452,
      "bike": 6453,
      "xun": 6454,
      "tik": 6455,
      "till": 6456,
      "tick": 6457,
      "tibb": 6458,
      "tibet": 6459,
      "camden": 6460,
      "camero": 6461,
      "kech": 6462,
      "bull": 6463,
      "bumb": 6464,
      "busin": 6465,
      "bueller": 6466,
      "bene": 6467,
      "benz": 6468,
      "benedic": 6469,
      "bennington": 6470,
      "kir": 6471,
      "kick": 6472,
      "kilog": 6473,
      "kilow": 6474,
      "kismet": 6475,
      "dana": 6476,
      "dance": 6477,
      "dodo": 6478,
      "dopa": 6479,
      "##achim": 6480,
      "tinker": 6481,
      "##erd": 6482,
      "phit": 6483,
      "timothy": 6484,
      "model": 6485,
      "tritium": 6486,
      "kyma": 6487,
      "baron": 6488,
      "babble": 6489,
      "sancco": 6490,
      "leg": 6491,
      "lear": 6492,
      "league": 6493,
      "diff": 6494,
      "meg": 6495,
      "mes": 6496,
      "meng": 6497,
      "mess": 6498,
      "melb": 6499,
      "mecca": 6500,
      "treat": 6501,
      "mauri": 6502,
      "bear": 6503,
      "##aroo": 6504,
      "amjad": 6505,
      "chateau": 6506,
      "emi": 6507,
      "goli": 6508,
      "goran": 6509,
      "godin": 6510,
      "rupe": 6511,
      "hanson": 6512,
      "hanna": 6513,
      "choir": 6514,
      "##ori": 6515,
      "taniyama": 6516,
      "##lebee": 6517,
      "lion": 6518,
      "live": 6519,
      "lima": 6520,
      "limp": 6521,
      "myesha": 6522,
      "check": 6523,
      "bucardo": 6524,
      "##stor": 6525,
      "ghita": 6526,
      "ghonim": 6527,
      "italia": 6528,
      "defr": 6529,
      "tyler": 6530,
      "type": 6531,
      "##lison": 6532,
      "##litt": 6533,
      "##ril": 6534,
      "##rix": 6535,
      "##riam": 6536,
      "gayle": 6537,
      "homer": 6538,
      "##alan": 6539,
      "##aline": 6540,
      "##elle": 6541,
      "satur": 6542,
      "102": 6543,
      "105": 6544,
      "##itch": 6545,
      "inc": 6546,
      "ind": 6547,
      "ines": 6548,
      "205": 6549,
      "##icon": 6550,
      "##ical": 6551,
      "##icini": 6552,
      "dale": 6553,
      "next": 6554,
      "##rak": 6555,
      "##rain": 6556,
      "haas": 6557,
      "haha": 6558,
      "ngoa": 6559,
      "nanom": 6560,
      "tedsters": 6561,
      "mild": 6562,
      "milk": 6563,
      "miko": 6564,
      "mizz": 6565,
      "xoe": 6566,
      "##rex": 6567,
      "##reau": 6568,
      "stick": 6569,
      "stage": 6570,
      "strider": 6571,
      "sapien": 6572,
      "##ebe": 6573,
      "##eber": 6574,
      "##ouse": 6575,
      "rex": 6576,
      "real": 6577,
      "remen": 6578,
      "recap": 6579,
      "100000": 6580,
      "##iser": 6581,
      "##isco": 6582,
      "##ador": 6583,
      "##usc": 6584,
      "##usion": 6585,
      "nhich": 6586,
      "156": 6587,
      "158": 6588,
      "15000": 6589,
      "##lobin": 6590,
      "##oping": 6591,
      "##ophan": 6592,
      "genspace": 6593,
      "damon": 6594,
      "hamas": 6595,
      "hamilton": 6596,
      "##ild": 6597,
      "##oloch": 6598,
      "##ghter": 6599,
      "alto": 6600,
      "allison": 6601,
      "129": 6602,
      "12000": 6603,
      "kemp": 6604,
      "mart": 6605,
      "marla": 6606,
      "marvin": 6607,
      "marrow": 6608,
      "911": 6609,
      "jody": 6610,
      "joachim": 6611,
      "shap": 6612,
      "shim": 6613,
      "shell": 6614,
      "shhh": 6615,
      "##aho": 6616,
      "##ahn": 6617,
      "##ahi": 6618,
      "##oming": 6619,
      "kenyan": 6620,
      "##oglobin": 6621,
      "##laz": 6622,
      "##lawa": 6623,
      "act": 6624,
      "rift": 6625,
      "##dion": 6626,
      "locav": 6627,
      "pretor": 6628,
      "##fort": 6629,
      "##shman": 6630,
      "##shaz": 6631,
      "##ship": 6632,
      "##aku": 6633,
      "##akis": 6634,
      "##akka": 6635,
      "##bergh": 6636,
      "ocarina": 6637,
      "googler": 6638,
      "##ckx": 6639,
      "##ckly": 6640,
      "carson": 6641,
      "armen": 6642,
      "archer": 6643,
      "##gerald": 6644,
      "##ablan": 6645,
      "koko": 6646,
      "kofi": 6647,
      "rony": 6648,
      "ronson": 6649,
      "niger": 6650,
      "niall": 6651,
      "##tive": 6652,
      "queo": 6653,
      "queens": 6654,
      "vacxin": 6655,
      "mapendo": 6656,
      "virtu": 6657,
      "save": 6658,
      "saxe": 6659,
      "145": 6660,
      "##ians": 6661,
      "##cester": 6662,
      "136": 6663,
      "##yaw": 6664,
      "bruss": 6665,
      "brd4": 6666,
      "juga": 6667,
      "parker": 6668,
      "parav": 6669,
      "paraly": 6670,
      "##main": 6671,
      "sams": 6672,
      "177": 6673,
      "willy": 6674,
      "haring": 6675,
      "fey": 6676,
      "feed": 6677,
      "imper": 6678,
      "two": 6679,
      "twain": 6680,
      "omg": 6681,
      "ommm": 6682,
      "pinot": 6683,
      "brain": 6684,
      "##arta": 6685,
      "##ump": 6686,
      "atacama": 6687,
      "epa": 6688,
      "end": 6689,
      "enter": 6690,
      "ensler": 6691,
      "##bean": 6692,
      "##tain": 6693,
      "##iper": 6694,
      "##mba": 6695,
      "##mbus": 6696,
      "berkley": 6697,
      "barton": 6698,
      "brohi": 6699,
      "edx": 6700,
      "eden": 6701,
      "edith": 6702,
      "##vio": 6703,
      "lotto": 6704,
      "##quest": 6705,
      "abdu": 6706,
      "##bird": 6707,
      "##mont": 6708,
      "1966": 6709,
      "1964": 6710,
      "claron": 6711,
      "##psy": 6712,
      "commons": 6713,
      "napster": 6714,
      "##ricia": 6715,
      "##ggy": 6716,
      "hepburn": 6717,
      "baptist": 6718,
      "jonh": 6719,
      "tedxusc": 6720,
      "hacking": 6721,
      "aha": 6722,
      "ahh": 6723,
      "fide": 6724,
      "##nerability": 6725,
      "##pers": 6726,
      "miner": 6727,
      "##yllis": 6728,
      "##roponte": 6729,
      "renny": 6730,
      "freed": 6731,
      "schro": 6732,
      "schlaug": 6733,
      "##venia": 6734,
      "pix": 6735,
      "produ": 6736,
      "prozac": 6737,
      "walters": 6738,
      "studs": 6739,
      "1941": 6740,
      "hotdog": 6741,
      "server": 6742,
      "block": 6743,
      "##fee": 6744,
      "word": 6745,
      "worth": 6746,
      "wormwood": 6747,
      "worcester": 6748,
      "sahar": 6749,
      "cocain": 6750,
      "karol": 6751,
      "opp": 6752,
      "##acek": 6753,
      "denver": 6754,
      "christina": 6755,
      "christakis": 6756,
      "##rrrr": 6757,
      "galen": 6758,
      "galvani": 6759,
      "rockwell": 6760,
      "daphne": 6761,
      "patton": 6762,
      "patricia": 6763,
      "mtv": 6764,
      "agu": 6765,
      "mormon": 6766,
      "morris": 6767,
      "bunker": 6768,
      "1952": 6769,
      "1956": 6770,
      "1958": 6771,
      "union": 6772,
      "unaids": 6773,
      "allah": 6774,
      "cybor": 6775,
      "jenkins": 6776,
      "mahab": 6777,
      "worldchanging": 6778,
      "ferr": 6779,
      "people": 6780,
      "sandel": 6781,
      "avaz": 6782,
      "kuiper": 6783,
      "salt": 6784,
      "##theid": 6785,
      "blues": 6786,
      "bluetooth": 6787,
      "##ppam": 6788,
      "bosch": 6789,
      "##ourne": 6790,
      "fark": 6791,
      "fargo": 6792,
      "##arius": 6793,
      "1919": 6794,
      "blackawton": 6795,
      "grams": 6796,
      "airbus": 6797,
      "halle": 6798,
      "dotcom": 6799,
      "prickly": 6800,
      "##cial": 6801,
      "goldstein": 6802,
      "zimbardo": 6803,
      "beatjaz": 6804,
      "randy": 6805,
      "magell": 6806,
      "leonard": 6807,
      "442": 6808,
      "merckx": 6809,
      "little": 6810,
      "achill": 6811,
      "susana": 6812,
      "1932": 6813,
      "##schel": 6814,
      "tahltan": 6815,
      "violon": 6816,
      "birke": 6817,
      "1928": 6818,
      "##ography": 6819,
      "royal": 6820,
      "royce": 6821,
      "romeo": 6822,
      "shirin": 6823,
      "brendan": 6824,
      "collusion": 6825,
      "company": 6826,
      "weiffen": 6827,
      "ebola": 6828,
      "basit": 6829,
      "basque": 6830,
      "whites": 6831,
      "turin": 6832,
      "campbell": 6833,
      "copernican": 6834,
      "blake": 6835,
      "nicot": 6836,
      "bowling": 6837,
      "louise": 6838,
      "##hhh": 6839,
      "1904": 6840,
      "683": 6841,
      "cruise": 6842,
      "leslie": 6843,
      "picnic": 6844,
      "zucker": 6845,
      "lovegrove": 6846,
      "kitty": 6847,
      "##owski": 6848,
      "pierpont": 6849,
      "##project": 6850,
      "##anical": 6851,
      "borges": 6852,
      "jacobs": 6853,
      "reuther": 6854,
      "##ycin": 6855,
      "ted2010": 6856,
      "ted2011": 6857,
      "##ideen": 6858,
      "musica": 6859,
      "idol": 6860,
      "idaho": 6861,
      "techno": 6862,
      "espress": 6863,
      "olson": 6864,
      "wislawa": 6865,
      "calori": 6866,
      "calorie": 6867,
      "chitra": 6868,
      "belshaz": 6869,
      "standard": 6870,
      "universal": 6871,
      "bloomberg": 6872,
      "kathryn": 6873,
      "github": 6874,
      "download": 6875,
      "ballbot": 6876,
      "lynn": 6877,
      "ahmedabad": 6878,
      "finn": 6879,
      "finan": 6880,
      "wyoming": 6881,
      "rodri": 6882,
      "milton": 6883,
      "schulz": 6884,
      "bradley": 6885,
      "jetman": 6886,
      "kangaroo": 6887,
      "lgbt": 6888,
      "ppm": 6889,
      "pilots": 6890,
      "novocure": 6891,
      "antonio": 6892,
      "teresa": 6893,
      "dioxide": 6894,
      "kendal": 6895,
      "250000": 6896,
      "geoffrey": 6897,
      "##gital": 6898,
      "county": 6899,
      "sulfur": 6900,
      "mechanical": 6901,
      "khalida": 6902,
      "volta": 6903,
      "volvo": 6904,
      "generic": 6905,
      "shawn": 6906,
      "elliot": 6907,
      "assange": 6908,
      "jansen": 6909,
      "jansky": 6910,
      "pamela": 6911,
      "pasteu": 6912,
      "dough": 6913,
      "rolls": 6914,
      "stygim": 6915,
      "isaf": 6916,
      "springs": 6917,
      "smartphone": 6918,
      "fax": 6919,
      "slovenia": 6920,
      "rupal": 6921,
      "apartheid": 6922,
      "augustine": 6923,
      "joyce": 6924,
      "hippocrates": 6925,
      "pavlo": 6926,
      "control": 6927,
      "hebrew": 6928,
      "router": 6929,
      "empire": 6930,
      "pollock": 6931,
      "dallas": 6932,
      "gbm": 6933,
      "glasgow": 6934,
      "kazakh": 6935,
      "planet": 6936,
      "yards": 6937,
      "zappos": 6938,
      "casablan": 6939,
      "vulnerability": 6940,
      "mobile": 6941,
      "lessig": 6942,
      "mellody": 6943,
      "giacometti": 6944,
      "stephanie": 6945,
      "parabol": 6946,
      "##mborska": 6947,
      "barricelli": 6948,
      "mckean": 6949,
      "lindbergh": 6950,
      "discover": 6951,
      "mercedes": 6952,
      "yugoslavia": 6953,
      "soundscape": 6954,
      "cedars": 6955,
      "cronin": 6956,
      "fitzgerald": 6957,
      "fleming": 6958,
      "gleeson": 6959,
      "coleridge": 6960,
      "##ocarbon": 6961,
      "tutsi": 6962,
      "lamanites": 6963,
      "caucasus": 6964,
      "kevlar": 6965,
      "mycoplasma": 6966,
      "chekhov": 6967,
      "buckminster": 6968,
      "negroponte": 6969,
      "laurel": 6970,
      "caramen": 6971,
      "scrubs": 6972,
      "enriquez": 6973,
      "mcafee": 6974,
      "fraser": 6975,
      "xenluloza": 6976,
      "kamkwam": 6977,
      "sardinia": 6978,
      "participant": 6979,
      "foods": 6980,
      "html": 6981,
      "pandora": 6982,
      "ptsd": 6983,
      "siemens": 6984,
      "skerry": 6985,
      "szymborska": 6986,
      "uzbe": 6987,
      "wujec": 6988,
      "xkcd": 6989,
      "yosemite": 6990,
      "thaler": 6991,
      "caribbean": 6992,
      "horowitz": 6993,
      "noujaim": 6994,
      "mustafa": 6995,
      "tibbits": 6996,
      "cameroon": 6997,
      "bumblebee": 6998,
      "business": 6999,
      "kilowatt": 7000,
      "kymaer": 7001,
      "sanccob": 7002,
      "melbourne": 7003,
      "goliath": 7004,
      "limpopo": 7005,
      "defriend": 7006,
      "nanomet": 7007,
      "mildred": 7008,
      "mizzone": 7009,
      "locavore": 7010,
      "virtual": 7011,
      "brussels": 7012,
      "jugaad": 7013,
      "paravicini": 7014,
      "paralympic": 7015,
      "imperial": 7016,
      "abdul": 7017,
      "cyborg": 7018,
      "beatjazz": 7019,
      "weiffenbach": 7020,
      "espresso": 7021,
      "stygimoloch": 7022,
      "kazakhstan": 7023,
      "casablanca": 7024,
      "1cm": 7025,
      "4d": 7026,
      "5t": 7027,
      "550": 7028,
      "5kg": 7029,
      "69": 7030,
      "az": 7031,
      "a4": 7032,
      "aless": 7033,
      "bc": 7034,
      "bli": 7035,
      "bryn": 7036,
      "cs": 7037,
      "cer": 7038,
      "cit": 7039,
      "clo": 7040,
      "cran": 7041,
      "dal": 7042,
      "dart": 7043,
      "dream": 7044,
      "eur": 7045,
      "elip": 7046,
      "esta": 7047,
      "fal": 7048,
      "fah": 7049,
      "flu": 7050,
      "fun": 7051,
      "from": 7052,
      "gl": 7053,
      "gong": 7054,
      "glo": 7055,
      "gru": 7056,
      "hm": 7057,
      "hie": 7058,
      "io": 7059,
      "ic": 7060,
      "if": 7061,
      "jq": 7062,
      "joi": 7063,
      "jou": 7064,
      "jag": 7065,
      "jone": 7066,
      "jins": 7067,
      "jain": 7068,
      "kad": 7069,
      "kine": 7070,
      "koo": 7071,
      "kry": 7072,
      "klin": 7073,
      "kpi": 7074,
      "kane": 7075,
      "lx": 7076,
      "ler": 7077,
      "lero": 7078,
      "lloyd": 7079,
      "mta": 7080,
      "mies": 7081,
      "mdg": 7082,
      "minsky": 7083,
      "np": 7084,
      "nie": 7085,
      "ner": 7086,
      "neph": 7087,
      "nbc": 7088,
      "nazi": 7089,
      "ost": 7090,
      "oun": 7091,
      "pv": 7092,
      "ple": 7093,
      "pel": 7094,
      "pou": 7095,
      "pah": 7096,
      "psh": 7097,
      "pab": 7098,
      "pent": 7099,
      "paw": 7100,
      "pris": 7101,
      "pred": 7102,
      "pcc": 7103,
      "pdf": 7104,
      "p25": 7105,
      "rt": 7106,
      "rh": 7107,
      "rail": 7108,
      "rama": 7109,
      "ritz": 7110,
      "sine": 7111,
      "sla": 7112,
      "sab": 7113,
      "slu": 7114,
      "skin": 7115,
      "saks": 7116,
      "sakka": 7117,
      "teu": 7118,
      "tms": 7119,
      "umb": 7120,
      "ult": 7121,
      "wan": 7122,
      "wel": 7123,
      "was": 7124,
      "wine": 7125,
      "wom": 7126,
      "wur": 7127,
      "wug": 7128,
      "xent": 7129,
      "yet": 7130,
      "yos": 7131,
      "yami": 7132,
      "zf": 7133,
      "zan": 7134,
      "zak": 7135,
      "zaire": 7136,
      "đt": 7137,
      "##wes": 7138,
      "##wgli": 7139,
      "##ade": 7140,
      "##aqu": 7141,
      "##pj": 7142,
      "##p2": 7143,
      "##ple": 7144,
      "##pes": 7145,
      "##pring": 7146,
      "##tl": 7147,
      "##thu": 7148,
      "##tun": 7149,
      "##town": 7150,
      "##tsha": 7151,
      "##twey": 7152,
      "##rc": 7153,
      "##rot": 7154,
      "##rma": 7155,
      "##rum": 7156,
      "##rmal": 7157,
      "##ead": 7158,
      "##ehr": 7159,
      "##oy": 7160,
      "##ob": 7161,
      "##oz": 7162,
      "##ost": 7163,
      "##over": 7164,
      "##ology": 7165,
      "##nd": 7166,
      "##nos": 7167,
      "##nip": 7168,
      "##nion": 7169,
      "##ys": 7170,
      "##yar": 7171,
      "##yla": 7172,
      "##gans": 7173,
      "##gmat": 7174,
      "##ui": 7175,
      "##ula": 7176,
      "##lp": 7177,
      "##lma": 7178,
      "##lock": 7179,
      "##lward": 7180,
      "##lose": 7181,
      "##ib": 7182,
      "##iac": 7183,
      "##iao": 7184,
      "##ius": 7185,
      "##igh": 7186,
      "##chung": 7187,
      "##cet": 7188,
      "##cro": 7189,
      "##cles": 7190,
      "##dđ": 7191,
      "##dis": 7192,
      "##dak": 7193,
      "##dish": 7194,
      "##sil": 7195,
      "##sore": 7196,
      "##sum": 7197,
      "##sban": 7198,
      "##skin": 7199,
      "##ski": 7200,
      "##kja": 7201,
      "##m2": 7202,
      "##mel": 7203,
      "##mand": 7204,
      "##mah": 7205,
      "##mund": 7206,
      "##mous": 7207,
      "##hia": 7208,
      "##hard": 7209,
      "##hak": 7210,
      "##hore": 7211,
      "##bat": 7212,
      "##bone": 7213,
      "##back": 7214,
      "##but": 7215,
      "##brey": 7216,
      "##von": 7217,
      "##viet": 7218,
      "##vit": 7219,
      "##voir": 7220,
      "##jid": 7221,
      "##jama": 7222,
      "##jolf": 7223,
      "##zie": 7224,
      "##zook": 7225,
      "##zoin": 7226,
      "##29": 7227,
      "##xy": 7228,
      "##fo": 7229,
      "##fic": 7230,
      "##fad": 7231,
      "##flo": 7232,
      "##đa": 7233,
      "##95": 7234,
      "##64": 7235,
      "##49": 7236,
      "##qo": 7237,
      "##ngu": 7238,
      "##nger": 7239,
      "##ngle": 7240,
      "##oids": 7241,
      "##ank": 7242,
      "##ance": 7243,
      "##anmar": 7244,
      "##ieda": 7245,
      "thpt": 7246,
      "thwait": 7247,
      "throve": 7248,
      "try": 7249,
      "track": 7250,
      "tryt": 7251,
      "labs": 7252,
      "lahore": 7253,
      "vas": 7254,
      "vasc": 7255,
      "vaux": 7256,
      "##otti": 7257,
      "##otta": 7258,
      "cale": 7259,
      "cage": 7260,
      "castle": 7261,
      "caffe": 7262,
      "nghu": 7263,
      "cos": 7264,
      "coli": 7265,
      "coles": 7266,
      "colin": 7267,
      "cogit": 7268,
      "chal": 7269,
      "##atle": 7270,
      "##atra": 7271,
      "##angi": 7272,
      "##inin": 7273,
      "##inson": 7274,
      "##inness": 7275,
      "##enson": 7276,
      "##enni": 7277,
      "##enjin": 7278,
      "nhg": 7279,
      "nhinh": 7280,
      "##ocene": 7281,
      "tag": 7282,
      "gigabyte": 7283,
      "hob": 7284,
      "hole": 7285,
      "##aide": 7286,
      "##aiah": 7287,
      "pheu": 7288,
      "phar": 7289,
      "phel": 7290,
      "phone": 7291,
      "phyllis": 7292,
      "đoa": 7293,
      "đooc": 7294,
      "đoai": 7295,
      "ngup": 7296,
      "suss": 7297,
      "sumat": 7298,
      "suarez": 7299,
      "##acab": 7300,
      "##aorani": 7301,
      "##oncel": 7302,
      "##onies": 7303,
      "##amycin": 7304,
      "duot": 7305,
      "duran": 7306,
      "dusty": 7307,
      "duflo": 7308,
      "##augh": 7309,
      "nova": 7310,
      "chorus": 7311,
      "lama": 7312,
      "trust": 7313,
      "trumpet": 7314,
      "rab": 7315,
      "raku": 7316,
      "vibro": 7317,
      "vishna": 7318,
      "vivre": 7319,
      "maker": 7320,
      "maeda": 7321,
      "##etic": 7322,
      "##etto": 7323,
      "##etica": 7324,
      "nhue": 7325,
      "nhug": 7326,
      "anim": 7327,
      "anony": 7328,
      "lum": 7329,
      "luis": 7330,
      "lula": 7331,
      "seal": 7332,
      "seatle": 7333,
      "chihua": 7334,
      "mur": 7335,
      "muru": 7336,
      "nghim": 7337,
      "##cht": 7338,
      "##chio": 7339,
      "##chcock": 7340,
      "soren": 7341,
      "soviet": 7342,
      "this": 7343,
      "toe": 7344,
      "tol": 7345,
      "toanh": 7346,
      "todd": 7347,
      "torah": 7348,
      "vanne": 7349,
      "vander": 7350,
      "vusi": 7351,
      "box": 7352,
      "board": 7353,
      "boss": 7354,
      "book": 7355,
      "bobo": 7356,
      "bouba": 7357,
      "hocken": 7358,
      "lov": 7359,
      "batter": 7360,
      "bim": 7361,
      "biog": 7362,
      "biff": 7363,
      "bible": 7364,
      "bihar": 7365,
      "xue": 7366,
      "xuot": 7367,
      "tiger": 7368,
      "tipp": 7369,
      "huaorani": 7370,
      "matter": 7371,
      "test": 7372,
      "teeb": 7373,
      "kew": 7374,
      "keller": 7375,
      "keats": 7376,
      "giovan": 7377,
      "buett": 7378,
      "building": 7379,
      "tate": 7380,
      "tatum": 7381,
      "hea": 7382,
      "heer": 7383,
      "heff": 7384,
      "hemo": 7385,
      "helv": 7386,
      "giud": 7387,
      "kite": 7388,
      "kilian": 7389,
      "kiki": 7390,
      "danone": 7391,
      "dora": 7392,
      "dodi": 7393,
      "doris": 7394,
      "luca": 7395,
      "luce": 7396,
      "ayel": 7397,
      "aylward": 7398,
      "##erwe": 7399,
      "mou": 7400,
      "mori": 7401,
      "moby": 7402,
      "mowgli": 7403,
      "trilogy": 7404,
      "lois": 7405,
      "lanza": 7406,
      "lancet": 7407,
      "kyu": 7408,
      "kyle": 7409,
      "hope": 7410,
      "sangu": 7411,
      "bast": 7412,
      "balo": 7413,
      "bald": 7414,
      "barani": 7415,
      "baehr": 7416,
      "bazook": 7417,
      "lyne": 7418,
      "vienna": 7419,
      "sante": 7420,
      "lep": 7421,
      "lest": 7422,
      "leop": 7423,
      "levy": 7424,
      "lexic": 7425,
      "leyla": 7426,
      "direct": 7427,
      "dishman": 7428,
      "digital": 7429,
      "aid": 7430,
      "aidg": 7431,
      "melie": 7432,
      "tree": 7433,
      "khaled": 7434,
      "beir": 7435,
      "belle": 7436,
      "rop": 7437,
      "rosey": 7438,
      "rodney": 7439,
      "rookie": 7440,
      "bailey": 7441,
      "##arias": 7442,
      "##arayan": 7443,
      "ganson": 7444,
      "amar": 7445,
      "amne": 7446,
      "amip": 7447,
      "thompson": 7448,
      "thoreau": 7449,
      "emory": 7450,
      "goet": 7451,
      "gori": 7452,
      "gour": 7453,
      "gooch": 7454,
      "toni": 7455,
      "rust": 7456,
      "rudy": 7457,
      "rubin": 7458,
      "hands": 7459,
      "handel": 7460,
      "hancock": 7461,
      "##ordion": 7462,
      "tana": 7463,
      "tandon": 7464,
      "##leen": 7465,
      "lil": 7466,
      "liber": 7467,
      "liver": 7468,
      "apt": 7469,
      "myanmar": 7470,
      "sida": 7471,
      "siza": 7472,
      "sitop": 7473,
      "sidney": 7474,
      "siyat": 7475,
      "##sti": 7476,
      "##stin": 7477,
      "##sted": 7478,
      "champ": 7479,
      "champs": 7480,
      "ghien": 7481,
      "ghenh": 7482,
      "dela": 7483,
      "desk": 7484,
      "deqo": 7485,
      "bacill": 7486,
      "macart": 7487,
      "##osa": 7488,
      "##list": 7489,
      "##lish": 7490,
      "##lita": 7491,
      "##rip": 7492,
      "##rii": 7493,
      "##rison": 7494,
      "homaro": 7495,
      "##alat": 7496,
      "##ello": 7497,
      "##ella": 7498,
      "##elow": 7499,
      "##elkar": 7500,
      "##elbrot": 7501,
      "##elaide": 7502,
      "10h": 7503,
      "104": 7504,
      "mankoff": 7505,
      "207": 7506,
      "##ichu": 7507,
      "mairead": 7508,
      "dass": 7509,
      "gun": 7510,
      "guan": 7511,
      "neon": 7512,
      "##asw": 7513,
      "##ask": 7514,
      "##asio": 7515,
      "monro": 7516,
      "##raf": 7517,
      "saima": 7518,
      "laugh": 7519,
      "nana": 7520,
      "tedy": 7521,
      "mile": 7522,
      "mira": 7523,
      "miami": 7524,
      "mises": 7525,
      "catho": 7526,
      "aoo": 7527,
      "aol": 7528,
      "chagall": 7529,
      "##rogram": 7530,
      "##rovirus": 7531,
      "quentin": 7532,
      "##rem": 7533,
      "##dev": 7534,
      "##deen": 7535,
      "##dehy": 7536,
      "stro": 7537,
      "hiu": 7538,
      "hillis": 7539,
      "hilton": 7540,
      "hypp": 7541,
      "ree": 7542,
      "reinh": 7543,
      "remb": 7544,
      "##andi": 7545,
      "aubrey": 7546,
      "newark": 7547,
      "##ush": 7548,
      "##ushar": 7549,
      "##loween": 7550,
      "##opa": 7551,
      "##ope": 7552,
      "##opsin": 7553,
      "##rana": 7554,
      "chapman": 7555,
      "chaplin": 7556,
      "damasio": 7557,
      "gagar": 7558,
      "##ille": 7559,
      "weber": 7560,
      "##olin": 7561,
      "##olaus": 7562,
      "##ghs": 7563,
      "##ghts": 7564,
      "alma": 7565,
      "albright": 7566,
      "##thy": 7567,
      "##thx": 7568,
      "botox": 7569,
      "marble": 7570,
      "##ingway": 7571,
      "##inem": 7572,
      "videos": 7573,
      "ghema": 7574,
      "jolly": 7575,
      "shot": 7576,
      "shai": 7577,
      "shop": 7578,
      "shady": 7579,
      "##ahili": 7580,
      "##omage": 7581,
      "kent": 7582,
      "rapper": 7583,
      "rapamycin": 7584,
      "memes": 7585,
      "1812": 7586,
      "adolf": 7587,
      "adelaide": 7588,
      "##lav": 7589,
      "metric": 7590,
      "metrop": 7591,
      "256": 7592,
      "##agon": 7593,
      "##agua": 7594,
      "ack": 7595,
      "##ked": 7596,
      "##kedin": 7597,
      "tomas": 7598,
      "xix": 7599,
      "chaos": 7600,
      "##imo": 7601,
      "##ury": 7602,
      "proc": 7603,
      "pratur": 7604,
      "##owell": 7605,
      "112": 7606,
      "117": 7607,
      "##shnan": 7608,
      "##shnu": 7609,
      "##aker": 7610,
      "ockel": 7611,
      "##neo": 7612,
      "##nest": 7613,
      "cart": 7614,
      "carbo": 7615,
      "aron": 7616,
      "arte": 7617,
      "ardu": 7618,
      "##phrey": 7619,
      "##phones": 7620,
      "##abena": 7621,
      "henri": 7622,
      "quiz": 7623,
      "koblin": 7624,
      "##acker": 7625,
      "nigel": 7626,
      "oxfam": 7627,
      "##tius": 7628,
      "johnston": 7629,
      "##sterday": 7630,
      "yentl": 7631,
      "bami": 7632,
      "islam": 7633,
      "isoprene": 7634,
      "isaiah": 7635,
      "162": 7636,
      "1650": 7637,
      "16mm": 7638,
      "##lujah": 7639,
      "##lulose": 7640,
      "scatch": 7641,
      "scalia": 7642,
      "scud": 7643,
      "savan": 7644,
      "safe": 7645,
      "##sees": 7646,
      "##ffi": 7647,
      "132": 7648,
      "135": 7649,
      "bros": 7650,
      "brail": 7651,
      "june": 7652,
      "juanderson": 7653,
      "parushar": 7654,
      "sambo": 7655,
      "harford": 7656,
      "nature": 7657,
      "image": 7658,
      "##lder": 7659,
      "gatsby": 7660,
      "##cture": 7661,
      "##artz": 7662,
      "spam": 7663,
      "spit": 7664,
      "spino": 7665,
      "spider": 7666,
      "atatur": 7667,
      "attia": 7668,
      "retrovirus": 7669,
      "sonic": 7670,
      "israeli": 7671,
      "##beck": 7672,
      "##beater": 7673,
      "24h": 7674,
      "249": 7675,
      "angry": 7676,
      "berlow": 7677,
      "bernie": 7678,
      "bercken": 7679,
      "##ions": 7680,
      "##head": 7681,
      "##hemba": 7682,
      "billie": 7683,
      "##tec": 7684,
      "barnett": 7685,
      "barcia": 7686,
      "##inavia": 7687,
      "1971": 7688,
      "##rens": 7689,
      "brooke": 7690,
      "edu": 7691,
      "eddi": 7692,
      "jehov": 7693,
      "jehane": 7694,
      "mcc": 7695,
      "mccu": 7696,
      "mccar": 7697,
      "mcfad": 7698,
      "yesterday": 7699,
      "##vika": 7700,
      "##llywood": 7701,
      "forre": 7702,
      "formal": 7703,
      "butler": 7704,
      "raymond": 7705,
      "abdi": 7706,
      "##meen": 7707,
      "##meyaw": 7708,
      "markus": 7709,
      "ramsey": 7710,
      "##bio": 7711,
      "orw": 7712,
      "orville": 7713,
      "##week": 7714,
      "##cade": 7715,
      "roth": 7716,
      "clath": 7717,
      "clare": 7718,
      "close": 7719,
      "##hoff": 7720,
      "##inska": 7721,
      "daria": 7722,
      "##okov": 7723,
      "##erty": 7724,
      "stratford": 7725,
      "pete": 7726,
      "pets": 7727,
      "petri": 7728,
      "petteng": 7729,
      "##ggets": 7730,
      "linds": 7731,
      "linkedin": 7732,
      "cacbonic": 7733,
      "heparin": 7734,
      "brisban": 7735,
      "tedxb": 7736,
      "tedxdu": 7737,
      "tedxwomen": 7738,
      "tedxmid": 7739,
      "francesca": 7740,
      "wikih": 7741,
      "3500": 7742,
      "sethi": 7743,
      "fior": 7744,
      "poor": 7745,
      "michaela": 7746,
      "##perger": 7747,
      "##ylus": 7748,
      "##buch": 7749,
      "usa": 7750,
      "##assa": 7751,
      "999": 7752,
      "996": 7753,
      "hitchcock": 7754,
      "rene": 7755,
      "robertson": 7756,
      "swaz": 7757,
      "swenson": 7758,
      "swahili": 7759,
      "swartz": 7760,
      "schwar": 7761,
      "schae": 7762,
      "##vena": 7763,
      "provid": 7764,
      "talking": 7765,
      "stux": 7766,
      "stuart": 7767,
      "1944": 7768,
      "serbia": 7769,
      "burt": 7770,
      "burton": 7771,
      "burundi": 7772,
      "depthx": 7773,
      "blaise": 7774,
      "##brid": 7775,
      "nair": 7776,
      "ninth": 7777,
      "ninten": 7778,
      "bigelow": 7779,
      "##gananth": 7780,
      "perony": 7781,
      "##dano": 7782,
      "rosa": 7783,
      "rosalie": 7784,
      "open": 7785,
      "silic": 7786,
      "##otax": 7787,
      "copper": 7788,
      "##aldine": 7789,
      "frac": 7790,
      "frieda": 7791,
      "elegans": 7792,
      "260": 7793,
      "gallo": 7794,
      "hawkins": 7795,
      "monty": 7796,
      "janet": 7797,
      "plas": 7798,
      "pentium": 7799,
      "starsha": 7800,
      "mtt": 7801,
      "kings": 7802,
      "##ething": 7803,
      "morgan": 7804,
      "senior": 7805,
      "bindi": 7806,
      "mahal": 7807,
      "delle": 7808,
      "delta": 7809,
      "crock": 7810,
      "ether": 7811,
      "ethel": 7812,
      "fernand": 7813,
      "porco": 7814,
      "portal": 7815,
      "wallace": 7816,
      "corn": 7817,
      "herz": 7818,
      "herman": 7819,
      "herschel": 7820,
      "sandor": 7821,
      "sandra": 7822,
      "mandelbrot": 7823,
      "avril": 7824,
      "foxp2": 7825,
      "marian": 7826,
      "##ovic": 7827,
      "##enhower": 7828,
      "madh": 7829,
      "jorge": 7830,
      "jorgen": 7831,
      "abrahams": 7832,
      "jeffrey": 7833,
      "bjorn": 7834,
      "louie": 7835,
      "shea": 7836,
      "sheep": 7837,
      "ibrah": 7838,
      "jaclyn": 7839,
      "winter": 7840,
      "winston": 7841,
      "winnip": 7842,
      "##gue": 7843,
      "1912": 7844,
      "1915": 7845,
      "southam": 7846,
      "halal": 7847,
      "halloween": 7848,
      "irc": 7849,
      "woods": 7850,
      "woohoo": 7851,
      "pringle": 7852,
      "skylar": 7853,
      "golden": 7854,
      "##ochistan": 7855,
      "##ascus": 7856,
      "random": 7857,
      "randall": 7858,
      "380": 7859,
      "hunts": 7860,
      "carlos": 7861,
      "440": 7862,
      "cellulose": 7863,
      "clint": 7864,
      "merz": 7865,
      "graves": 7866,
      "paley": 7867,
      "lithu": 7868,
      "asperger": 7869,
      "acheu": 7870,
      "1939": 7871,
      "1933": 7872,
      "kalenjin": 7873,
      "##sche": 7874,
      "##schatz": 7875,
      "cnc": 7876,
      "garone": 7877,
      "shermer": 7878,
      "archite": 7879,
      "newsweek": 7880,
      "fisher": 7881,
      "humphrey": 7882,
      "basic": 7883,
      "basil": 7884,
      "gordian": 7885,
      "1870": 7886,
      "1875": 7887,
      "whitney": 7888,
      "etete": 7889,
      "boyd": 7890,
      "boys": 7891,
      "boyle": 7892,
      "hemingway": 7893,
      "carrie": 7894,
      "413": 7895,
      "581": 7896,
      "blakley": 7897,
      "pacak": 7898,
      "resour": 7899,
      "annan": 7900,
      "torre": 7901,
      "bowery": 7902,
      "accordion": 7903,
      "sandwiches": 7904,
      "544": 7905,
      "ernest": 7906,
      "krista": 7907,
      "krishna": 7908,
      "nachtwey": 7909,
      "sinalo": 7910,
      "munroe": 7911,
      "1908": 7912,
      "willie": 7913,
      "german": 7914,
      "gerhard": 7915,
      "geraldine": 7916,
      "lesbian": 7917,
      "grandin": 7918,
      "826": 7919,
      "rider": 7920,
      "zulu": 7921,
      "##uez": 7922,
      "##dinger": 7923,
      "cassava": 7924,
      "headphone": 7925,
      "kitchen": 7926,
      "aremeyaw": 7927,
      "pradesh": 7928,
      "pragmat": 7929,
      "snack": 7930,
      "##elitsha": 7931,
      "dunbar": 7932,
      "borneo": 7933,
      "limor": 7934,
      "print": 7935,
      "scrot": 7936,
      "britlin": 7937,
      "limbur": 7938,
      "limbaugh": 7939,
      "dhabi": 7940,
      "knop": 7941,
      "rebel": 7942,
      "music": 7943,
      "sharmeen": 7944,
      "1880": 7945,
      "1885": 7946,
      "hindi": 7947,
      "narc": 7948,
      "buffet": 7949,
      "angeline": 7950,
      "michelin": 7951,
      "instit": 7952,
      "hippie": 7953,
      "johanna": 7954,
      "pranitha": 7955,
      "rhodes": 7956,
      "wyss": 7957,
      "##fried": 7958,
      "large": 7959,
      "larsson": 7960,
      "mixing": 7961,
      "heatherwick": 7962,
      "ritalin": 7963,
      "shuk": 7964,
      "turkmen": 7965,
      "ted2008": 7966,
      "robben": 7967,
      "impass": 7968,
      "nye": 7969,
      "nyad": 7970,
      "purple": 7971,
      "##walk": 7972,
      "##randt": 7973,
      "count": 7974,
      "balkan": 7975,
      "general": 7976,
      "shaffi": 7977,
      "shepherd": 7978,
      "elliott": 7979,
      "cisco": 7980,
      "jaws": 7981,
      "jawbone": 7982,
      "kwabena": 7983,
      "nadia": 7984,
      "lower": 7985,
      "double": 7986,
      "balochistan": 7987,
      "adrenaline": 7988,
      "isaac": 7989,
      "pearl": 7990,
      "cricket": 7991,
      "aquarius": 7992,
      "glenn": 7993,
      "ingrid": 7994,
      "plaza": 7995,
      "witness": 7996,
      "yann": 7997,
      "##engar": 7998,
      "tajfel": 7999,
      "levit": 8000,
      "levine": 8001,
      "dingo": 8002,
      "rupert": 8003,
      "aparna": 8004,
      "##starter": 8005,
      "fransisco": 8006,
      "1759": 8007,
      "omega": 8008,
      "bbq": 8009,
      "center": 8010,
      "eisenhower": 8011,
      "frost": 8012,
      "favela": 8013,
      "favelas": 8014,
      "ideo": 8015,
      "nielsen": 8016,
      "##hahaha": 8017,
      "court": 8018,
      "##america": 8019,
      "velde": 8020,
      "velcro": 8021,
      "mashelkar": 8022,
      "telecom": 8023,
      "diybio": 8024,
      "dicke": 8025,
      "debora": 8026,
      "deborah": 8027,
      "kohler": 8028,
      "sunfat": 8029,
      "agaricon": 8030,
      "spectrogram": 8031,
      "griffin": 8032,
      "griffith": 8033,
      "ecuado": 8034,
      "pallotta": 8035,
      "pashtun": 8036,
      "wadah": 8037,
      "whewell": 8038,
      "majora": 8039,
      "maasai": 8040,
      "anatomage": 8041,
      "bingo": 8042,
      "biophony": 8043,
      "hexanol": 8044,
      "hutchison": 8045,
      "jobrani": 8046,
      "scandinavia": 8047,
      "juliana": 8048,
      "parikrma": 8049,
      "fedex": 8050,
      "polaroid": 8051,
      "johannesburg": 8052,
      "impactful": 8053,
      "cirque": 8054,
      "elysees": 8055,
      "french": 8056,
      "kareem": 8057,
      "nabokov": 8058,
      "nashville": 8059,
      "summerwe": 8060,
      "bismark": 8061,
      "tilson": 8062,
      "leadbeater": 8063,
      "khuyech": 8064,
      "emanuel": 8065,
      "capitol": 8066,
      "guttenberg": 8067,
      "mikko": 8068,
      "reykja": 8069,
      "recording": 8070,
      "auschwitz": 8071,
      "shelf": 8072,
      "africa": 8073,
      "natural": 8074,
      "jennings": 8075,
      "eliasson": 8076,
      "hercules": 8077,
      "nucleic": 8078,
      "46664": 8079,
      "##hydrate": 8080,
      "medicine": 8081,
      "pachycephalosaurus": 8082,
      "federation": 8083,
      "channelrhodopsin": 8084,
      "aberdeen": 8085,
      "pedro": 8086,
      "tcn": 8087,
      "wendy": 8088,
      "yucatan": 8089,
      "thrived": 8090,
      "##angelo": 8091,
      "tuscany": 8092,
      "mujahideen": 8093,
      "xunphua": 8094,
      "tillett": 8095,
      "benefield": 8096,
      "benedict": 8097,
      "legacy": 8098,
      "treatment": 8099,
      "lionel": 8100,
      "##eberry": 8101,
      "recaptcha": 8102,
      "armenia": 8103,
      "freedom": 8104,
      "schrodinger": 8105,
      "produc": 8106,
      "karolinska": 8107,
      "ferrari": 8108,
      "hallelujah": 8109,
      "magellanic": 8110,
      "nicotine": 8111,
      "zuckerberg": 8112,
      "belshazzar": 8113,
      "financial": 8114,
      "rodrigo": 8115,
      "pasteurii": 8116,
      "discovery": 8117,
      "kamkwamba": 8118,
      "bliss": 8119,
      "brynjolf": 8120,
      "clooney": 8121,
      "dalai": 8122,
      "dartmouth": 8123,
      "jq1": 8124,
      "joie": 8125,
      "joubert": 8126,
      "jinsop": 8127,
      "kinect": 8128,
      "krypton": 8129,
      "lxd": 8130,
      "leroy": 8131,
      "nephites": 8132,
      "ostrow": 8133,
      "pleist": 8134,
      "poupon": 8135,
      "prism": 8136,
      "pccc": 8137,
      "rtpj": 8138,
      "railway": 8139,
      "sinek": 8140,
      "skinner": 8141,
      "sakkaf": 8142,
      "winehouse": 8143,
      "wurman": 8144,
      "xentimet": 8145,
      "đtdđ": 8146,
      "thwaites": 8147,
      "trytophan": 8148,
      "vasconcel": 8149,
      "vauxhall": 8150,
      "##ottir": 8151,
      "caledon": 8152,
      "caffeine": 8153,
      "cogito": 8154,
      "sumatra": 8155,
      "chorusing": 8156,
      "anonymous": 8157,
      "chihuahua": 8158,
      "murugananth": 8159,
      "vannevar": 8160,
      "bossy": 8161,
      "hockenberry": 8162,
      "battery": 8163,
      "giovanni": 8164,
      "buettner": 8165,
      "hemozoin": 8166,
      "helvetica": 8167,
      "ayelet": 8168,
      "baraniuk": 8169,
      "bazooka": 8170,
      "santee": 8171,
      "lestari": 8172,
      "leopold": 8173,
      "beirut": 8174,
      "amnesty": 8175,
      "gorilla": 8176,
      "gourley": 8177,
      "handspring": 8178,
      "sitopia": 8179,
      "siyathemba": 8180,
      "delaware": 8181,
      "bacillus": 8182,
      "macarthur": 8183,
      "catholic": 8184,
      "hypponen": 8185,
      "rembrandt": 8186,
      "gagarin": 8187,
      "ghemawat": 8188,
      "pratury": 8189,
      "ockelford": 8190,
      "artem": 8191,
      "savannah": 8192,
      "safeway": 8193,
      "braille": 8194,
      "parusharam": 8195,
      "samboja": 8196,
      "spinoza": 8197,
      "ataturk": 8198,
      "jehovah": 8199,
      "mccarthy": 8200,
      "formaldehy": 8201,
      "clathrin": 8202,
      "pettengill": 8203,
      "brisbane": 8204,
      "wikihouse": 8205,
      "nintendo": 8206,
      "starshade": 8207,
      "ibrahim": 8208,
      "winnipeg": 8209,
      "sinaloa": 8210,
      "pragmatic": 8211,
      "summerwear": 8212,
      "reykjavik": 8213,
      "brynjolfsson": 8214,
      "vasconcelos": 8215,
      "muruganantham": 8216,
      "02": 8217,
      "08": 8218,
      "050": 8219,
      "3mm": 8220,
      "320": 8221,
      "4g": 8222,
      "4x": 8223,
      "530": 8224,
      "620": 8225,
      "8h": 8226,
      "81": 8227,
      "9h": 8228,
      "aam": 8229,
      "ale": 8230,
      "aro": 8231,
      "alo": 8232,
      "aston": 8233,
      "aga": 8234,
      "azi": 8235,
      "ajit": 8236,
      "b1": 8237,
      "bma": 8238,
      "bric": 8239,
      "blow": 8240,
      "bpa": 8241,
      "b12": 8242,
      "cros": 8243,
      "csp": 8244,
      "din": 8245,
      "deu": 8246,
      "dyn": 8247,
      "dwe": 8248,
      "ew": 8249,
      "eat": 8250,
      "eag": 8251,
      "equ": 8252,
      "elk": 8253,
      "evil": 8254,
      "ecc": 8255,
      "ecor": 8256,
      "fot": 8257,
      "fau": 8258,
      "fri": 8259,
      "flo": 8260,
      "fry": 8261,
      "fut": 8262,
      "fly": 8263,
      "fru": 8264,
      "flyn": 8265,
      "fish": 8266,
      "fold": 8267,
      "field": 8268,
      "fink": 8269,
      "floyd": 8270,
      "g7": 8271,
      "giem": 8272,
      "gly": 8273,
      "gero": 8274,
      "gnee": 8275,
      "getty": 8276,
      "gsm": 8277,
      "hk": 8278,
      "hash": 8279,
      "hick": 8280,
      "heus": 8281,
      "iw": 8282,
      "iri": 8283,
      "icu": 8284,
      "iuc": 8285,
      "ishi": 8286,
      "iphones": 8287,
      "jl": 8288,
      "j2": 8289,
      "jf": 8290,
      "jang": 8291,
      "jol": 8292,
      "jacek": 8293,
      "kand": 8294,
      "kard": 8295,
      "kom": 8296,
      "kow": 8297,
      "kore": 8298,
      "lp": 8299,
      "lz": 8300,
      "mj": 8301,
      "m2": 8302,
      "mce": 8303,
      "mwen": 8304,
      "nm": 8305,
      "nf": 8306,
      "nal": 8307,
      "nak": 8308,
      "ness": 8309,
      "ndd": 8310,
      "nesh": 8311,
      "ow": 8312,
      "oll": 8313,
      "olo": 8314,
      "oth": 8315,
      "ooo": 8316,
      "our": 8317,
      "over": 8318,
      "obi": 8319,
      "other": 8320,
      "oort": 8321,
      "pb": 8322,
      "pes": 8323,
      "pag": 8324,
      "poo": 8325,
      "paz": 8326,
      "put": 8327,
      "pda": 8328,
      "pick": 8329,
      "pald": 8330,
      "pec": 8331,
      "pange": 8332,
      "payne": 8333,
      "powell": 8334,
      "rp": 8335,
      "rf": 8336,
      "rin": 8337,
      "rel": 8338,
      "rci": 8339,
      "sg": 8340,
      "sina": 8341,
      "svan": 8342,
      "sass": 8343,
      "sko": 8344,
      "sage": 8345,
      "slau": 8346,
      "tier": 8347,
      "tzu": 8348,
      "uv": 8349,
      "uld": 8350,
      "ups": 8351,
      "umm": 8352,
      "ueli": 8353,
      "udai": 8354,
      "ufo": 8355,
      "vlad": 8356,
      "ww": 8357,
      "wu": 8358,
      "wer": 8359,
      "woai": 8360,
      "work": 8361,
      "wmap": 8362,
      "wayne": 8363,
      "xieng": 8364,
      "xoai": 8365,
      "yang": 8366,
      "yes": 8367,
      "yip": 8368,
      "yitz": 8369,
      "yadda": 8370,
      "zx": 8371,
      "zen": 8372,
      "zac": 8373,
      "zon": 8374,
      "zzz": 8375,
      "zvika": 8376,
      "đieng": 8377,
      "đro": 8378,
      "##wo": 8379,
      "##wer": 8380,
      "##wid": 8381,
      "##wana": 8382,
      "##wilding": 8383,
      "##ave": 8384,
      "##axon": 8385,
      "##py": 8386,
      "##pin": 8387,
      "##pad": 8388,
      "##pil": 8389,
      "##pid": 8390,
      "##pert": 8391,
      "##tb": 8392,
      "##tra": 8393,
      "##tre": 8394,
      "##tim": 8395,
      "##tkin": 8396,
      "##rg": 8397,
      "##roch": 8398,
      "##ez": 8399,
      "##eed": 8400,
      "##eck": 8401,
      "##ega": 8402,
      "##oen": 8403,
      "##olo": 8404,
      "##off": 8405,
      "##oora": 8406,
      "##nj": 8407,
      "##noi": 8408,
      "##nay": 8409,
      "##nhung": 8410,
      "##not": 8411,
      "##nam": 8412,
      "##nard": 8413,
      "##nom": 8414,
      "##nistan": 8415,
      "##nut": 8416,
      "##nier": 8417,
      "##yi": 8418,
      "##yam": 8419,
      "##yran": 8420,
      "##york": 8421,
      "##yola": 8422,
      "##ydia": 8423,
      "##gang": 8424,
      "##gara": 8425,
      "##gina": 8426,
      "##gado": 8427,
      "##gras": 8428,
      "##uu": 8429,
      "##uri": 8430,
      "##lr": 8431,
      "##lon": 8432,
      "##los": 8433,
      "##lus": 8434,
      "##lds": 8435,
      "##ifor": 8436,
      "##ious": 8437,
      "##city": 8438,
      "##chur": 8439,
      "##cul": 8440,
      "##cini": 8441,
      "##czy": 8442,
      "##cua": 8443,
      "##club": 8444,
      "##d2": 8445,
      "##dong": 8446,
      "##dep": 8447,
      "##dal": 8448,
      "##dur": 8449,
      "##dhe": 8450,
      "##date": 8451,
      "##dok": 8452,
      "##dottir": 8453,
      "##sat": 8454,
      "##set": 8455,
      "##squ": 8456,
      "##surf": 8457,
      "##kus": 8458,
      "##kistan": 8459,
      "##kara": 8460,
      "##kgo": 8461,
      "##kier": 8462,
      "##koto": 8463,
      "##mg": 8464,
      "##mot": 8465,
      "##mian": 8466,
      "##mun": 8467,
      "##mir": 8468,
      "##mud": 8469,
      "##hk": 8470,
      "##hai": 8471,
      "##hab": 8472,
      "##bli": 8473,
      "##bit": 8474,
      "##band": 8475,
      "##bad": 8476,
      "##bil": 8477,
      "##bla": 8478,
      "##bed": 8479,
      "##bru": 8480,
      "##baki": 8481,
      "##bowski": 8482,
      "##vic": 8483,
      "##vara": 8484,
      "##vary": 8485,
      "##vitha": 8486,
      "##jon": 8487,
      "##jal": 8488,
      "##jou": 8489,
      "##jaro": 8490,
      "##jandro": 8491,
      "##zs": 8492,
      "##zch": 8493,
      "##zel": 8494,
      "##zberg": 8495,
      "##zzy": 8496,
      "##zias": 8497,
      "##zsche": 8498,
      "##fed": 8499,
      "##fert": 8500,
      "##found": 8501,
      "##farin": 8502,
      "##đo": 8503,
      "##đun": 8504,
      "##đeh": 8505,
      "##600": 8506,
      "##13": 8507,
      "##53": 8508,
      "##78": 8509,
      "##81": 8510,
      "##oire": 8511,
      "##oins": 8512,
      "##anian": 8513,
      "##iey": 8514,
      "thiec": 8515,
      "think": 8516,
      "##ays": 8517,
      "##ayette": 8518,
      "lag": 8519,
      "lad": 8520,
      "lax": 8521,
      "laen": 8522,
      "laet": 8523,
      "lali": 8524,
      "lasc": 8525,
      "vau": 8526,
      "khz": 8527,
      "##ots": 8528,
      "##otto": 8529,
      "##otion": 8530,
      "##otho": 8531,
      "##otitan": 8532,
      "##oturf": 8533,
      "##otylus": 8534,
      "##otyran": 8535,
      "cain": 8536,
      "cary": 8537,
      "cave": 8538,
      "case": 8539,
      "caven": 8540,
      "cavat": 8541,
      "ngien": 8542,
      "ngram": 8543,
      "cow": 8544,
      "core": 8545,
      "cody": 8546,
      "cobal": 8547,
      "chlad": 8548,
      "chlam": 8549,
      "chase": 8550,
      "##atham": 8551,
      "cuat": 8552,
      "custer": 8553,
      "cuddy": 8554,
      "cukier": 8555,
      "##inn": 8556,
      "##inton": 8557,
      "##inder": 8558,
      "##insey": 8559,
      "##india": 8560,
      "##indler": 8561,
      "##ende": 8562,
      "##enna": 8563,
      "##encia": 8564,
      "##enbru": 8565,
      "##ocac": 8566,
      "##ocor": 8567,
      "##ocol": 8568,
      "##ocent": 8569,
      "##ocaly": 8570,
      "##ocopy": 8571,
      "##ocotylus": 8572,
      "tavi": 8573,
      "gibr": 8574,
      "ginger": 8575,
      "mota": 8576,
      "how": 8577,
      "hod": 8578,
      "hoen": 8579,
      "hori": 8580,
      "hous": 8581,
      "holy": 8582,
      "hobs": 8583,
      "hobb": 8584,
      "hodg": 8585,
      "howey": 8586,
      "##aiya": 8587,
      "they": 8588,
      "##ieux": 8589,
      "phnom": 8590,
      "đop": 8591,
      "tumb": 8592,
      "bander": 8593,
      "banks": 8594,
      "nguo": 8595,
      "nguu": 8596,
      "cacil": 8597,
      "suey": 8598,
      "##aca": 8599,
      "##acam": 8600,
      "##acas": 8601,
      "##acter": 8602,
      "##acey": 8603,
      "##aon": 8604,
      "##aoh": 8605,
      "##ono": 8606,
      "##ons": 8607,
      "##onto": 8608,
      "##amp": 8609,
      "##amo": 8610,
      "##amets": 8611,
      "duh": 8612,
      "##aun": 8613,
      "##ause": 8614,
      "##aungu": 8615,
      "noble": 8616,
      "truat": 8617,
      "raq": 8618,
      "rast": 8619,
      "rass": 8620,
      "rada": 8621,
      "rafi": 8622,
      "rahm": 8623,
      "rajiv": 8624,
      "vest": 8625,
      "vera": 8626,
      "veron": 8627,
      "vector": 8628,
      "vesta": 8629,
      "velaz": 8630,
      "viu": 8631,
      "vii": 8632,
      "vibri": 8633,
      "vikt": 8634,
      "villa": 8635,
      "vishnu": 8636,
      "make": 8637,
      "malin": 8638,
      "madon": 8639,
      "mado": 8640,
      "malli": 8641,
      "maki": 8642,
      "maers": 8643,
      "##etta": 8644,
      "##eteli": 8645,
      "##etmaster": 8646,
      "nhui": 8647,
      "anil": 8648,
      "anti": 8649,
      "lux": 8650,
      "luxo": 8651,
      "sea": 8652,
      "sek": 8653,
      "sem": 8654,
      "seb": 8655,
      "sef": 8656,
      "seas": 8657,
      "seine": 8658,
      "seuss": 8659,
      "selinger": 8660,
      "sevitha": 8661,
      "conner": 8662,
      "conrad": 8663,
      "chiat": 8664,
      "chicken": 8665,
      "mug": 8666,
      "muk": 8667,
      "mute": 8668,
      "murd": 8669,
      "mugab": 8670,
      "mullis": 8671,
      "nup": 8672,
      "nuland": 8673,
      "nghiu": 8674,
      "##chid": 8675,
      "##chant": 8676,
      "##change": 8677,
      "sog": 8678,
      "soon": 8679,
      "soli": 8680,
      "soda": 8681,
      "soler": 8682,
      "soko": 8683,
      "soyu": 8684,
      "sokoto": 8685,
      "things": 8686,
      "##eum": 8687,
      "hondur": 8688,
      "tod": 8689,
      "todor": 8690,
      "toole": 8691,
      "quar": 8692,
      "vanilla": 8693,
      "taiga": 8694,
      "##aph": 8695,
      "##apoli": 8696,
      "##apolis": 8697,
      "vuoc": 8698,
      "khoay": 8699,
      "bour": 8700,
      "bound": 8701,
      "bollywood": 8702,
      "hockey": 8703,
      "loay": 8704,
      "lobo": 8705,
      "loft": 8706,
      "lolita": 8707,
      "loyola": 8708,
      "haydn": 8709,
      "cantu": 8710,
      "bil": 8711,
      "biop": 8712,
      "biggie": 8713,
      "biology": 8714,
      "xuy": 8715,
      "xum": 8716,
      "tirana": 8717,
      "huff": 8718,
      "humb": 8719,
      "hugo": 8720,
      "huenh": 8721,
      "math": 8722,
      "matas": 8723,
      "mather": 8724,
      "matrey": 8725,
      "camilla": 8726,
      "camfed": 8727,
      "troll": 8728,
      "team": 8729,
      "terk": 8730,
      "kere": 8731,
      "boing": 8732,
      "bangoora": 8733,
      "buka": 8734,
      "buech": 8735,
      "budd": 8736,
      "buchan": 8737,
      "hero": 8738,
      "here": 8739,
      "heis": 8740,
      "heart": 8741,
      "hello": 8742,
      "healy": 8743,
      "herit": 8744,
      "heide": 8745,
      "kili": 8746,
      "kill": 8747,
      "kidd": 8748,
      "killing": 8749,
      "kibaki": 8750,
      "dog": 8751,
      "dob": 8752,
      "doang": 8753,
      "dood": 8754,
      "dozo": 8755,
      "dogs": 8756,
      "dodson": 8757,
      "domain": 8758,
      "lucas": 8759,
      "theodor": 8760,
      "##acha": 8761,
      "##achal": 8762,
      "mayo": 8763,
      "haifa": 8764,
      "haiku": 8765,
      "tammet": 8766,
      "tampa": 8767,
      "lenn": 8768,
      "moan": 8769,
      "moai": 8770,
      "mobs": 8771,
      "mohr": 8772,
      "mouss": 8773,
      "moshe": 8774,
      "mođun": 8775,
      "tria": 8776,
      "tribe": 8777,
      "tribu": 8778,
      "lane": 8779,
      "lance": 8780,
      "bake": 8781,
      "baba": 8782,
      "baker": 8783,
      "baja": 8784,
      "bavel": 8785,
      "balas": 8786,
      "basin": 8787,
      "babus": 8788,
      "santo": 8789,
      "sanford": 8790,
      "sanko": 8791,
      "thandie": 8792,
      "lemon": 8793,
      "lehi": 8794,
      "lelia": 8795,
      "levin": 8796,
      "legen": 8797,
      "legos": 8798,
      "diony": 8799,
      "diffe": 8800,
      "distri": 8801,
      "dijon": 8802,
      "aida": 8803,
      "meet": 8804,
      "meade": 8805,
      "xavan": 8806,
      "khuong": 8807,
      "khuoc": 8808,
      "maureen": 8809,
      "bec": 8810,
      "beam": 8811,
      "bees": 8812,
      "bela": 8813,
      "becky": 8814,
      "beaver": 8815,
      "tapsc": 8816,
      "vos": 8817,
      "volt": 8818,
      "rode": 8819,
      "rover": 8820,
      "rowe": 8821,
      "rolling": 8822,
      "route": 8823,
      "##arit": 8824,
      "##arrow": 8825,
      "ontar": 8826,
      "taymor": 8827,
      "tungus": 8828,
      "ganesha": 8829,
      "amos": 8830,
      "amstrong": 8831,
      "emdin": 8832,
      "emmart": 8833,
      "capgras": 8834,
      "hetain": 8835,
      "gov": 8836,
      "goos": 8837,
      "goget": 8838,
      "##ept": 8839,
      "##epo": 8840,
      "##eption": 8841,
      "dayton": 8842,
      "rug": 8843,
      "rus": 8844,
      "ruom": 8845,
      "hann": 8846,
      "hanczy": 8847,
      "tantal": 8848,
      "##leine": 8849,
      "##lewood": 8850,
      "##lehem": 8851,
      "change": 8852,
      "lian": 8853,
      "lizz": 8854,
      "apocaly": 8855,
      "myce": 8856,
      "mybo": 8857,
      "mysore": 8858,
      "chevy": 8859,
      "cheese": 8860,
      "sig": 8861,
      "six": 8862,
      "side": 8863,
      "##stic": 8864,
      "##stad": 8865,
      "##stol": 8866,
      "##sting": 8867,
      "##stem": 8868,
      "##strom": 8869,
      "chamber": 8870,
      "ghz": 8871,
      "ghost": 8872,
      "itis": 8873,
      "desc": 8874,
      "demon": 8875,
      "devel": 8876,
      "deaver": 8877,
      "typ": 8878,
      "tyran": 8879,
      "cayman": 8880,
      "vietnam": 8881,
      "macy": 8882,
      "mack": 8883,
      "mackin": 8884,
      "macken": 8885,
      "##osis": 8886,
      "##lik": 8887,
      "##liad": 8888,
      "##liard": 8889,
      "##light": 8890,
      "##life": 8891,
      "##liding": 8892,
      "##liku": 8893,
      "phage": 8894,
      "##rion": 8895,
      "##rite": 8896,
      "##riram": 8897,
      "##rika": 8898,
      "##riatic": 8899,
      "longden": 8900,
      "##altar": 8901,
      "##elman": 8902,
      "theme": 8903,
      "khanfar": 8904,
      "106": 8905,
      "108": 8906,
      "10km": 8907,
      "##itia": 8908,
      "##ituc": 8909,
      "manuel": 8910,
      "manila": 8911,
      "managua": 8912,
      "##esco": 8913,
      "##eskin": 8914,
      "inh": 8915,
      "inv": 8916,
      "inver": 8917,
      "inca": 8918,
      "indu": 8919,
      "20m": 8920,
      "206": 8921,
      "203": 8922,
      "maison": 8923,
      "dawn": 8924,
      "gua": 8925,
      "guoc": 8926,
      "guinness": 8927,
      "guacam": 8928,
      "neoprene": 8929,
      "nebuch": 8930,
      "##asia": 8931,
      "mons": 8932,
      "bonif": 8933,
      "##rag": 8934,
      "##raz": 8935,
      "##raen": 8936,
      "hah": 8937,
      "hale": 8938,
      "hali": 8939,
      "habi": 8940,
      "haven": 8941,
      "tuyt": 8942,
      "lauder": 8943,
      "laurence": 8944,
      "nanotyran": 8945,
      "teddy": 8946,
      "tedpri": 8947,
      "tedindia": 8948,
      "mis": 8949,
      "midi": 8950,
      "mister": 8951,
      "miwa": 8952,
      "miriam": 8953,
      "catch": 8954,
      "catalog": 8955,
      "sacks": 8956,
      "##rosten": 8957,
      "##royo": 8958,
      "##roxic": 8959,
      "##llman": 8960,
      "000usd": 8961,
      "##reou": 8962,
      "##reira": 8963,
      "##regor": 8964,
      "##recht": 8965,
      "stap": 8966,
      "stor": 8967,
      "stacy": 8968,
      "stones": 8969,
      "stawi": 8970,
      "stamets": 8971,
      "hij": 8972,
      "hich": 8973,
      "hille": 8974,
      "hijaz": 8975,
      "hibrid": 8976,
      "hyp": 8977,
      "sapling": 8978,
      "##outi": 8979,
      "rees": 8980,
      "restr": 8981,
      "reggie": 8982,
      "review": 8983,
      "rewilding": 8984,
      "##andra": 8985,
      "##andis": 8986,
      "##andria": 8987,
      "##andreou": 8988,
      "##island": 8989,
      "##adan": 8990,
      "##aday": 8991,
      "##adne": 8992,
      "autom": 8993,
      "auras": 8994,
      "auenbru": 8995,
      "30s": 8996,
      "30m": 8997,
      "30cm": 8998,
      "newyork": 8999,
      "newfound": 9000,
      "##usse": 9001,
      "##usha": 9002,
      "##ussen": 9003,
      "nhiu": 9004,
      "155": 9005,
      "154": 9006,
      "##loh": 9007,
      "##look": 9008,
      "soto": 9009,
      "nhech": 9010,
      "roboc": 9011,
      "genita": 9012,
      "##rano": 9013,
      "##rans": 9014,
      "baumg": 9015,
      "interp": 9016,
      "interaxon": 9017,
      "dame": 9018,
      "damien": 9019,
      "damascus": 9020,
      "gavin": 9021,
      "gafic": 9022,
      "##illia": 9023,
      "##illiard": 9024,
      "##gham": 9025,
      "##ghese": 9026,
      "ald": 9027,
      "alon": 9028,
      "alam": 9029,
      "alav": 9030,
      "aldo": 9031,
      "also": 9032,
      "alaik": 9033,
      "botero": 9034,
      "127": 9035,
      "128": 9036,
      "123": 9037,
      "marge": 9038,
      "marley": 9039,
      "mariner": 9040,
      "marquez": 9041,
      "marmite": 9042,
      "##inejad": 9043,
      "ghem": 9044,
      "joaqu": 9045,
      "sham": 9046,
      "shia": 9047,
      "shil": 9048,
      "shoo": 9049,
      "sharon": 9050,
      "shiv": 9051,
      "shree": 9052,
      "shalan": 9053,
      "shriram": 9054,
      "##sons": 9055,
      "##omy": 9056,
      "##idone": 9057,
      "kimbo": 9058,
      "kenny": 9059,
      "kenyon": 9060,
      "yorke": 9061,
      "robotics": 9062,
      "gopnik": 9063,
      "184": 9064,
      "1840": 9065,
      "405": 9066,
      "40km": 9067,
      "40m2": 9068,
      "##ogen": 9069,
      "ada": 9070,
      "aden": 9071,
      "adink": 9072,
      "adriatic": 9073,
      "symb": 9074,
      "system": 9075,
      "##laj": 9076,
      "metcal": 9077,
      "methane": 9078,
      "methyl": 9079,
      "##agag": 9080,
      "acorn": 9081,
      "right": 9082,
      "##kee": 9083,
      "##keya": 9084,
      "okollo": 9085,
      "##edy": 9086,
      "##manjaro": 9087,
      "##imes": 9088,
      "##imir": 9089,
      "##urt": 9090,
      "menu": 9091,
      "mental": 9092,
      "##diac": 9093,
      "##diving": 9094,
      "press": 9095,
      "pratham": 9096,
      "bomb": 9097,
      "##former": 9098,
      "111": 9099,
      "114": 9100,
      "##shak": 9101,
      "##shaw": 9102,
      "##vec": 9103,
      "##veitch": 9104,
      "ocr": 9105,
      "octa": 9106,
      "carni": 9107,
[...]
