{
  "version": "1.0",
  "truncation": null,
  "padding": null,
  "added_tokens": [
    {
      "id": 0,
      "content": "[UNK]",
      "single_word": false,
      "lstrip": false,
      "rstrip": false,
      "normalized": false,
      "special": true
    },
    {
      "id": 1,
      "content": "[PAD]",
      "single_word": false,
      "lstrip": false,
      "rstrip": false,
      "normalized": false,
      "special": true
    },
    {
      "id": 2,
      "content": "[CLS]",
      "single_word": false,
      "lstrip": false,
      "rstrip": false,
      "normalized": false,
      "special": true
    },
    {
      "id": 3,
      "content": "[SEP]",
      "single_word": false,
      "lstrip": false,
      "rstrip": false,
      "normalized": false,
      "special": true
    },
    {
      "id": 4,
      "content": "[MASK]",
      "single_word": false,
      "lstrip": false,
      "rstrip": false,
      "normalized": false,
      "special": true
    }
  ],
  "normalizer": {
    "type": "Sequence",
    "normalizers": [
      {
        "type": "NFD"
      },
      {
        "type": "Lowercase"
      },
      {
        "type": "StripAccents"
      }
    ]
  },
  "pre_tokenizer": {
    "type": "Sequence",
    "pretokenizers": [
      {
        "type": "WhitespaceSplit"
      },
      {
        "type": "Punctuation",
        "behavior": "Isolated"
      }
    ]
  },
  "post_processor": null,
  "decoder": null,
  "model": {
    "type": "WordPiece",
    "unk_token": "[UNK]",
    "continuing_subword_prefix": "##",
    "max_input_chars_per_word": 100,
    "vocab": {
      "[UNK]": 0,
      "[PAD]": 1,
      "[CLS]": 2,
      "[SEP]": 3,
      "[MASK]": 4,
      "!": 5,
      "#": 6,
      "$": 7,
      "%": 8,
      "&": 9,
      "(": 10,
      ")": 11,
      "*": 12,
      "+": 13,
      ",": 14,
      "-": 15,
      ".": 16,
      "/": 17,
      "0": 18,
      "1": 19,
      "2": 20,
      "3": 21,
      "4": 22,
      "5": 23,
      "6": 24,
      "7": 25,
      "8": 26,
      "9": 27,
      ":": 28,
      ";": 29,
      "=": 30,
      "?": 31,
      "@": 32,
      "_": 33,
      "a": 34,
      "b": 35,
      "c": 36,
      "d": 37,
      "e": 38,
      "f": 39,
      "g": 40,
      "h": 41,
      "i": 42,
      "j": 43,
      "k": 44,
      "l": 45,
      "m": 46,
      "n": 47,
      "o": 48,
      "p": 49,
      "q": 50,
      "r": 51,
      "s": 52,
      "t": 53,
      "u": 54,
      "v": 55,
      "w": 56,
      "x": 57,
      "y": 58,
      "z": 59,
      "": 60,
      "": 61,
      "¡": 62,
      "£": 63,
      "ø": 64,
      "ย": 65,
      "ร": 66,
      "อ": 67,
      "–": 68,
      "—": 69,
      "…": 70,
      "€": 71,
      "你": 72,
      "葱": 73,
      "送": 74,
      "##r": 75,
      "##o": 76,
      "##f": 77,
      "##i": 78,
      "##l": 79,
      "##n": 80,
      "##g": 81,
      "##s": 82,
      "##t": 83,
      "##u": 84,
      "##e": 85,
      "##h": 86,
      "##c": 87,
      "##k": 88,
      "##y": 89,
      "##p": 90,
      "##m": 91,
      "##a": 92,
      "##d": 93,
      "##b": 94,
      "##v": 95,
      "##w": 96,
      "##j": 97,
      "##3": 98,
      "##0": 99,
      "##5": 100,
      "##8": 101,
      "##1": 102,
      "##z": 103,
      "##x": 104,
      "##2": 105,
      "##9": 106,
      "##q": 107,
      "##6": 108,
      "##4": 109,
      "##7": 110,
      "##ø": 111,
      "##ย": 112,
      "##你": 113,
      "##葱": 114,
      "##ร": 115,
      "th": 116,
      "the": 117,
      "##er": 118,
      "##in": 119,
      "##at": 120,
      "##nd": 121,
      "##ou": 122,
      "##os": 123,
      "##re": 124,
      "and": 125,
      "##ing": 126,
      "to": 127,
      "##on": 128,
      "##en": 129,
      "##es": 130,
      "##an": 131,
      "ap": 132,
      "apos": 133,
      "##or": 134,
      "of": 135,
      "##al": 136,
      "in": 137,
      "##ed": 138,
      "##is": 139,
      "##it": 140,
      "##ar": 141,
      "that": 142,
      "##ot": 143,
      "##om": 144,
      "you": 145,
      "wh": 146,
      "##as": 147,
      "##ic": 148,
      "we": 149,
      "##le": 150,
      "it": 151,
      "##ll": 152,
      "##ow": 153,
      "be": 154,
      "is": 155,
      "##ly": 156,
      "##ve": 157,
      "##ut": 158,
      "##ion": 159,
      "re": 160,
      "##et": 161,
      "##ent": 162,
      "on": 163,
      "##se": 164,
      "ha": 165,
      "##ct": 166,
      "this": 167,
      "##ld": 168,
      "##ay": 169,
      "so": 170,
      "##st": 171,
      "qu": 172,
      "st": 173,
      "##id": 174,
      "##ig": 175,
      "##ur": 176,
      "##ch": 177,
      "for": 178,
      "quot": 179,
      "##ver": 180,
      "##ce": 181,
      "##op": 182,
      "they": 183,
      "##ke": 184,
      "was": 185,
      "an": 186,
      "li": 187,
      "do": 188,
      "##ir": 189,
      "##ith": 190,
      "##ere": 191,
      "##am": 192,
      "##im": 193,
      "are": 194,
      "go": 195,
      "with": 196,
      "##ally": 197,
      "what": 198,
      "##th": 199,
      "he": 200,
      "have": 201,
      "pr": 202,
      "##ol": 203,
      "se": 204,
      "ab": 205,
      "but": 206,
      "can": 207,
      "sh": 208,
      "as": 209,
      "##ad": 210,
      "##ter": 211,
      "##ation": 212,
      "##od": 213,
      "##out": 214,
      "wor": 215,
      "ne": 216,
      "##ht": 217,
      "##ra": 218,
      "me": 219,
      "ch": 220,
      "com": 221,
      "at": 222,
      "##ould": 223,
      "not": 224,
      "about": 225,
      "fr": 226,
      "there": 227,
      "##ge": 228,
      "all": 229,
      "##ill": 230,
      "##ant": 231,
      "##ul": 232,
      "my": 233,
      "##il": 234,
      "##ers": 235,
      "##ore": 236,
      "de": 237,
      "##ust": 238,
      "##est": 239,
      "ex": 240,
      "som": 241,
      "##ear": 242,
      "pe": 243,
      "or": 244,
      "##ight": 245,
      "one": 246,
      "con": 247,
      "##art": 248,
      "peop": 249,
      "people": 250,
      "##au": 251,
      "like": 252,
      "ma": 253,
      "bec": 254,
      "lo": 255,
      "##ess": 256,
      "##ck": 257,
      "##ate": 258,
      "##ok": 259,
      "##um": 260,
      "if": 261,
      "from": 262,
      "##ure": 263,
      "##ive": 264,
      "##ies": 265,
      "##ist": 266,
      "##ity": 267,
      "our": 268,
      "al": 269,
      "##ble": 270,
      "now": 271,
      "##if": 272,
      "te": 273,
      "us": 274,
      "tr": 275,
      "kn": 276,
      "pro": 277,
      "##ind": 278,
      "just": 279,
      "out": 280,
      "these": 281,
      "when": 282,
      "sp": 283,
      "##ect": 284,
      "##un": 285,
      "##ink": 286,
      "##all": 287,
      "##ause": 288,
      "##ery": 289,
      "en": 290,
      "##rou": 291,
      "##us": 292,
      "know": 293,
      "thing": 294,
      "them": 295,
      "how": 296,
      "because": 297,
      "##and": 298,
      "##ie": 299,
      "##pp": 300,
      "see": 301,
      "who": 302,
      "##her": 303,
      "up": 304,
      "think": 305,
      "very": 306,
      "##ci": 307,
      "by": 308,
      "##ort": 309,
      "get": 310,
      "some": 311,
      "##ain": 312,
      "pl": 313,
      "act": 314,
      "year": 315,
      "##ich": 316,
      "your": 317,
      "im": 318,
      "##iv": 319,
      "more": 320,
      "ever": 321,
      "##one": 322,
      "##el": 323,
      "int": 324,
      "going": 325,
      "sa": 326,
      "##og": 327,
      "tim": 328,
      "had": 329,
      "would": 330,
      "su": 331,
      "##ap": 332,
      "##em": 333,
      "their": 334,
      "##ost": 335,
      "##ame": 336,
      "which": 337,
      "look": 338,
      "##act": 339,
      "##our": 340,
      "##ine": 341,
      "un": 342,
      "##ose": 343,
      "were": 344,
      "##gh": 345,
      "##ast": 346,
      "than": 347,
      "work": 348,
      "here": 349,
      "##ment": 350,
      "really": 351,
      "comp": 352,
      "le": 353,
      "##ually": 354,
      "want": 355,
      "##are": 356,
      "ve": 357,
      "##iz": 358,
      "world": 359,
      "way": 360,
      "##reat": 361,
      "##ard": 362,
      "##ous": 363,
      "ta": 364,
      "##ence": 365,
      "then": 366,
      "every": 367,
      "##ack": 368,
      "am": 369,
      "no": 370,
      "##ab": 371,
      "##hing": 372,
      "man": 373,
      "exp": 374,
      "time": 375,
      "per": 376,
      "oth": 377,
      "##ans": 378,
      "don": 379,
      "ev": 380,
      "##ag": 381,
      "##ide": 382,
      "has": 383,
      "actually": 384,
      "##fer": 385,
      "say": 386,
      "##ions": 387,
      "##ace": 388,
      "##nt": 389,
      "##alk": 390,
      "will": 391,
      "could": 392,
      "##age": 393,
      "fe": 394,
      "##ong": 395,
      "into": 396,
      "did": 397,
      "ag": 398,
      "where": 399,
      "##ild": 400,
      "pre": 401,
      "years": 402,
      "other": 403,
      "##ud": 404,
      "tw": 405,
      "she": 406,
      "##nder": 407,
      "cl": 408,
      "things": 409,
      "ar": 410,
      "somet": 411,
      "##ach": 412,
      "well": 413,
      "##itt": 414,
      "new": 415,
      "any": 416,
      "inter": 417,
      "##ical": 418,
      "af": 419,
      "##fe": 420,
      "make": 421,
      "happ": 422,
      "dif": 423,
      "co": 424,
      "res": 425,
      "##00": 426,
      "need": 427,
      "right": 428,
      "mu": 429,
      "been": 430,
      "##ip": 431,
      "fir": 432,
      "imp": 433,
      "##ob": 434,
      "two": 435,
      "##ue": 436,
      "start": 437,
      "part": 438,
      "##so": 439,
      "bu": 440,
      "over": 441,
      "said": 442,
      "first": 443,
      "##ia": 444,
      "##ice": 445,
      "dis": 446,
      "##ory": 447,
      "##ree": 448,
      "something": 449,
      "##pt": 450,
      "##ry": 451,
      "##ire": 452,
      "##ite": 453,
      "chan": 454,
      "po": 455,
      "back": 456,
      "those": 457,
      "##orm": 458,
      "##ass": 459,
      "##ro": 460,
      "much": 461,
      "##ount": 462,
      "differ": 463,
      "##own": 464,
      "##round": 465,
      "talk": 466,
      "call": 467,
      "##ound": 468,
      "##sel": 469,
      "##ac": 470,
      "ph": 471,
      "##ens": 472,
      "also": 473,
      "spe": 474,
      "##ib": 475,
      "mo": 476,
      "life": 477,
      "ac": 478,
      "cont": 479,
      "##olog": 480,
      "id": 481,
      "most": 482,
      "got": 483,
      "##ign": 484,
      "##ple": 485,
      "##ater": 486,
      "##ves": 487,
      "his": 488,
      "fo": 489,
      "lot": 490,
      "kind": 491,
      "even": 492,
      "##ult": 493,
      "under": 494,
      "##ome": 495,
      "##ittle": 496,
      "##ep": 497,
      "##king": 498,
      "##cent": 499,
      "little": 500,
      "day": 501,
      "bet": 502,
      "ad": 503,
      "##qu": 504,
      "##vel": 505,
      "her": 506,
      "br": 507,
      "##ody": 508,
      "##rain": 509,
      "##way": 510,
      "only": 511,
      "##ving": 512,
      "##oss": 513,
      "bo": 514,
      "des": 515,
      "##ber": 516,
      "##ru": 517,
      "many": 518,
      "ind": 519,
      "gr": 520,
      "##ated": 521,
      "bl": 522,
      "take": 523,
      "##able": 524,
      "##ations": 525,
      "why": 526,
      "##ght": 527,
      "##ff": 528,
      "let": 529,
      "##ss": 530,
      "sy": 531,
      "good": 532,
      "em": 533,
      "##ial": 534,
      "##ict": 535,
      "hum": 536,
      "##pl": 537,
      "##co": 538,
      "different": 539,
      "##ade": 540,
      "show": 541,
      "##rough": 542,
      "does": 543,
      "real": 544,
      "##ell": 545,
      "through": 546,
      "##ick": 547,
      "ide": 548,
      "around": 549,
      "comm": 550,
      "may": 551,
      "##ase": 552,
      "##cess": 553,
      "##other": 554,
      "being": 555,
      "##ph": 556,
      "sc": 557,
      "##ning": 558,
      "ro": 559,
      "tell": 560,
      "##int": 561,
      "sm": 562,
      "down": 563,
      "##ish": 564,
      "##ents": 565,
      "##form": 566,
      "##ak": 567,
      "##ms": 568,
      "put": 569,
      "use": 570,
      "##day": 571,
      "inc": 572,
      "thou": 573,
      "##ible": 574,
      "proble": 575,
      "##ath": 576,
      "##wn": 577,
      "##iver": 578,
      "##ful": 579,
      "wr": 580,
      "count": 581,
      "##ance": 582,
      "gen": 583,
      "big": 584,
      "ll": 585,
      "happen": 586,
      "same": 587,
      "##ors": 588,
      "##ark": 589,
      "##ary": 590,
      "##ether": 591,
      "fl": 592,
      "come": 593,
      "fact": 594,
      "##ject": 595,
      "##ual": 596,
      "three": 597,
      "##ting": 598,
      "off": 599,
      "##ower": 600,
      "great": 601,
      "##ang": 602,
      "##lect": 603,
      "thank": 604,
      "try": 605,
      "pers": 606,
      "car": 607,
      "##xt": 608,
      "dr": 609,
      "##stem": 610,
      "##ces": 611,
      "dec": 612,
      "##ile": 613,
      "##ys": 614,
      "sur": 615,
      "find": 616,
      "##urn": 617,
      "##ord": 618,
      "tech": 619,
      "doing": 620,
      "human": 621,
      "##ved": 622,
      "cr": 623,
      "##ren": 624,
      "child": 625,
      "exper": 626,
      "col": 627,
      "percent": 628,
      "after": 629,
      "sim": 630,
      "gu": 631,
      "##ically": 632,
      "stud": 633,
      "quest": 634,
      "brain": 635,
      "##self": 636,
      "soci": 637,
      "wom": 638,
      "again": 639,
      "called": 640,
      "system": 641,
      "lear": 642,
      "##ress": 643,
      "##nds": 644,
      "##fore": 645,
      "bel": 646,
      "##igh": 647,
      "techn": 648,
      "sch": 649,
      "##red": 650,
      "rem": 651,
      "inv": 652,
      "##odu": 653,
      "own": 654,
      "##ics": 655,
      "##ied": 656,
      "today": 657,
      "##we": 658,
      "build": 659,
      "made": 660,
      "##body": 661,
      "##ating": 662,
      "should": 663,
      "##thing": 664,
      "##ian": 665,
      "##ition": 666,
      "long": 667,
      "##ub": 668,
      "##av": 669,
      "##ons": 670,
      "##illion": 671,
      "##ology": 672,
      "ear": 673,
      "inst": 674,
      "bas": 675,
      "##ious": 676,
      "##te": 677,
      "##ates": 678,
      "creat": 679,
      "hel": 680,
      "import": 681,
      "ob": 682,
      "##ric": 683,
      "underst": 684,
      "ask": 685,
      "sci": 686,
      "op": 687,
      "end": 688,
      "ins": 689,
      "person": 690,
      "##ize": 691,
      "change": 692,
      "##ft": 693,
      "last": 694,
      "##ities": 695,
      "old": 696,
      "feel": 697,
      "didn": 698,
      "##con": 699,
      "##pe": 700,
      "##ert": 701,
      "##les": 702,
      "##ail": 703,
      "##ars": 704,
      "thought": 705,
      "gl": 706,
      "ke": 707,
      "mean": 708,
      "important": 709,
      "cour": 710,
      "##ool": 711,
      "imag": 712,
      "idea": 713,
      "trans": 714,
      "art": 715,
      "power": 716,
      "##ise": 717,
      "rel": 718,
      "before": 719,
      "design": 720,
      "pol": 721,
      "started": 722,
      "exam": 723,
      "help": 724,
      "school": 725,
      "its": 726,
      "understand": 727,
      "##ope": 728,
      "play": 729,
      "went": 730,
      "fu": 731,
      "story": 732,
      "interest": 733,
      "give": 734,
      "##ty": 735,
      "belie": 736,
      "cons": 737,
      "eng": 738,
      "another": 739,
      "never": 740,
      "might": 741,
      "found": 742,
      "##als": 743,
      "problem": 744,
      "produ": 745,
      "##ily": 746,
      "sol": 747,
      "turn": 748,
      "him": 749,
      "##kes": 750,
      "##gan": 751,
      "##ough": 752,
      "kid": 753,
      "##atter": 754,
      "better": 755,
      "still": 756,
      "course": 757,
      "tra": 758,
      "##be": 759,
      "fam": 760,
      "mon": 761,
      "each": 762,
      "##ular": 763,
      "min": 764,
      "able": 765,
      "point": 766,
      "str": 767,
      "next": 768,
      "##ution": 769,
      "##ather": 770,
      "bit": 771,
      "##ists": 772,
      "##ood": 773,
      "##ility": 774,
      "##ction": 775,
      "learn": 776,
      "sl": 777,
      "few": 778,
      "##uc": 779,
      "##ience": 780,
      "app": 781,
      "commun": 782,
      "tog": 783,
      "love": 784,
      "together": 785,
      "ed": 786,
      "##velop": 787,
      "came": 788,
      "high": 789,
      "##ix": 790,
      "##ween": 791,
      "cent": 792,
      "dat": 793,
      "develop": 794,
      "000": 795,
      "num": 796,
      "##atch": 797,
      "four": 798,
      "mod": 799,
      "##oc": 800,
      "fin": 801,
      "cell": 802,
      "mus": 803,
      "ser": 804,
      "##ness": 805,
      "between": 806,
      "med": 807,
      "##erg": 808,
      "comple": 809,
      "question": 810,
      "women": 811,
      "##oth": 812,
      "##ited": 813,
      "hu": 814,
      "mom": 815,
      "##ense": 816,
      "cre": 817,
      "seco": 818,
      "##ward": 819,
      "##alth": 820,
      "##ized": 821,
      "ago": 822,
      "##ines": 823,
      "sort": 824,
      "##ave": 825,
      "word": 826,
      "##eric": 827,
      "19": 828,
      "##read": 829,
      "10": 830,
      "gra": 831,
      "plan": 832,
      "place": 833,
      "data": 834,
      "grow": 835,
      "##iss": 836,
      "met": 837,
      "ext": 838,
      "##az": 839,
      "rec": 840,
      "ter": 841,
      "too": 842,
      "used": 843,
      "##iness": 844,
      "20": 845,
      "##lic": 846,
      "att": 847,
      "##ork": 848,
      "##ures": 849,
      "americ": 850,
      "##ways": 851,
      "water": 852,
      "maybe": 853,
      "read": 854,
      "light": 855,
      "##oney": 856,
      "nat": 857,
      "example": 858,
      "less": 859,
      "##formation": 860,
      "ok": 861,
      "##ings": 862,
      "##ific": 863,
      "small": 864,
      "##conom": 865,
      "live": 866,
      "technology": 867,
      "done": 868,
      "##cept": 869,
      "el": 870,
      "looking": 871,
      "doesn": 872,
      "care": 873,
      "##ute": 874,
      "chang": 875,
      "econom": 876,
      "beh": 877,
      "##ven": 878,
      "gener": 879,
      "expl": 880,
      "eff": 881,
      "children": 882,
      "##ets": 883,
      "wanted": 884,
      "bus": 885,
      "dem": 886,
      "rep": 887,
      "##cy": 888,
      "believe": 889,
      "always": 890,
      "far": 891,
      "giv": 892,
      "money": 893,
      "##ably": 894,
      "project": 895,
      "teach": 896,
      "univer": 897,
      "##selves": 898,
      "##ale": 899,
      "partic": 900,
      "second": 901,
      "##ced": 902,
      "comput": 903,
      "move": 904,
      "bi": 905,
      "working": 906,
      "health": 907,
      "war": 908,
      "five": 909,
      "##ands": 910,
      "book": 911,
      "whole": 912,
      "lar": 913,
      "reas": 914,
      "poss": 915,
      "hard": 916,
      "information": 917,
      "##ative": 918,
      "hand": 919,
      "home": 920,
      "##air": 921,
      "country": 922,
      "mind": 923,
      "reg": 924,
      "away": 925,
      "food": 926,
      "kids": 927,
      "sk": 928,
      "run": 929,
      "##per": 930,
      "##aw": 931,
      "##ational": 932,
      "frie": 933,
      "contr": 934,
      "form": 935,
      "sing": 936,
      "trying": 937,
      "using": 938,
      "everything": 939,
      "##gr": 940,
      "cap": 941,
      "create": 942,
      "resp": 943,
      "ent": 944,
      "lead": 945,
      "prot": 946,
      "cor": 947,
      "open": 948,
      "##ries": 949,
      "million": 950,
      "vis": 951,
      "##ural": 952,
      "cou": 953,
      "##fect": 954,
      "stu": 955,
      "space": 956,
      "##ger": 957,
      "doll": 958,
      "jo": 959,
      "sub": 960,
      "supp": 961,
      "##hip": 962,
      "##led": 963,
      "##ird": 964,
      "acc": 965,
      "means": 966,
      "organ": 967,
      "pict": 968,
      "##ism": 969,
      "pass": 970,
      "##nect": 971,
      "walk": 972,
      "ho": 973,
      "##ments": 974,
      "fun": 975,
      "pub": 976,
      "compan": 977,
      "social": 978,
      "anim": 979,
      "process": 980,
      "##gg": 981,
      "fut": 982,
      "become": 983,
      "making": 984,
      "number": 985,
      "##wh": 986,
      "##cer": 987,
      "pres": 988,
      "##aces": 989,
      "wo": 990,
      "##ten": 991,
      "times": 992,
      "##ah": 993,
      "thinking": 994,
      "##ruct": 995,
      "##ock": 996,
      "share": 997,
      "took": 998,
      "best": 999,
      "##ories": 1000,
      "##sw": 1001,
      "##its": 1002,
      "cle": 1003,
      "elect": 1004,
      "future": 1005,
      "val": 1006,
      "quite": 1007,
      "energ": 1008,
      "prob": 1009,
      "mar": 1010,
      "##ins": 1011,
      "pop": 1012,
      "head": 1013,
      "hal": 1014,
      "char": 1015,
      "200": 1016,
      "##ps": 1017,
      "says": 1018,
      "grou": 1019,
      "pat": 1020,
      "gre": 1021,
      "intern": 1022,
      "sw": 1023,
      "##ues": 1024,
      "##aut": 1025,
      "##ead": 1026,
      "##iew": 1027,
      "##ention": 1028,
      "ted": 1029,
      "aut": 1030,
      "cam": 1031,
      "left": 1032,
      "enough": 1033,
      "answ": 1034,
      "energy": 1035,
      "##cial": 1036,
      "glob": 1037,
      "red": 1038,
      "##ner": 1039,
      "##ks": 1040,
      "##iting": 1041,
      "getting": 1042,
      "month": 1043,
      "##vern": 1044,
      "comes": 1045,
      "afric": 1046,
      "body": 1047,
      "lives": 1048,
      "##cus": 1049,
      "##ety": 1050,
      "env": 1051,
      "rob": 1052,
      "govern": 1053,
      "set": 1054,
      "ty": 1055,
      "beg": 1056,
      "spec": 1057,
      "##ne": 1058,
      "##ouse": 1059,
      "without": 1060,
      "##irl": 1061,
      "##earch": 1062,
      "research": 1063,
      "okay": 1064,
      "science": 1065,
      "probably": 1066,
      "keep": 1067,
      "sound": 1068,
      "##ices": 1069,
      "cur": 1070,
      "connect": 1071,
      "moment": 1072,
      "half": 1073,
      "##ital": 1074,
      "business": 1075,
      "##ier": 1076,
      "##ew": 1077,
      "room": 1078,
      "job": 1079,
      "pret": 1080,
      "##ull": 1081,
      "music": 1082,
      "eas": 1083,
      "sense": 1084,
      "##ts": 1085,
      "phot": 1086,
      "det": 1087,
      "add": 1088,
      "interesting": 1089,
      "##ying": 1090,
      "makes": 1091,
      "happened": 1092,
      "countries": 1093,
      "city": 1094,
      "educ": 1095,
      "dist": 1096,
      "talking": 1097,
      "mor": 1098,
      "beaut": 1099,
      "##ogra": 1100,
      "##ont": 1101,
      "hist": 1102,
      "pretty": 1103,
      "men": 1104,
      "##iron": 1105,
      "environ": 1106,
      "while": 1107,
      "conf": 1108,
      "lang": 1109,
      "##pr": 1110,
      "##cover": 1111,
      "top": 1112,
      "pie": 1113,
      "yet": 1114,
      "dollars": 1115,
      "hour": 1116,
      "mark": 1117,
      "ey": 1118,
      "youn": 1119,
      "acr": 1120,
      "imagine": 1121,
      "cult": 1122,
      "face": 1123,
      "##ior": 1124,
      "##der": 1125,
      "earth": 1126,
      "stand": 1127,
      "##ever": 1128,
      "par": 1129,
      "phys": 1130,
      "reason": 1131,
      "cho": 1132,
      "experience": 1133,
      "told": 1134,
      "such": 1135,
      "wee": 1136,
      "##idd": 1137,
      "##uring": 1138,
      "list": 1139,
      "matter": 1140,
      "##lf": 1141,
      "polit": 1142,
      "wonder": 1143,
      "simple": 1144,
      "scient": 1145,
      "air": 1146,
      "langu": 1147,
      "##io": 1148,
      "else": 1149,
      "opp": 1150,
      "##ember": 1151,
      "case": 1152,
      "##ote": 1153,
      "stop": 1154,
      "across": 1155,
      "bre": 1156,
      "##llow": 1157,
      "side": 1158,
      "allow": 1159,
      "##ina": 1160,
      "lab": 1161,
      "prof": 1162,
      "vide": 1163,
      "girl": 1164,
      "##cr": 1165,
      "sign": 1166,
      "once": 1167,
      "##ided": 1168,
      "living": 1169,
      "##ient": 1170,
      "##ately": 1171,
      "cells": 1172,
      "building": 1173,
      "inside": 1174,
      "hope": 1175,
      "stuff": 1176,
      "saw": 1177,
      "##ertain": 1178,
      "global": 1179,
      "mem": 1180,
      "model": 1181,
      "watch": 1182,
      "stre": 1183,
      "asked": 1184,
      "family": 1185,
      "wa": 1186,
      "ways": 1187,
      "bring": 1188,
      "93": 1189,
      "anything": 1190,
      "later": 1191,
      "amaz": 1192,
      "bad": 1193,
      "young": 1194,
      "91": 1195,
      "heart": 1196,
      "##bo": 1197,
      "##work": 1198,
      "amp": 1199,
      "age": 1200,
      "coming": 1201,
      "environment": 1202,
      "six": 1203,
      "pain": 1204,
      "happens": 1205,
      "goes": 1206,
      "##ality": 1207,
      "##ograph": 1208,
      "rest": 1209,
      "answer": 1210,
      "mach": 1211,
      "suc": 1212,
      "wrong": 1213,
      "level": 1214,
      "##gs": 1215,
      "##no": 1216,
      "##where": 1217,
      "##ulation": 1218,
      "##ince": 1219,
      "def": 1220,
      "particular": 1221,
      "remember": 1222,
      "yes": 1223,
      "##res": 1224,
      "single": 1225,
      "##imes": 1226,
      "within": 1227,
      "someone": 1228,
      "sit": 1229,
      "having": 1230,
      "problems": 1231,
      "inf": 1232,
      "states": 1233,
      "prop": 1234,
      "effect": 1235,
      "public": 1236,
      "##ters": 1237,
      "days": 1238,
      "whether": 1239,
      "nothing": 1240,
      "##most": 1241,
      "thous": 1242,
      "fig": 1243,
      "##iter": 1244,
      "##ortun": 1245,
      "class": 1246,
      "control": 1247,
      "##ences": 1248,
      "##ilt": 1249,
      "sure": 1250,
      "##ern": 1251,
      "##ivid": 1252,
      "##man": 1253,
      "##me": 1254,
      "che": 1255,
      "loc": 1256,
      "##arent": 1257,
      "complete": 1258,
      "begin": 1259,
      "billion": 1260,
      "certain": 1261,
      "words": 1262,
      "##orn": 1263,
      "often": 1264,
      "##ott": 1265,
      "seen": 1266,
      "test": 1267,
      "##ank": 1268,
      "myself": 1269,
      "self": 1270,
      "everybody": 1271,
      "picture": 1272,
      "fore": 1273,
      "state": 1274,
      "unt": 1275,
      "basically": 1276,
      "both": 1277,
      "computer": 1278,
      "fil": 1279,
      "hear": 1280,
      "saying": 1281,
      "##aterial": 1282,
      "##olution": 1283,
      "mag": 1284,
      "##ization": 1285,
      "ideas": 1286,
      "pos": 1287,
      "##utes": 1288,
      "kill": 1289,
      "##ash": 1290,
      "##aps": 1291,
      "news": 1292,
      "dev": 1293,
      "##allen": 1294,
      "looked": 1295,
      "product": 1296,
      "language": 1297,
      "##med": 1298,
      "almost": 1299,
      "oh": 1300,
      "##itive": 1301,
      "true": 1302,
      "video": 1303,
      "community": 1304,
      "possible": 1305,
      "##na": 1306,
      "exact": 1307,
      "cost": 1308,
      "##nding": 1309,
      "##ots": 1310,
      "dise": 1311,
      "material": 1312,
      "cond": 1313,
      "30": 1314,
      "net": 1315,
      "night": 1316,
      "sec": 1317,
      "##lish": 1318,
      "di": 1319,
      "africa": 1320,
      "aw": 1321,
      "iss": 1322,
      "##ants": 1323,
      "individ": 1324,
      "equ": 1325,
      "treat": 1326,
      "aud": 1327,
      "amazing": 1328,
      "free": 1329,
      "##vers": 1330,
      "sou": 1331,
      "##ling": 1332,
      "incred": 1333,
      "works": 1334,
      "ass": 1335,
      "beautif": 1336,
      "entire": 1337,
      "ge": 1338,
      "challen": 1339,
      "full": 1340,
      "##ri": 1341,
      "history": 1342,
      "group": 1343,
      "exc": 1344,
      "discover": 1345,
      "sometimes": 1346,
      "dire": 1347,
      "##less": 1348,
      "##ury": 1349,
      "##aper": 1350,
      "individual": 1351,
      "##ene": 1352,
      "adv": 1353,
      "##ases": 1354,
      "heard": 1355,
      "alread": 1356,
      "##iddle": 1357,
      "already": 1358,
      "built": 1359,
      "##ape": 1360,
      "50": 1361,
      "##ake": 1362,
      "ret": 1363,
      "cal": 1364,
      "past": 1365,
      "order": 1366,
      "looks": 1367,
      "##ndred": 1368,
      "hundred": 1369,
      "friends": 1370,
      "engine": 1371,
      "government": 1372,
      "until": 1373,
      "decided": 1374,
      "guy": 1375,
      "instead": 1376,
      "middle": 1377,
      "stories": 1378,
      "vir": 1379,
      "##get": 1380,
      "##side": 1381,
      "mil": 1382,
      "pay": 1383,
      "experim": 1384,
      "vo": 1385,
      "united": 1386,
      "success": 1387,
      "law": 1388,
      "##gram": 1389,
      "education": 1390,
      "##pect": 1391,
      "contin": 1392,
      "tre": 1393,
      "tool": 1394,
      "collect": 1395,
      "bab": 1396,
      "##ustr": 1397,
      "##row": 1398,
      "##imate": 1399,
      "##ives": 1400,
      "train": 1401,
      "##ages": 1402,
      "large": 1403,
      "dra": 1404,
      "##ange": 1405,
      "beautiful": 1406,
      "program": 1407,
      "follow": 1408,
      "15": 1409,
      "cra": 1410,
      "100": 1411,
      "house": 1412,
      "##ider": 1413,
      "since": 1414,
      "##osed": 1415,
      "deep": 1416,
      "##ired": 1417,
      "society": 1418,
      "figure": 1419,
      "months": 1420,
      "wasn": 1421,
      "nor": 1422,
      "##atic": 1423,
      "result": 1424,
      "couple": 1425,
      "piece": 1426,
      "##vious": 1427,
      "const": 1428,
      "##ield": 1429,
      "taking": 1430,
      "ris": 1431,
      "god": 1432,
      "everyone": 1433,
      "##tern": 1434,
      "##ream": 1435,
      "av": 1436,
      "third": 1437,
      "##ames": 1438,
      "nature": 1439,
      "view": 1440,
      "huge": 1441,
      "though": 1442,
      "woman": 1443,
      "minutes": 1444,
      "sex": 1445,
      "##ron": 1446,
      "ref": 1447,
      "##ental": 1448,
      "internet": 1449,
      "somebody": 1450,
      "must": 1451,
      "became": 1452,
      "universe": 1453,
      "##land": 1454,
      "isn": 1455,
      "##ivity": 1456,
      "planet": 1457,
      "incre": 1458,
      "har": 1459,
      "cancer": 1460,
      "green": 1461,
      "##bers": 1462,
      "exactly": 1463,
      "listen": 1464,
      "inno": 1465,
      "quick": 1466,
      "ye": 1467,
      "focus": 1468,
      "learned": 1469,
      "##oy": 1470,
      "##uck": 1471,
      "team": 1472,
      "ra": 1473,
      "##br": 1474,
      "##ined": 1475,
      "rev": 1476,
      "themselves": 1477,
      "speak": 1478,
      "extra": 1479,
      "mother": 1480,
      "abs": 1481,
      "front": 1482,
      "complex": 1483,
      "##ond": 1484,
      "##aster": 1485,
      "created": 1486,
      "behav": 1487,
      "##ision": 1488,
      "##ared": 1489,
      "china": 1490,
      "step": 1491,
      "completely": 1492,
      "gets": 1493,
      "diff": 1494,
      "prov": 1495,
      "fre": 1496,
      "##omes": 1497,
      "study": 1498,
      "univers": 1499,
      "line": 1500,
      "name": 1501,
      "##ians": 1502,
      "del": 1503,
      "clear": 1504,
      "vi": 1505,
      "struct": 1506,
      "##bs": 1507,
      "##ime": 1508,
      "happening": 1509,
      "questions": 1510,
      "##ane": 1511,
      "hours": 1512,
      "##etic": 1513,
      "miss": 1514,
      "knew": 1515,
      "game": 1516,
      "rad": 1517,
      "meet": 1518,
      "against": 1519,
      "##dd": 1520,
      "##ats": 1521,
      "sun": 1522,
      "others": 1523,
      "places": 1524,
      "arch": 1525,
      "mess": 1526,
      "ste": 1527,
      "rather": 1528,
      "democ": 1529,
      "mill": 1530,
      "ant": 1531,
      "kinds": 1532,
      "american": 1533,
      "itself": 1534,
      "##ional": 1535,
      "##ential": 1536,
      "##ability": 1537,
      "shows": 1538,
      "students": 1539,
      "mic": 1540,
      "##gest": 1541,
      "coll": 1542,
      "##line": 1543,
      "##sy": 1544,
      "##cul": 1545,
      "invest": 1546,
      "hold": 1547,
      "yeah": 1548,
      "##icult": 1549,
      "dep": 1550,
      "parent": 1551,
      "ourselves": 1552,
      "##ibly": 1553,
      "opportun": 1554,
      "mass": 1555,
      "grand": 1556,
      "ones": 1557,
      "difference": 1558,
      "innov": 1559,
      "##itting": 1560,
      "es": 1561,
      "close": 1562,
      "norm": 1563,
      "ple": 1564,
      "pot": 1565,
      "##ogn": 1566,
      "company": 1567,
      "neur": 1568,
      "expect": 1569,
      "black": 1570,
      "bra": 1571,
      "##ising": 1572,
      "object": 1573,
      "explain": 1574,
      "dig": 1575,
      "dru": 1576,
      "##cle": 1577,
      "##ming": 1578,
      "##ones": 1579,
      "##cing": 1580,
      "meas": 1581,
      "relations": 1582,
      "fund": 1583,
      "thousands": 1584,
      "gave": 1585,
      "worked": 1586,
      "ill": 1587,
      "fail": 1588,
      "won": 1589,
      "##olved": 1590,
      "typ": 1591,
      "difficult": 1592,
      "bott": 1593,
      "land": 1594,
      "##ush": 1595,
      "happy": 1596,
      "wind": 1597,
      "##rop": 1598,
      "##istic": 1599,
      "death": 1600,
      "couldn": 1601,
      "learning": 1602,
      "disease": 1603,
      "jour": 1604,
      "##oud": 1605,
      "finally": 1606,
      "mot": 1607,
      "turns": 1608,
      "network": 1609,
      "##acter": 1610,
      "during": 1611,
      "liter": 1612,
      "##ator": 1613,
      "interact": 1614,
      "surpr": 1615,
      "based": 1616,
      "##att": 1617,
      "india": 1618,
      "fly": 1619,
      "##cc": 1620,
      "eur": 1621,
      "deal": 1622,
      "along": 1623,
      "##ples": 1624,
      "cir": 1625,
      "oil": 1626,
      "##haps": 1627,
      "perhaps": 1628,
      "machine": 1629,
      "sens": 1630,
      "##lud": 1631,
      "market": 1632,
      "##urs": 1633,
      "outside": 1634,
      "early": 1635,
      "ele": 1636,
      "century": 1637,
      "america": 1638,
      "##ination": 1639,
      "arg": 1640,
      "ident": 1641,
      "emot": 1642,
      "powerful": 1643,
      "amount": 1644,
      "behavior": 1645,
      "impro": 1646,
      "changed": 1647,
      "population": 1648,
      "takes": 1649,
      "hy": 1650,
      "colle": 1651,
      "systems": 1652,
      "##sych": 1653,
      "fear": 1654,
      "leg": 1655,
      "##0s": 1656,
      "short": 1657,
      "oper": 1658,
      "##wards": 1659,
      "eat": 1660,
      "math": 1661,
      "seven": 1662,
      "lots": 1663,
      "cy": 1664,
      "protect": 1665,
      "tem": 1666,
      "south": 1667,
      "cau": 1668,
      "appro": 1669,
      "species": 1670,
      "recent": 1671,
      "guys": 1672,
      "##aring": 1673,
      "obvious": 1674,
      "natural": 1675,
      "psych": 1676,
      "##ode": 1677,
      "terr": 1678,
      "##que": 1679,
      "##ret": 1680,
      "cut": 1681,
      "pred": 1682,
      "audience": 1683,
      "##ented": 1684,
      "culture": 1685,
      "lau": 1686,
      "##ctor": 1687,
      "yourself": 1688,
      "least": 1689,
      "given": 1690,
      "super": 1691,
      "spend": 1692,
      "maj": 1693,
      "animals": 1694,
      "easy": 1695,
      "behind": 1696,
      "lim": 1697,
      "##not": 1698,
      "hands": 1699,
      "mole": 1700,
      "opt": 1701,
      "paper": 1702,
      "image": 1703,
      "york": 1704,
      "##ny": 1705,
      "##ply": 1706,
      "##ident": 1707,
      "##ither": 1708,
      "realized": 1709,
      "companies": 1710,
      "dream": 1711,
      "field": 1712,
      "##ients": 1713,
      "stay": 1714,
      "##ken": 1715,
      "var": 1716,
      "trad": 1717,
      "simply": 1718,
      "##ract": 1719,
      "##gress": 1720,
      "perform": 1721,
      "media": 1722,
      "eight": 1723,
      "chr": 1724,
      "##unch": 1725,
      "##elt": 1726,
      "needed": 1727,
      "personal": 1728,
      "non": 1729,
      "sle": 1730,
      "economic": 1731,
      "low": 1732,
      "friend": 1733,
      "bar": 1734,
      "##verage": 1735,
      "##astic": 1736,
      "needs": 1737,
      "##ully": 1738,
      "father": 1739,
      "12": 1740,
      "win": 1741,
      "##utions": 1742,
      "##ides": 1743,
      "leave": 1744,
      "serv": 1745,
      "local": 1746,
      "##ature": 1747,
      "major": 1748,
      "##aking": 1749,
      "pract": 1750,
      "exist": 1751,
      "##ted": 1752,
      "eyes": 1753,
      "emb": 1754,
      "viol": 1755,
      "relationship": 1756,
      "##ns": 1757,
      "fall": 1758,
      "support": 1759,
      "##ges": 1760,
      "europe": 1761,
      "fire": 1762,
      "patter": 1763,
      "##li": 1764,
      "political": 1765,
      "record": 1766,
      "18": 1767,
      "extre": 1768,
      "area": 1769,
      "##room": 1770,
      "key": 1771,
      "felt": 1772,
      "access": 1773,
      "break": 1774,
      "north": 1775,
      "fight": 1776,
      "##erv": 1777,
      "##itions": 1778,
      "chem": 1779,
      "common": 1780,
      "turned": 1781,
      "##ledge": 1782,
      "absol": 1783,
      "sour": 1784,
      "##inary": 1785,
      "oce": 1786,
      "moving": 1787,
      "famil": 1788,
      "size": 1789,
      "##ney": 1790,
      "##osp": 1791,
      "communic": 1792,
      "value": 1793,
      "absolute": 1794,
      "event": 1795,
      "strong": 1796,
      "seeing": 1797,
      "##cious": 1798,
      "resour": 1799,
      "##avor": 1800,
      "leaders": 1801,
      "beginning": 1802,
      "##ological": 1803,
      "bill": 1804,
      "##ially": 1805,
      "sent": 1806,
      "##ering": 1807,
      "spent": 1808,
      "taken": 1809,
      "film": 1810,
      "cannot": 1811,
      "ess": 1812,
      "ice": 1813,
      "squ": 1814,
      "##face": 1815,
      "##ison": 1816,
      "reach": 1817,
      "##idence": 1818,
      "perfect": 1819,
      "growth": 1820,
      "ground": 1821,
      "parts": 1822,
      "center": 1823,
      "mult": 1824,
      "blue": 1825,
      "longer": 1826,
      "photograph": 1827,
      "poor": 1828,
      "week": 1829,
      "##ipp": 1830,
      "##hor": 1831,
      "present": 1832,
      "draw": 1833,
      "pen": 1834,
      "rich": 1835,
      "voice": 1836,
      "##mer": 1837,
      "wonderful": 1838,
      "##ency": 1839,
      "##rought": 1840,
      "##ump": 1841,
      "box": 1842,
      "robot": 1843,
      "40": 1844,
      "civ": 1845,
      "ir": 1846,
      "pick": 1847,
      "stage": 1848,
      "whatever": 1849,
      "surv": 1850,
      "cities": 1851,
      "##fully": 1852,
      "foot": 1853,
      "parents": 1854,
      "began": 1855,
      "scale": 1856,
      "includ": 1857,
      "consider": 1858,
      "quickly": 1859,
      "descr": 1860,
      "##inal": 1861,
      "##ived": 1862,
      "buy": 1863,
      "cool": 1864,
      "tot": 1865,
      "special": 1866,
      "sudd": 1867,
      "profess": 1868,
      "sudden": 1869,
      "lost": 1870,
      "##itch": 1871,
      "enc": 1872,
      "morning": 1873,
      "near": 1874,
      "dead": 1875,
      "terms": 1876,
      "sum": 1877,
      "##ony": 1878,
      "##arch": 1879,
      "conv": 1880,
      "occ": 1881,
      "requ": 1882,
      "consum": 1883,
      "travel": 1884,
      "national": 1885,
      "knowledge": 1886,
      "cop": 1887,
      "insp": 1888,
      "bene": 1889,
      "##ule": 1890,
      "##anger": 1891,
      "sleep": 1892,
      "##itect": 1893,
      "impact": 1894,
      "architect": 1895,
      "vers": 1896,
      "wouldn": 1897,
      "experiment": 1898,
      "##up": 1899,
      "##hood": 1900,
      "feed": 1901,
      "write": 1902,
      "repres": 1903,
      "street": 1904,
      "risk": 1905,
      "wall": 1906,
      "##ium": 1907,
      "anal": 1908,
      "##ows": 1909,
      "known": 1910,
      "images": 1911,
      "born": 1912,
      "tried": 1913,
      "direct": 1914,
      "either": 1915,
      "hosp": 1916,
      "##ler": 1917,
      "obs": 1918,
      "die": 1919,
      "##lt": 1920,
      "##app": 1921,
      "##ung": 1922,
      "##els": 1923,
      "modern": 1924,
      "fast": 1925,
      "##ilar": 1926,
      "##ument": 1927,
      "growing": 1928,
      "dest": 1929,
      "sil": 1930,
      "##ustain": 1931,
      "spread": 1932,
      "opportunity": 1933,
      "##uth": 1934,
      "stat": 1935,
      "average": 1936,
      "##ised": 1937,
      "meaning": 1938,
      "recogn": 1939,
      "situ": 1940,
      "bro": 1941,
      "white": 1942,
      "##eter": 1943,
      "##ively": 1944,
      "intr": 1945,
      "phil": 1946,
      "attention": 1947,
      "approach": 1948,
      "sitting": 1949,
      "reality": 1950,
      "giving": 1951,
      "measure": 1952,
      "sat": 1953,
      "books": 1954,
      "##ales": 1955,
      "peace": 1956,
      "##cially": 1957,
      "camer": 1958,
      "weeks": 1959,
      "extreme": 1960,
      "sho": 1961,
      "##ption": 1962,
      "sym": 1963,
      "##ivers": 1964,
      "##ton": 1965,
      "rele": 1966,
      "comb": 1967,
      "orig": 1968,
      "##ains": 1969,
      "inde": 1970,
      "##iving": 1971,
      "feeling": 1972,
      "eye": 1973,
      "baby": 1974,
      "bur": 1975,
      "pur": 1976,
      "##ged": 1977,
      "english": 1978,
      "caus": 1979,
      "25": 1980,
      "poll": 1981,
      "changes": 1982,
      "economy": 1983,
      "respons": 1984,
      "animal": 1985,
      "camp": 1986,
      "brought": 1987,
      "dna": 1988,
      "structure": 1989,
      "##zy": 1990,
      "##ators": 1991,
      "sever": 1992,
      "##ateg": 1993,
      "anyone": 1994,
      "indust": 1995,
      "instit": 1996,
      "##rent": 1997,
      "press": 1998,
      "physical": 1999,
      "scientists": 2000,
      "civil": 2001,
      "dark": 2002,
      "sustain": 2003,
      "##erm": 2004,
      "##iction": 2005,
      "sugg": 2006,
      "climate": 2007,
      "interested": 2008,
      "suggest": 2009,
      "fac": 2010,
      "post": 2011,
      "##bor": 2012,
      "##ills": 2013,
      "##izing": 2014,
      "gone": 2015,
      "hot": 2016,
      "##ibility": 2017,
      "crit": 2018,
      "nice": 2019,
      "soft": 2020,
      "priv": 2021,
      "##ored": 2022,
      "##acy": 2023,
      "favor": 2024,
      "hon": 2025,
      "seems": 2026,
      "developed": 2027,
      "pa": 2028,
      "##iny": 2029,
      "ce": 2030,
      "hor": 2031,
      "vac": 2032,
      "##ford": 2033,
      "ability": 2034,
      "worth": 2035,
      "main": 2036,
      "save": 2037,
      "humans": 2038,
      "smart": 2039,
      "type": 2040,
      "tools": 2041,
      "circ": 2042,
      "tradition": 2043,
      "color": 2044,
      "##gn": 2045,
      "express": 2046,
      "running": 2047,
      "developing": 2048,
      "fem": 2049,
      "##xy": 2050,
      "girls": 2051,
      "challenge": 2052,
      "revolution": 2053,
      "##ister": 2054,
      "incredible": 2055,
      "millions": 2056,
      "truth": 2057,
      "realize": 2058,
      "development": 2059,
      "tele": 2060,
      "##ards": 2061,
      "affect": 2062,
      "playing": 2063,
      "issue": 2064,
      "democra": 2065,
      "pull": 2066,
      "online": 2067,
      "starting": 2068,
      "road": 2069,
      "##inese": 2070,
      "##ware": 2071,
      "##ouch": 2072,
      "##asc": 2073,
      "understanding": 2074,
      "track": 2075,
      "numbers": 2076,
      "ocean": 2077,
      "song": 2078,
      "vol": 2079,
      "arm": 2080,
      "wrote": 2081,
      "creating": 2082,
      "aid": 2083,
      "path": 2084,
      "ur": 2085,
      "enter": 2086,
      "bottom": 2087,
      "describ": 2088,
      "benef": 2089,
      "ast": 2090,
      "tur": 2091,
      "writing": 2092,
      "dan": 2093,
      "##lict": 2094,
      "forward": 2095,
      "##oph": 2096,
      "ach": 2097,
      "soon": 2098,
      "conc": 2099,
      "##aged": 2100,
      "##ploy": 2101,
      "guess": 2102,
      "general": 2103,
      "est": 2104,
      "force": 2105,
      "chinese": 2106,
      "relig": 2107,
      "er": 2108,
      "##ites": 2109,
      "##ife": 2110,
      "similar": 2111,
      "slow": 2112,
      "innovation": 2113,
      "##ral": 2114,
      "boy": 2115,
      "changing": 2116,
      "literally": 2117,
      "stra": 2118,
      "blood": 2119,
      "hundreds": 2120,
      "vill": 2121,
      "##ensive": 2122,
      "emp": 2123,
      "solution": 2124,
      "##bon": 2125,
      "##by": 2126,
      "##amed": 2127,
      "prom": 2128,
      "knows": 2129,
      "rul": 2130,
      "neigh": 2131,
      "arr": 2132,
      "##he": 2133,
      "##vent": 2134,
      "concept": 2135,
      "convers": 2136,
      "alone": 2137,
      "trust": 2138,
      "mov": 2139,
      "generation": 2140,
      "##ove": 2141,
      "drop": 2142,
      "led": 2143,
      "##ades": 2144,
      "##pecially": 2145,
      "especially": 2146,
      "absolutely": 2147,
      "##go": 2148,
      "unf": 2149,
      "telling": 2150,
      "medic": 2151,
      "patient": 2152,
      "dim": 2153,
      "fa": 2154,
      "areas": 2155,
      "asking": 2156,
      "depe": 2157,
      "seem": 2158,
      "scre": 2159,
      "movement": 2160,
      "patients": 2161,
      "conflict": 2162,
      "dou": 2163,
      "polic": 2164,
      "university": 2165,
      "rate": 2166,
      "##rib": 2167,
      "##to": 2168,
      "##ped": 2169,
      "gives": 2170,
      "sounds": 2171,
      "current": 2172,
      "la": 2173,
      "##ique": 2174,
      "##istan": 2175,
      "technolog": 2176,
      "serious": 2177,
      "da": 2178,
      "##ned": 2179,
      "rock": 2180,
      "predict": 2181,
      "bir": 2182,
      "appl": 2183,
      "repl": 2184,
      "##ift": 2185,
      "phone": 2186,
      "experi": 2187,
      "solve": 2188,
      "ah": 2189,
      "##par": 2190,
      "theory": 2191,
      "aren": 2192,
      "text": 2193,
      "ult": 2194,
      "nobody": 2195,
      "micr": 2196,
      "lad": 2197,
      "##old": 2198,
      "##lu": 2199,
      "goog": 2200,
      "imm": 2201,
      "transform": 2202,
      "pictures": 2203,
      "normal": 2204,
      "touch": 2205,
      "##ram": 2206,
      "showed": 2207,
      "bal": 2208,
      "bed": 2209,
      "##ased": 2210,
      "prin": 2211,
      "cars": 2212,
      "discovered": 2213,
      "industry": 2214,
      "sea": 2215,
      "visual": 2216,
      "avail": 2217,
      "##ex": 2218,
      "feet": 2219,
      "teachers": 2220,
      "##ging": 2221,
      "##por": 2222,
      "plant": 2223,
      "##ellig": 2224,
      "##entially": 2225,
      "produce": 2226,
      "fundam": 2227,
      "tas": 2228,
      "##asing": 2229,
      "compet": 2230,
      "carbon": 2231,
      "subject": 2232,
      "##book": 2233,
      "materials": 2234,
      "incredibly": 2235,
      "east": 2236,
      "##ances": 2237,
      "##let": 2238,
      "defin": 2239,
      "fair": 2240,
      "games": 2241,
      "##ried": 2242,
      "##end": 2243,
      "sell": 2244,
      "##apt": 2245,
      "potential": 2246,
      "indeed": 2247,
      "democracy": 2248,
      "ball": 2249,
      "fur": 2250,
      "##chan": 2251,
      "lif": 2252,
      "##ified": 2253,
      "pu": 2254,
      "##ley": 2255,
      "bey": 2256,
      "intellig": 2257,
      "surface": 2258,
      "table": 2259,
      "among": 2260,
      "evolution": 2261,
      "happiness": 2262,
      "talked": 2263,
      "recently": 2264,
      "obviously": 2265,
      "resources": 2266,
      "mount": 2267,
      "tar": 2268,
      "##ify": 2269,
      "##usion": 2270,
      "message": 2271,
      "hit": 2272,
      "son": 2273,
      "haven": 2274,
      "beyond": 2275,
      "##arr": 2276,
      "peri": 2277,
      "office": 2278,
      "achie": 2279,
      "except": 2280,
      "chance": 2281,
      "term": 2282,
      "##oid": 2283,
      "##osing": 2284,
      "compass": 2285,
      "##ference": 2286,
      "groups": 2287,
      "danger": 2288,
      "sn": 2289,
      "##ik": 2290,
      "map": 2291,
      "involved": 2292,
      "transp": 2293,
      "joh": 2294,
      "detail": 2295,
      "choice": 2296,
      "source": 2297,
      "birth": 2298,
      "west": 2299,
      "shape": 2300,
      "flow": 2301,
      "schools": 2302,
      "issues": 2303,
      "google": 2304,
      "period": 2305,
      "##ese": 2306,
      "medical": 2307,
      "function": 2308,
      "digital": 2309,
      "mob": 2310,
      "sam": 2311,
      "##isions": 2312,
      "sold": 2313,
      "##ther": 2314,
      "cross": 2315,
      "electric": 2316,
      "journey": 2317,
      "tiny": 2318,
      "##ops": 2319,
      "send": 2320,
      "vision": 2321,
      "lay": 2322,
      "mal": 2323,
      "##ug": 2324,
      "##bit": 2325,
      "rece": 2326,
      "neg": 2327,
      "##ilities": 2328,
      "safe": 2329,
      "cover": 2330,
      "technologies": 2331,
      "hig": 2332,
      "sand": 2333,
      "##iant": 2334,
      "##xic": 2335,
      "stru": 2336,
      "block": 2337,
      "please": 2338,
      "rules": 2339,
      "available": 2340,
      "cause": 2341,
      "progress": 2342,
      "##ival": 2343,
      "flu": 2344,
      "aware": 2345,
      "necess": 2346,
      "activ": 2347,
      "meth": 2348,
      "wait": 2349,
      "web": 2350,
      "react": 2351,
      "mechan": 2352,
      "ec": 2353,
      "nine": 2354,
      "deg": 2355,
      "walking": 2356,
      "situation": 2357,
      "breat": 2358,
      "grad": 2359,
      "designed": 2360,
      "projects": 2361,
      "encou": 2362,
      "dimens": 2363,
      "cit": 2364,
      "wish": 2365,
      "##ein": 2366,
      "search": 2367,
      "flo": 2368,
      "account": 2369,
      "device": 2370,
      "compassion": 2371,
      "lea": 2372,
      "creative": 2373,
      "attack": 2374,
      "11": 2375,
      "dam": 2376,
      "##oring": 2377,
      "quality": 2378,
      "everywhere": 2379,
      "teacher": 2380,
      "memory": 2381,
      "div": 2382,
      "star": 2383,
      "lived": 2384,
      "individuals": 2385,
      "miles": 2386,
      "ep": 2387,
      "##ffer": 2388,
      "tend": 2389,
      "putting": 2390,
      "minute": 2391,
      "freed": 2392,
      "bird": 2393,
      "##osph": 2394,
      "##une": 2395,
      "drive": 2396,
      "ready": 2397,
      "clean": 2398,
      "suddenly": 2399,
      "cart": 2400,
      "code": 2401,
      "##ishing": 2402,
      "##aught": 2403,
      "action": 2404,
      "pan": 2405,
      "port": 2406,
      "park": 2407,
      "rid": 2408,
      "##iar": 2409,
      "##ban": 2410,
      "##ala": 2411,
      "##odies": 2412,
      "likely": 2413,
      "becomes": 2414,
      "199": 2415,
      "##ma": 2416,
      "##oms": 2417,
      "##abor": 2418,
      "tells": 2419,
      "passion": 2420,
      "##oming": 2421,
      "print": 2422,
      "evidence": 2423,
      "blind": 2424,
      "bigger": 2425,
      "conscious": 2426,
      "report": 2427,
      "##cuss": 2428,
      "ban": 2429,
      "died": 2430,
      "jap": 2431,
      "cris": 2432,
      "hospital": 2433,
      "cloud": 2434,
      "##ips": 2435,
      "certainly": 2436,
      "deliver": 2437,
      "japan": 2438,
      "##uly": 2439,
      "waste": 2440,
      "##augh": 2441,
      "results": 2442,
      "improve": 2443,
      "##arily": 2444,
      "whe": 2445,
      "##str": 2446,
      "emerg": 2447,
      "particip": 2448,
      "reasons": 2449,
      "crazy": 2450,
      "drug": 2451,
      "tom": 2452,
      "stress": 2453,
      "anybody": 2454,
      "##roll": 2455,
      "capt": 2456,
      "electr": 2457,
      "##ously": 2458,
      "author": 2459,
      "scientific": 2460,
      "magic": 2461,
      "positive": 2462,
      "violence": 2463,
      "jud": 2464,
      "lose": 2465,
      "mis": 2466,
      "##fort": 2467,
      "towards": 2468,
      "##rage": 2469,
      "computers": 2470,
      "college": 2471,
      "software": 2472,
      "bacter": 2473,
      "notice": 2474,
      "basic": 2475,
      "moral": 2476,
      "favorite": 2477,
      "##uit": 2478,
      "prim": 2479,
      "income": 2480,
      "virt": 2481,
      "threat": 2482,
      "molec": 2483,
      "square": 2484,
      "screen": 2485,
      "gt": 2486,
      "##gth": 2487,
      "trial": 2488,
      "solar": 2489,
      "##medi": 2490,
      "citiz": 2491,
      "din": 2492,
      "lt": 2493,
      "taught": 2494,
      "store": 2495,
      "door": 2496,
      "##oles": 2497,
      "##antly": 2498,
      "suffer": 2499,
      "starts": 2500,
      "transl": 2501,
      "examples": 2502,
      "fant": 2503,
      "fish": 2504,
      "adm": 2505,
      "hiv": 2506,
      "biggest": 2507,
      "student": 2508,
      "extraord": 2509,
      "several": 2510,
      "faster": 2511,
      "##ners": 2512,
      "##ext": 2513,
      "##onse": 2514,
      "content": 2515,
      "minds": 2516,
      "introdu": 2517,
      "hop": 2518,
      "apart": 2519,
      "onto": 2520,
      "interv": 2521,
      "speed": 2522,
      "moved": 2523,
      "choose": 2524,
      "labor": 2525,
      "particularly": 2526,
      "forest": 2527,
      "camera": 2528,
      "freedom": 2529,
      "tv": 2530,
      "##ama": 2531,
      "showing": 2532,
      "ara": 2533,
      "isl": 2534,
      "meant": 2535,
      "##izations": 2536,
      "context": 2537,
      "graph": 2538,
      "eventually": 2539,
      "vacc": 2540,
      "neighbor": 2541,
      "further": 2542,
      "bank": 2543,
      "luck": 2544,
      "brit": 2545,
      "##ruction": 2546,
      "##ished": 2547,
      "finan": 2548,
      "connected": 2549,
      "rain": 2550,
      "##light": 2551,
      "##nch": 2552,
      "##estern": 2553,
      "##urity": 2554,
      "communities": 2555,
      "secret": 2556,
      "drugs": 2557,
      "surprising": 2558,
      "represent": 2559,
      "dad": 2560,
      "prison": 2561,
      "##ude": 2562,
      "jobs": 2563,
      "den": 2564,
      "##ctors": 2565,
      "##agn": 2566,
      "response": 2567,
      "totally": 2568,
      "dom": 2569,
      "decisions": 2570,
      "redu": 2571,
      "bud": 2572,
      "swe": 2573,
      "##dom": 2574,
      "stick": 2575,
      "region": 2576,
      "specific": 2577,
      "collabor": 2578,
      "dav": 2579,
      "mine": 2580,
      "##ring": 2581,
      "##lo": 2582,
      "##eties": 2583,
      "worse": 2584,
      "immedi": 2585,
      "brains": 2586,
      "virus": 2587,
      "mathem": 2588,
      "fill": 2589,
      "pal": 2590,
      "pack": 2591,
      "##ground": 2592,
      "##more": 2593,
      "offer": 2594,
      "carry": 2595,
      "farm": 2596,
      "eth": 2597,
      "fine": 2598,
      "rand": 2599,
      "san": 2600,
      "##ims": 2601,
      "spir": 2602,
      "remark": 2603,
      "##others": 2604,
      "detect": 2605,
      "assum": 2606,
      "chemical": 2607,
      "village": 2608,
      "fix": 2609,
      "mental": 2610,
      "push": 2611,
      "##nal": 2612,
      "##ping": 2613,
      "watching": 2614,
      "ign": 2615,
      "mir": 2616,
      "strateg": 2617,
      "character": 2618,
      "training": 2619,
      "method": 2620,
      "hun": 2621,
      "western": 2622,
      "##of": 2623,
      "infect": 2624,
      "##umb": 2625,
      "studies": 2626,
      "skin": 2627,
      "return": 2628,
      "60": 2629,
      "deb": 2630,
      "adult": 2631,
      "##ucle": 2632,
      "international": 2633,
      "require": 2634,
      "traditional": 2635,
      "16": 2636,
      "sus": 2637,
      "wild": 2638,
      "##ued": 2639,
      "webs": 2640,
      "##amm": 2641,
      "##ured": 2642,
      "##ief": 2643,
      "wants": 2644,
      "afgh": 2645,
      "artist": 2646,
      "bom": 2647,
      "##verty": 2648,
      "shown": 2649,
      "##oken": 2650,
      "poverty": 2651,
      "##akes": 2652,
      "ended": 2653,
      "grew": 2654,
      "influ": 2655,
      "including": 2656,
      "john": 2657,
      "crisis": 2658,
      "fasc": 2659,
      "##atory": 2660,
      "perspect": 2661,
      "decision": 2662,
      "buildings": 2663,
      "largest": 2664,
      "allowed": 2665,
      "position": 2666,
      "trees": 2667,
      "christ": 2668,
      "service": 2669,
      "bodies": 2670,
      "hom": 2671,
      "nucle": 2672,
      "discuss": 2673,
      "temper": 2674,
      "##use": 2675,
      "##how": 2676,
      "##iger": 2677,
      "separ": 2678,
      "clin": 2679,
      "cook": 2680,
      "glass": 2681,
      "appear": 2682,
      "corre": 2683,
      "organization": 2684,
      "movie": 2685,
      "hur": 2686,
      "link": 2687,
      "mist": 2688,
      "activity": 2689,
      "finding": 2690,
      "security": 2691,
      "continue": 2692,
      "objects": 2693,
      "lower": 2694,
      "##nam": 2695,
      "doctor": 2696,
      "unc": 2697,
      "check": 2698,
      "purp": 2699,
      "et": 2700,
      "named": 2701,
      "oxy": 2702,
      "rap": 2703,
      "plants": 2704,
      "saving": 2705,
      "cold": 2706,
      "##soci": 2707,
      "##ffic": 2708,
      "politics": 2709,
      "14": 2710,
      "##ech": 2711,
      "doc": 2712,
      "imposs": 2713,
      "accept": 2714,
      "central": 2715,
      "extremely": 2716,
      "afghan": 2717,
      "page": 2718,
      "wife": 2719,
      "##inct": 2720,
      "shap": 2721,
      "truly": 2722,
      "clos": 2723,
      "americans": 2724,
      "effic": 2725,
      "ger": 2726,
      "##icle": 2727,
      "201": 2728,
      "killed": 2729,
      "pattern": 2730,
      "80": 2731,
      "##gen": 2732,
      "##itary": 2733,
      "forms": 2734,
      "usually": 2735,
      "enj": 2736,
      "##itten": 2737,
      "supposed": 2738,
      "signific": 2739,
      "conditions": 2740,
      "excited": 2741,
      "listening": 2742,
      "vari": 2743,
      "conversation": 2744,
      "goal": 2745,
      "associ": 2746,
      "##istics": 2747,
      "anymore": 2748,
      "talks": 2749,
      "solutions": 2750,
      "david": 2751,
      "##zz": 2752,
      "##ently": 2753,
      "muse": 2754,
      "reading": 2755,
      "african": 2756,
      "products": 2757,
      "calcul": 2758,
      "sal": 2759,
      "##idge": 2760,
      "however": 2761,
      "rights": 2762,
      "##ologist": 2763,
      "employ": 2764,
      "effort": 2765,
      "arab": 2766,
      "500": 2767,
      "cases": 2768,
      "late": 2769,
      "vict": 2770,
      "##cise": 2771,
      "above": 2772,
      "##ulate": 2773,
      "alive": 2774,
      "disapp": 2775,
      "role": 2776,
      "points": 2777,
      "machines": 2778,
      "exciting": 2779,
      "engineering": 2780,
      "provide": 2781,
      "extraordinary": 2782,
      "daugh": 2783,
      "ken": 2784,
      "##oke": 2785,
      "weight": 2786,
      "complic": 2787,
      "surg": 2788,
      "kept": 2789,
      "engage": 2790,
      "sorts": 2791,
      "skills": 2792,
      "robots": 2793,
      "allows": 2794,
      "thousand": 2795,
      "princi": 2796,
      "higher": 2797,
      "impossible": 2798,
      "cat": 2799,
      "ran": 2800,
      "##gu": 2801,
      "##erve": 2802,
      "societies": 2803,
      "publish": 2804,
      "models": 2805,
      "raise": 2806,
      "dy": 2807,
      "##men": 2808,
      "##sect": 2809,
      "trou": 2810,
      "somehow": 2811,
      "board": 2812,
      "determ": 2813,
      "successful": 2814,
      "philos": 2815,
      "strugg": 2816,
      "fascin": 2817,
      "museum": 2818,
      "13": 2819,
      "##ining": 2820,
      "##rep": 2821,
      "doctors": 2822,
      "##rap": 2823,
      "loved": 2824,
      "##emic": 2825,
      "anyway": 2826,
      "anywhere": 2827,
      "smell": 2828,
      "sky": 2829,
      "policy": 2830,
      "king": 2831,
      "##enced": 2832,
      "strange": 2833,
      "slight": 2834,
      "families": 2835,
      "lands": 2836,
      "sad": 2837,
      "thr": 2838,
      "trib": 2839,
      "##cient": 2840,
      "manage": 2841,
      "expensive": 2842,
      "afford": 2843,
      "roll": 2844,
      "teaching": 2845,
      "capital": 2846,
      "fundamental": 2847,
      "financial": 2848,
      "17": 2849,
      "bunch": 2850,
      "cry": 2851,
      "rise": 2852,
      "##cape": 2853,
      "ang": 2854,
      "concer": 2855,
      "party": 2856,
      "genetic": 2857,
      "effective": 2858,
      "essentially": 2859,
      "kil": 2860,
      "##ee": 2861,
      "##ero": 2862,
      "somewhere": 2863,
      "plastic": 2864,
      "humanity": 2865,
      "famous": 2866,
      "depress": 2867,
      "neurons": 2868,
      "familiar": 2869,
      "##ays": 2870,
      "pros": 2871,
      "upon": 2872,
      "desp": 2873,
      "throughout": 2874,
      "##rene": 2875,
      "##ube": 2876,
      "distrib": 2877,
      "treatment": 2878,
      "reflect": 2879,
      "increasing": 2880,
      "hall": 2881,
      "ine": 2882,
      "fort": 2883,
      "fold": 2884,
      "funny": 2885,
      "colleag": 2886,
      "fra": 2887,
      "##iced": 2888,
      "##eth": 2889,
      "##ster": 2890,
      "##vert": 2891,
      "shark": 2892,
      "##ained": 2893,
      "series": 2894,
      "swim": 2895,
      "pieces": 2896,
      "types": 2897,
      "critical": 2898,
      "straight": 2899,
      "##osphere": 2900,
      "demon": 2901,
      "larger": 2902,
      "respect": 2903,
      "address": 2904,
      "magn": 2905,
      "clearly": 2906,
      "##come": 2907,
      "heav": 2908,
      "becoming": 2909,
      "actual": 2910,
      "beauty": 2911,
      "##cules": 2912,
      "patterns": 2913,
      "##cies": 2914,
      "##nded": 2915,
      "##ana": 2916,
      "##aries": 2917,
      "trade": 2918,
      "industr": 2919,
      "babies": 2920,
      "recognize": 2921,
      "female": 2922,
      "citizens": 2923,
      "hous": 2924,
      "##ffe": 2925,
      "##lier": 2926,
      "##nter": 2927,
      "ann": 2928,
      "##amp": 2929,
      "greater": 2930,
      "thanks": 2931,
      "police": 2932,
      "seconds": 2933,
      "corru": 2934,
      "standing": 2935,
      "random": 2936,
      "spirit": 2937,
      "perspective": 2938,
      "site": 2939,
      "tiss": 2940,
      "##oon": 2941,
      "##ought": 2942,
      "tor": 2943,
      "##omen": 2944,
      "##rael": 2945,
      "therefore": 2946,
      "##ores": 2947,
      "syn": 2948,
      "launch": 2949,
      "iran": 2950,
      "gas": 2951,
      "throw": 2952,
      "##iti": 2953,
      "israel": 2954,
      "written": 2955,
      "older": 2956,
      "industrial": 2957,
      "ben": 2958,
      "cust": 2959,
      "tal": 2960,
      "ver": 2961,
      "##ror": 2962,
      "##ai": 2963,
      "unique": 2964,
      "smaller": 2965,
      "environmental": 2966,
      "molecules": 2967,
      "fantastic": 2968,
      "##egr": 2969,
      "##cl": 2970,
      "willing": 2971,
      "speaking": 2972,
      "hero": 2973,
      "shared": 2974,
      "optim": 2975,
      "complicated": 2976,
      "lat": 2977,
      "nation": 2978,
      "##ulf": 2979,
      "legs": 2980,
      "198": 2981,
      "healthy": 2982,
      "painting": 2983,
      "democr": 2984,
      "medicine": 2985,
      "bacteria": 2986,
      "demonstr": 2987,
      "##ike": 2988,
      "##uments": 2989,
      "##aging": 2990,
      "##phone": 2991,
      "genes": 2992,
      "creativity": 2993,
      "hole": 2994,
      "architecture": 2995,
      "version": 2996,
      "bread": 2997,
      "fit": 2998,
      "liber": 2999,
      "prep": 3000,
      "contrib": 3001,
      "achieve": 3002,
      "dangerous": 3003,
      "##ises": 3004,
      "forget": 3005,
      "chair": 3006,
      "uses": 3007,
      "trick": 3008,
      "##unk": 3009,
      "decades": 3010,
      "costs": 3011,
      "radio": 3012,
      "unfortun": 3013,
      "mobile": 3014,
      "immediately": 3015,
      "mos": 3016,
      "match": 3017,
      "##ees": 3018,
      "##aur": 3019,
      "##vision": 3020,
      "speech": 3021,
      "offic": 3022,
      "final": 3023,
      "biology": 3024,
      "organizations": 3025,
      "levels": 3026,
      "increase": 3027,
      "journal": 3028,
      "electricity": 3029,
      "card": 3030,
      "spect": 3031,
      "connection": 3032,
      "standard": 3033,
      "practice": 3034,
      "urban": 3035,
      "website": 3036,
      "surgery": 3037,
      "fle": 3038,
      "##fact": 3039,
      "##itation": 3040,
      "forth": 3041,
      "resist": 3042,
      "beings": 3043,
      "remind": 3044,
      "autom": 3045,
      "cultural": 3046,
      "performance": 3047,
      "honest": 3048,
      "cele": 3049,
      "afghanistan": 3050,
      "jump": 3051,
      "comfort": 3052,
      "alg": 3053,
      "##iven": 3054,
      "belief": 3055,
      "production": 3056,
      "entrep": 3057,
      "entreprene": 3058,
      "mr": 3059,
      "##rog": 3060,
      "##iqu": 3061,
      "##back": 3062,
      "##omet": 3063,
      "##uss": 3064,
      "##pped": 3065,
      "##acity": 3066,
      "services": 3067,
      "celebr": 3068,
      "nut": 3069,
      "vul": 3070,
      "##ball": 3071,
      "##igr": 3072,
      "##iling": 3073,
      "##eless": 3074,
      "controll": 3075,
      "earlier": 3076,
      "histor": 3077,
      "21": 3078,
      "race": 3079,
      "wood": 3080,
      "##atically": 3081,
      "org": 3082,
      "diagn": 3083,
      "following": 3084,
      "remarkable": 3085,
      "none": 3086,
      "##aign": 3087,
      "##owd": 3088,
      "stars": 3089,
      "##epend": 3090,
      "popular": 3091,
      "propert": 3092,
      "condition": 3093,
      "massive": 3094,
      "campaign": 3095,
      "intelligence": 3096,
      "je": 3097,
      "pet": 3098,
      "##aly": 3099,
      "##oty": 3100,
      "sequ": 3101,
      "##ables": 3102,
      "evolved": 3103,
      "waiting": 3104,
      "##mend": 3105,
      "private": 3106,
      "television": 3107,
      "enjoy": 3108,
      "dance": 3109,
      "hus": 3110,
      "mention": 3111,
      "veh": 3112,
      "walked": 3113,
      "physic": 3114,
      "military": 3115,
      "emotional": 3116,
      "broad": 3117,
      "interview": 3118,
      "##itude": 3119,
      "wealth": 3120,
      "##imb": 3121,
      "hell": 3122,
      "price": 3123,
      "coffe": 3124,
      "phen": 3125,
      "useful": 3126,
      "apply": 3127,
      "challenges": 3128,
      "harv": 3129,
      "laugh": 3130,
      "fat": 3131,
      "fash": 3132,
      "ira": 3133,
      "mix": 3134,
      "ten": 3135,
      "yell": 3136,
      "town": 3137,
      "##sequ": 3138,
      "##ounds": 3139,
      "##ologists": 3140,
      "boys": 3141,
      "scan": 3142,
      "invent": 3143,
      "understood": 3144,
      "task": 3145,
      "wis": 3146,
      "ton": 3147,
      "##orrow": 3148,
      "gold": 3149,
      "shock": 3150,
      "sharing": 3151,
      "spaces": 3152,
      "simpl": 3153,
      "career": 3154,
      "president": 3155,
      "sexual": 3156,
      "birds": 3157,
      "purpose": 3158,
      "vulner": 3159,
      "coffee": 3160,
      "90": 3161,
      "##yle": 3162,
      "##po": 3163,
      "##eren": 3164,
      "##itor": 3165,
      "whose": 3166,
      "alth": 3167,
      "helped": 3168,
      "himself": 3169,
      "oppos": 3170,
      "slightly": 3171,
      "base": 3172,
      "eating": 3173,
      "##iest": 3174,
      "frank": 3175,
      "driving": 3176,
      "choices": 3177,
      "direction": 3178,
      "multip": 3179,
      "nuclear": 3180,
      "bord": 3181,
      "lines": 3182,
      "mars": 3183,
      "weren": 3184,
      "insect": 3185,
      "##iding": 3186,
      "##imately": 3187,
      "##ement": 3188,
      "email": 3189,
      "surround": 3190,
      "values": 3191,
      "##resh": 3192,
      "experiments": 3193,
      "##attle": 3194,
      "summer": 3195,
      "although": 3196,
      "male": 3197,
      "tree": 3198,
      "##mb": 3199,
      "##osy": 3200,
      "beat": 3201,
      "exh": 3202,
      "##ception": 3203,
      "physics": 3204,
      "classroom": 3205,
      "focused": 3206,
      "inspired": 3207,
      "neighborhood": 3208,
      "german": 3209,
      "phenomen": 3210,
      "iraq": 3211,
      "river": 3212,
      "zero": 3213,
      "conference": 3214,
      "knowing": 3215,
      "decide": 3216,
      "daughter": 3217,
      "fashion": 3218,
      "rom": 3219,
      "##iet": 3220,
      "##arian": 3221,
      "worry": 3222,
      "##anda": 3223,
      "##ipt": 3224,
      "creates": 3225,
      "photo": 3226,
      "motiv": 3227,
      "networks": 3228,
      "destro": 3229,
      "sustainable": 3230,
      "custom": 3231,
      "range": 3232,
      "##son": 3233,
      "##uing": 3234,
      "##uct": 3235,
      "##put": 3236,
      "dog": 3237,
      "select": 3238,
      "integr": 3239,
      "highly": 3240,
      "lights": 3241,
      "answers": 3242,
      "facebook": 3243,
      "meeting": 3244,
      "target": 3245,
      "austr": 3246,
      "wire": 3247,
      "##50": 3248,
      "##rees": 3249,
      "inj": 3250,
      "blog": 3251,
      "##rench": 3252,
      "197": 3253,
      "complexity": 3254,
      "##like": 3255,
      "islam": 3256,
      "gather": 3257,
      "rule": 3258,
      "##ndon": 3259,
      "##oun": 3260,
      "drink": 3261,
      "identity": 3262,
      "transport": 3263,
      "24": 3264,
      "cru": 3265,
      "##for": 3266,
      "##sh": 3267,
      "##aff": 3268,
      "##ancy": 3269,
      "##isms": 3270,
      "##imp": 3271,
      "hey": 3272,
      "shot": 3273,
      "log": 3274,
      "##istry": 3275,
      "teen": 3276,
      "enorm": 3277,
      "bub": 3278,
      "moon": 3279,
      "independ": 3280,
      "decade": 3281,
      "invented": 3282,
      "instance": 3283,
      "artists": 3284,
      "streets": 3285,
      "temperature": 3286,
      "unfortunately": 3287,
      "cand": 3288,
      "dying": 3289,
      "gala": 3290,
      "##nel": 3291,
      "##uted": 3292,
      "##ceed": 3293,
      "london": 3294,
      "fellow": 3295,
      "differences": 3296,
      "spending": 3297,
      "scr": 3298,
      "dollar": 3299,
      "##board": 3300,
      "laws": 3301,
      "##iversity": 3302,
      "ahead": 3303,
      "catch": 3304,
      "tun": 3305,
      "##bel": 3306,
      "hack": 3307,
      "displ": 3308,
      "instr": 3309,
      "slide": 3310,
      "capacity": 3311,
      "breast": 3312,
      "profound": 3313,
      "survive": 3314,
      "mathemat": 3315,
      "narr": 3316,
      "##aling": 3317,
      "shop": 3318,
      "greatest": 3319,
      "explore": 3320,
      "pleas": 3321,
      "occur": 3322,
      "analy": 3323,
      "gradu": 3324,
      "etc": 3325,
      "trouble": 3326,
      "fing": 3327,
      "gent": 3328,
      "mut": 3329,
      "sor": 3330,
      "ut": 3331,
      "worst": 3332,
      "prevent": 3333,
      "afra": 3334,
      "poet": 3335,
      "commer": 3336,
      "shares": 3337,
      "flying": 3338,
      "various": 3339,
      "leadership": 3340,
      "wheel": 3341,
      "##band": 3342,
      "##word": 3343,
      "##atives": 3344,
      "##olve": 3345,
      "mexic": 3346,
      "frame": 3347,
      "mostly": 3348,
      "brings": 3349,
      "traffic": 3350,
      "scientist": 3351,
      "foreign": 3352,
      "diseases": 3353,
      "terrible": 3354,
      "symb": 3355,
      "wide": 3356,
      "##cope": 3357,
      "##anc": 3358,
      "atm": 3359,
      "##antic": 3360,
      "plat": 3361,
      "active": 3362,
      "depart": 3363,
      "causes": 3364,
      "afraid": 3365,
      "mich": 3366,
      "##iation": 3367,
      "##orge": 3368,
      "weap": 3369,
      "stren": 3370,
      "forg": 3371,
      "foundation": 3372,
      "paid": 3373,
      "doub": 3374,
      "corruption": 3375,
      "##orith": 3376,
      "##oper": 3377,
      "noticed": 3378,
      "consequ": 3379,
      "twice": 3380,
      "photos": 3381,
      "mission": 3382,
      "communicate": 3383,
      "directly": 3384,
      "floor": 3385,
      "published": 3386,
      "algorith": 3387,
      "300": 3388,
      "70": 3389,
      "mid": 3390,
      "vast": 3391,
      "##iers": 3392,
      "##aim": 3393,
      "##outh": 3394,
      "note": 3395,
      "amb": 3396,
      "indian": 3397,
      "dram": 3398,
      "joy": 3399,
      "join": 3400,
      "inspir": 3401,
      "philosoph": 3402,
      "strength": 3403,
      "bang": 3404,
      "gun": 3405,
      "loss": 3406,
      "tens": 3407,
      "##ened": 3408,
      "washing": 3409,
      "##thetic": 3410,
      "##iforn": 3411,
      "related": 3412,
      "relative": 3413,
      "##ission": 3414,
      "possibly": 3415,
      "members": 3416,
      "californ": 3417,
      "missing": 3418,
      "aids": 3419,
      "eg": 3420,
      "hang": 3421,
      "rough": 3422,
      "tit": 3423,
      "##ze": 3424,
      "chick": 3425,
      "##used": 3426,
      "crowd": 3427,
      "below": 3428,
      "respond": 3429,
      "devices": 3430,
      "nearly": 3431,
      "applic": 3432,
      "experiences": 3433,
      "##ered": 3434,
      "tax": 3435,
      "novel": 3436,
      "surve": 3437,
      "supply": 3438,
      "electron": 3439,
      "autism": 3440,
      "emotion": 3441,
      "copy": 3442,
      "institutions": 3443,
      "depend": 3444,
      "correct": 3445,
      "ble": 3446,
      "pig": 3447,
      "##rast": 3448,
      "ord": 3449,
      "unlike": 3450,
      "compon": 3451,
      "##itted": 3452,
      "produced": 3453,
      "stopped": 3454,
      "pengu": 3455,
      "closer": 3456,
      "gentle": 3457,
      "sorry": 3458,
      "california": 3459,
      "##ec": 3460,
      "##zil": 3461,
      "##alia": 3462,
      "stem": 3463,
      "forces": 3464,
      "##iles": 3465,
      "##aining": 3466,
      "cooper": 3467,
      "acad": 3468,
      "basis": 3469,
      "fuel": 3470,
      "parad": 3471,
      "hearing": 3472,
      "avoid": 3473,
      "communication": 3474,
      "micros": 3475,
      "reduce": 3476,
      "##load": 3477,
      "dynam": 3478,
      "colleagues": 3479,
      "tissue": 3480,
      "gay": 3481,
      "mad": 3482,
      "nan": 3483,
      "##wise": 3484,
      "##itter": 3485,
      "##imin": 3486,
      "seed": 3487,
      "justice": 3488,
      "moments": 3489,
      "accord": 3490,
      "##idden": 3491,
      "airpl": 3492,
      "bringing": 3493,
      "brazil": 3494,
      "mountain": 3495,
      "oxygen": 3496,
      "lack": 3497,
      "##tle": 3498,
      "##af": 3499,
      "##icking": 3500,
      "##key": 3501,
      "##empt": 3502,
      "##izes": 3503,
      "##ibr": 3504,
      "infrast": 3505,
      "magaz": 3506,
      "opportunities": 3507,
      "religion": 3508,
      "molecule": 3509,
      "despite": 3510,
      "infrastruct": 3511,
      "rh": 3512,
      "##iot": 3513,
      "##ky": 3514,
      "##ches": 3515,
      "##cks": 3516,
      "manu": 3517,
      "helping": 3518,
      "played": 3519,
      "switch": 3520,
      "consciousness": 3521,
      "lunch": 3522,
      "##oses": 3523,
      "##rew": 3524,
      "##lly": 3525,
      "agree": 3526,
      "invis": 3527,
      "feels": 3528,
      "conserv": 3529,
      "metap": 3530,
      "passed": 3531,
      "chris": 3532,
      "original": 3533,
      "volun": 3534,
      "faces": 3535,
      "mit": 3536,
      "russ": 3537,
      "##ef": 3538,
      "island": 3539,
      "ancient": 3540,
      "shift": 3541,
      "##odes": 3542,
      "mel": 3543,
      "brill": 3544,
      "##athy": 3545,
      "studying": 3546,
      "insight": 3547,
      "accur": 3548,
      "addition": 3549,
      "programs": 3550,
      "3d": 3551,
      "burn": 3552,
      "dar": 3553,
      "fab": 3554,
      "tum": 3555,
      "reve": 3556,
      "recon": 3557,
      "##stein": 3558,
      "##cell": 3559,
      "##ada": 3560,
      "agric": 3561,
      "brother": 3562,
      "##othes": 3563,
      "attract": 3564,
      "visit": 3565,
      "governments": 3566,
      "degrees": 3567,
      "significant": 3568,
      "yellow": 3569,
      "opposite": 3570,
      "manufact": 3571,
      "agricult": 3572,
      "bought": 3573,
      "cogn": 3574,
      "gar": 3575,
      "mas": 3576,
      "mouth": 3577,
      "therap": 3578,
      "held": 3579,
      "desire": 3580,
      "flight": 3581,
      "importantly": 3582,
      "musl": 3583,
      "demand": 3584,
      "forever": 3585,
      "structures": 3586,
      "failure": 3587,
      "emotions": 3588,
      "majority": 3589,
      "total": 3590,
      "puzz": 3591,
      "batter": 3592,
      "core": 3593,
      "rare": 3594,
      "vot": 3595,
      "vote": 3596,
      "##wide": 3597,
      "hair": 3598,
      "adapt": 3599,
      "imagination": 3600,
      "relationships": 3601,
      "husband": 3602,
      "bul": 3603,
      "sick": 3604,
      "##pher": 3605,
      "##vant": 3606,
      "trip": 3607,
      "intel": 3608,
      "tremend": 3609,
      "brand": 3610,
      "lucky": 3611,
      "keny": 3612,
      "gard": 3613,
      "master": 3614,
      "##aced": 3615,
      "broken": 3616,
      "corner": 3617,
      "password": 3618,
      "effects": 3619,
      "fully": 3620,
      "embra": 3621,
      "turning": 3622,
      "necessary": 3623,
      "wisdom": 3624,
      "bound": 3625,
      "##fl": 3626,
      "##ios": 3627,
      "##gar": 3628,
      "##rest": 3629,
      "bees": 3630,
      "##tend": 3631,
      "edge": 3632,
      "lesson": 3633,
      "marri": 3634,
      "cheap": 3635,
      "diet": 3636,
      "entirely": 3637,
      "advant": 3638,
      "grandm": 3639,
      "window": 3640,
      "hyd": 3641,
      "statistics": 3642,
      "benefits": 3643,
      "ax": 3644,
      "mamm": 3645,
      "##house": 3646,
      "##anced": 3647,
      "workers": 3648,
      "coast": 3649,
      "differently": 3650,
      "colors": 3651,
      "leading": 3652,
      "accom": 3653,
      "easily": 3654,
      "restaur": 3655,
      "newsp": 3656,
      "paul": 3657,
      "benefit": 3658,
      "enormous": 3659,
      "french": 3660,
      "##fr": 3661,
      "##ening": 3662,
      "##ett": 3663,
      "##ids": 3664,
      "heat": 3665,
      "shel": 3666,
      "events": 3667,
      "background": 3668,
      "##iber": 3669,
      "grown": 3670,
      "matters": 3671,
      "equal": 3672,
      "argument": 3673,
      "responsible": 3674,
      "rapid": 3675,
      "atmosphere": 3676,
      "band": 3677,
      "mort": 3678,
      "##com": 3679,
      "appe": 3680,
      "##icles": 3681,
      "##ams": 3682,
      "sport": 3683,
      "196": 3684,
      "researchers": 3685,
      "hyp": 3686,
      "fighting": 3687,
      "professor": 3688,
      "pressure": 3689,
      "describe": 3690,
      "british": 3691,
      "##osystem": 3692,
      "symbol": 3693,
      "400": 3694,
      "ath": 3695,
      "nations": 3696,
      "##oo": 3697,
      "recover": 3698,
      "prior": 3699,
      "##ils": 3700,
      "##ifically": 3701,
      "##ifying": 3702,
      "spot": 3703,
      "##ager": 3704,
      "crime": 3705,
      "voices": 3706,
      "deeply": 3707,
      "motor": 3708,
      "shoot": 3709,
      "ecosystem": 3710,
      "efficient": 3711,
      "infrastructure": 3712,
      "bone": 3713,
      "diversity": 3714,
      "##zen": 3715,
      "exer": 3716,
      "compared": 3717,
      "##agers": 3718,
      "##itely": 3719,
      "##ysis": 3720,
      "fascinating": 3721,
      "landscape": 3722,
      "according": 3723,
      "iron": 3724,
      "tow": 3725,
      "wear": 3726,
      "reward": 3727,
      "altern": 3728,
      "##ander": 3729,
      "saf": 3730,
      "expand": 3731,
      "clock": 3732,
      "politic": 3733,
      "terror": 3734,
      "received": 3735,
      "breath": 3736,
      "suffering": 3737,
      "invisible": 3738,
      "bag": 3739,
      "egg": 3740,
      "fed": 3741,
      "tast": 3742,
      "tough": 3743,
      "##here": 3744,
      "##vity": 3745,
      "##encies": 3746,
      "ship": 3747,
      "##ulous": 3748,
      "##ulations": 3749,
      "contact": 3750,
      "letter": 3751,
      "corpor": 3752,
      "distance": 3753,
      "##pected": 3754,
      "typical": 3755,
      "dreams": 3756,
      "european": 3757,
      "responsibility": 3758,
      "definition": 3759,
      "domin": 3760,
      "adults": 3761,
      "jan": 3762,
      "round": 3763,
      "##ked": 3764,
      "habit": 3765,
      "childhood": 3766,
      "remote": 3767,
      "shouldn": 3768,
      "designer": 3769,
      "regular": 3770,
      "raised": 3771,
      "neuros": 3772,
      "illustr": 3773,
      "interaction": 3774,
      "shoes": 3775,
      "negative": 3776,
      "department": 3777,
      "brilliant": 3778,
      "ju": 3779,
      "mur": 3780,
      "##mark": 3781,
      "##arm": 3782,
      "##leg": 3783,
      "reb": 3784,
      "repe": 3785,
      "users": 3786,
      "climb": 3787,
      "gotten": 3788,
      "illness": 3789,
      "ultimately": 3790,
      "japanese": 3791,
      "virtual": 3792,
      "giant": 3793,
      "pair": 3794,
      "van": 3795,
      "##yl": 3796,
      "##itable": 3797,
      "quant": 3798,
      "##thes": 3799,
      "sector": 3800,
      "seemed": 3801,
      "##rupt": 3802,
      "genome": 3803,
      "biological": 3804,
      "paint": 3805,
      "collective": 3806,
      "legal": 3807,
      "drawing": 3808,
      "faith": 3809,
      "strategy": 3810,
      "document": 3811,
      "destroy": 3812,
      "due": 3813,
      "gd": 3814,
      "mat": 3815,
      "rat": 3816,
      "ray": 3817,
      "rout": 3818,
      "##reci": 3819,
      "##verse": 3820,
      "proud": 3821,
      "mak": 3822,
      "creatures": 3823,
      "protein": 3824,
      "frequ": 3825,
      "cycle": 3826,
      "daily": 3827,
      "balance": 3828,
      "epid": 3829,
      "dinner": 3830,
      "insects": 3831,
      "cognitive": 3832,
      "hate": 3833,
      "tour": 3834,
      "##erly": 3835,
      "##osh": 3836,
      "##aria": 3837,
      "station": 3838,
      "shut": 3839,
      "compare": 3840,
      "veget": 3841,
      "worldwide": 3842,
      "interp": 3843,
      "partners": 3844,
      "attempt": 3845,
      "discovery": 3846,
      "perfectly": 3847,
      "farmers": 3848,
      "depression": 3849,
      "volunte": 3850,
      "gdp": 3851,
      "fol": 3852,
      "fresh": 3853,
      "host": 3854,
      "hidden": 3855,
      "##hab": 3856,
      "##edia": 3857,
      "intu": 3858,
      "managed": 3859,
      "##iable": 3860,
      "gene": 3861,
      "creation": 3862,
      "meters": 3863,
      "married": 3864,
      "swed": 3865,
      "auth": 3866,
      "element": 3867,
      "double": 3868,
      "bomb": 3869,
      "metaphor": 3870,
      "intellect": 3871,
      "tremendous": 3872,
      "cred": 3873,
      "fif": 3874,
      "gap": 3875,
      "mothers": 3876,
      "odd": 3877,
      "##esome": 3878,
      "##edd": 3879,
      "##ctic": 3880,
      "asia": 3881,
      "defe": 3882,
      "truck": 3883,
      "everyday": 3884,
      "previous": 3885,
      "##rof": 3886,
      "artific": 3887,
      "stuck": 3888,
      "equip": 3889,
      "failed": 3890,
      "versus": 3891,
      "replace": 3892,
      "democratic": 3893,
      "dry": 3894,
      "ange": 3895,
      "asse": 3896,
      "chur": 3897,
      "concent": 3898,
      "whenever": 3899,
      "thinks": 3900,
      "click": 3901,
      "##roc": 3902,
      "experts": 3903,
      "transm": 3904,
      "appreci": 3905,
      "keeping": 3906,
      "investment": 3907,
      "holding": 3908,
      "billions": 3909,
      "##ipped": 3910,
      "convin": 3911,
      "commercial": 3912,
      "magazine": 3913,
      "mouse": 3914,
      "names": 3915,
      "weird": 3916,
      "stim": 3917,
      "aspect": 3918,
      "meat": 3919,
      "teles": 3920,
      "##apers": 3921,
      "prev": 3922,
      "disc": 3923,
      "calls": 3924,
      "bridge": 3925,
      "##ressed": 3926,
      "install": 3927,
      "possibility": 3928,
      "subst": 3929,
      "easier": 3930,
      "languages": 3931,
      "##ography": 3932,
      "harm": 3933,
      "universal": 3934,
      "##ropri": 3935,
      "increasingly": 3936,
      "gh": 3937,
      "mc": 3938,
      "sen": 3939,
      "##arter": 3940,
      "##uries": 3941,
      "quote": 3942,
      "shif": 3943,
      "##ulpt": 3944,
      "unex": 3945,
      "precise": 3946,
      "otherwise": 3947,
      "sculpt": 3948,
      "surge": 3949,
      "planning": 3950,
      "##ification": 3951,
      "leads": 3952,
      "businesses": 3953,
      "##print": 3954,
      "figured": 3955,
      "antib": 3956,
      "investig": 3957,
      "limited": 3958,
      "essential": 3959,
      "fairly": 3960,
      "dimensional": 3961,
      "advantage": 3962,
      "equipment": 3963,
      "categ": 3964,
      "jew": 3965,
      "tick": 3966,
      "##uge": 3967,
      "##water": 3968,
      "apple": 3969,
      "##otic": 3970,
      "notion": 3971,
      "tail": 3972,
      "studied": 3973,
      "opin": 3974,
      "helps": 3975,
      "watched": 3976,
      "normally": 3977,
      "horr": 3978,
      "ladies": 3979,
      "mosqu": 3980,
      "platform": 3981,
      "concentr": 3982,
      "diction": 3983,
      "sister": 3984,
      "##rict": 3985,
      "##ypt": 3986,
      "##emy": 3987,
      "disord": 3988,
      "desert": 3989,
      "empt": 3990,
      "facts": 3991,
      "expert": 3992,
      "awesome": 3993,
      "feedback": 3994,
      "necessarily": 3995,
      "influence": 3996,
      "homes": 3997,
      "pil": 3998,
      "##ius": 3999,
      "##win": 4000,
      "incent": 4001,
      "##throp": 4002,
      "##cket": 4003,
      "##atell": 4004,
      "prefer": 4005,
      "leader": 4006,
      "succeed": 4007,
      "radical": 4008,
      "origin": 4009,
      "leaving": 4010,
      "struggle": 4011,
      "houses": 4012,
      "mexico": 4013,
      "marriage": 4014,
      "ca": 4015,
      "len": 4016,
      "losing": 4017,
      "##ta": 4018,
      "##har": 4019,
      "moves": 4020,
      "planets": 4021,
      "economics": 4022,
      "capable": 4023,
      "followed": 4024,
      "##ipping": 4025,
      "circum": 4026,
      "entert": 4027,
      "astron": 4028,
      "degree": 4029,
      "electrical": 4030,
      "egypt": 4031,
      "purs": 4032,
      "satell": 4033,
      "##cles": 4034,
      "wearing": 4035,
      "##ears": 4036,
      "##ortex": 4037,
      "letters": 4038,
      "##elling": 4039,
      "commit": 4040,
      "##aker": 4041,
      "finished": 4042,
      "20th": 4043,
      "opening": 4044,
      "opened": 4045,
      "accident": 4046,
      "heads": 4047,
      "trained": 4048,
      "surprise": 4049,
      "argue": 4050,
      "expression": 4051,
      "seriously": 4052,
      "separate": 4053,
      "##rogen": 4054,
      "battle": 4055,
      "rural": 4056,
      "##entally": 4057,
      "##ctions": 4058,
      "liked": 4059,
      "prize": 4060,
      "lock": 4061,
      "sugar": 4062,
      "##apse": 4063,
      "noise": 4064,
      "twitter": 4065,
      "invited": 4066,
      "highest": 4067,
      "counter": 4068,
      "150": 4069,
      "resource": 4070,
      "obsess": 4071,
      "damage": 4072,
      "vaccine": 4073,
      "australia": 4074,
      "diver": 4075,
      "ein": 4076,
      "ug": 4077,
      "##oh": 4078,
      "##mber": 4079,
      "##bles": 4080,
      "stock": 4081,
      "sending": 4082,
      "alt": 4083,
      "##pper": 4084,
      "aging": 4085,
      "##connect": 4086,
      "explor": 4087,
      "begins": 4088,
      "markets": 4089,
      "surprised": 4090,
      "survival": 4091,
      "professional": 4092,
      "summ": 4093,
      "soldiers": 4094,
      "bon": 4095,
      "mer": 4096,
      "##right": 4097,
      "##pid": 4098,
      "##pping": 4099,
      "driven": 4100,
      "fourth": 4101,
      "grab": 4102,
      "prototy": 4103,
      "constantly": 4104,
      "experienced": 4105,
      "competition": 4106,
      "malaria": 4107,
      "hurt": 4108,
      "associated": 4109,
      "comfortable": 4110,
      "airplane": 4111,
      "einstein": 4112,
      "dial": 4113,
      "sau": 4114,
      "##anes": 4115,
      "##omy": 4116,
      "soph": 4117,
      "dol": 4118,
      "##irt": 4119,
      "##ami": 4120,
      "franc": 4121,
      "##anted": 4122,
      "##acters": 4123,
      "uncle": 4124,
      "disp": 4125,
      "##ibilities": 4126,
      "advert": 4127,
      "valu": 4128,
      "characters": 4129,
      "hopefully": 4130,
      "engineers": 4131,
      "elements": 4132,
      "##onym": 4133,
      "army": 4134,
      "currently": 4135,
      "tomorrow": 4136,
      "fortun": 4137,
      "organs": 4138,
      "weapons": 4139,
      "safety": 4140,
      "grain": 4141,
      "gift": 4142,
      "ren": 4143,
      "vent": 4144,
      "##icity": 4145,
      "weather": 4146,
      "##idents": 4147,
      "shad": 4148,
      "peak": 4149,
      "perception": 4150,
      "agre": 4151,
      "brown": 4152,
      "root": 4153,
      "believed": 4154,
      "##ocol": 4155,
      "##issions": 4156,
      "courage": 4157,
      "organic": 4158,
      "killing": 4159,
      "george": 4160,
      "suggests": 4161,
      "described": 4162,
      "dimensions": 4163,
      "shapes": 4164,
      "concerned": 4165,
      "multiple": 4166,
      "phenomenon": 4167,
      "washington": 4168,
      "artificial": 4169,
      "il": 4170,
      "lin": 4171,
      "los": 4172,
      "lapt": 4173,
      "##uous": 4174,
      "##cop": 4175,
      "##ax": 4176,
      "theater": 4177,
      "bear": 4178,
      "##enty": 4179,
      "##celer": 4180,
      "seas": 4181,
      "maint": 4182,
      "spl": 4183,
      "unless": 4184,
      "pole": 4185,
      "acceler": 4186,
      "adop": 4187,
      "grade": 4188,
      "factory": 4189,
      "##forest": 4190,
      "transition": 4191,
      "charge": 4192,
      "operating": 4193,
      "honor": 4194,
      "lady": 4195,
      "bubble": 4196,
      "ordinary": 4197,
      "kenya": 4198,
      "les": 4199,
      "vibr": 4200,
      "wow": 4201,
      "##eral": 4202,
      "##itness": 4203,
      "libr": 4204,
      "##uls": 4205,
      "perce": 4206,
      "blow": 4207,
      "belong": 4208,
      "england": 4209,
      "minister": 4210,
      "finish": 4211,
      "musical": 4212,
      "harder": 4213,
      "specifically": 4214,
      "review": 4215,
      "digit": 4216,
      "identify": 4217,
      "cutting": 4218,
      "leaves": 4219,
      "cartoon": 4220,
      "filled": 4221,
      "official": 4222,
      "entrepreneurs": 4223,
      "exhib": 4224,
      "cow": 4225,
      "era": 4226,
      "hung": 4227,
      "holes": 4228,
      "jack": 4229,
      "migr": 4230,
      "sight": 4231,
      "wik": 4232,
      "##ij": 4233,
      "##dy": 4234,
      "##osis": 4235,
      "ing": 4236,
      "rein": 4237,
      "canada": 4238,
      "##ads": 4239,
      "exch": 4240,
      "fell": 4241,
      "whereas": 4242,
      "arms": 4243,
      "impl": 4244,
      "implic": 4245,
      "partner": 4246,
      "bright": 4247,
      "grid": 4248,
      "puts": 4249,
      "arts": 4250,
      "charles": 4251,
      "curious": 4252,
      "construction": 4253,
      "refuge": 4254,
      "analysis": 4255,
      "facing": 4256,
      "slowly": 4257,
      "employees": 4258,
      "spectr": 4259,
      "church": 4260,
      "unexpected": 4261,
      "bow": 4262,
      "date": 4263,
      "##hold": 4264,
      "##pan": 4265,
      "##mas": 4266,
      "##osm": 4267,
      "##enn": 4268,
      "##olves": 4269,
      "user": 4270,
      "##ushing": 4271,
      "hasn": 4272,
      "indic": 4273,
      "transformation": 4274,
      "mush": 4275,
      "generations": 4276,
      "skill": 4277,
      "election": 4278,
      "wondering": 4279,
      "paying": 4280,
      "collection": 4281,
      "##roph": 4282,
      "horse": 4283,
      "religious": 4284,
      "empower": 4285,
      "distribution": 4286,
      "chicken": 4287,
      "mosquit": 4288,
      "valuable": 4289,
      "dots": 4290,
      "mart": 4291,
      "nav": 4292,
      "row": 4293,
      "##iat": 4294,
      "##ls": 4295,
      "##lin": 4296,
      "##port": 4297,
      "toile": 4298,
      "whom": 4299,
      "##asa": 4300,
      "reform": 4301,
      "liqu": 4302,
      "##ulated": 4303,
      "##ume": 4304,
      "recy": 4305,
      "attach": 4306,
      "##entional": 4307,
      "setting": 4308,
      "chemistry": 4309,
      "caused": 4310,
      "lifet": 4311,
      "details": 4312,
      "passionate": 4313,
      "property": 4314,
      "niger": 4315,
      "pip": 4316,
      "##cra": 4317,
      "##inist": 4318,
      "##ener": 4319,
      "inform": 4320,
      "##urb": 4321,
      "shame": 4322,
      "frustr": 4323,
      "##berg": 4324,
      "humor": 4325,
      "scene": 4326,
      "smile": 4327,
      "stream": 4328,
      "testing": 4329,
      "considered": 4330,
      "molecular": 4331,
      "clinical": 4332,
      "##iques": 4333,
      "penguins": 4334,
      "##gment": 4335,
      "##wood": 4336,
      "##zing": 4337,
      "##anz": 4338,
      "##itals": 4339,
      "myst": 4340,
      "evil": 4341,
      "studio": 4342,
      "appropri": 4343,
      "organized": 4344,
      "##ographic": 4345,
      "awful": 4346,
      "equival": 4347,
      "engineer": 4348,
      "lawy": 4349,
      "steps": 4350,
      "sentence": 4351,
      "sympt": 4352,
      "sharks": 4353,
      "pleasure": 4354,
      "francis": 4355,
      "45": 4356,
      "cosm": 4357,
      "fal": 4358,
      "##ray": 4359,
      "##ael": 4360,
      "thom": 4361,
      "##atures": 4362,
      "##rete": 4363,
      "unp": 4364,
      "closed": 4365,
      "interface": 4366,
      "feelings": 4367,
      "article": 4368,
      "solid": 4369,
      "stupid": 4370,
      "patent": 4371,
      "videos": 4372,
      "advent": 4373,
      "extract": 4374,
      "caught": 4375,
      "limit": 4376,
      "photographs": 4377,
      "consumption": 4378,
      "sweet": 4379,
      "management": 4380,
      "consequences": 4381,
      "empty": 4382,
      "nur": 4383,
      "pure": 4384,
      "##uits": 4385,
      "##ham": 4386,
      "##asion": 4387,
      "ham": 4388,
      "##urg": 4389,
      "congress": 4390,
      "hadn": 4391,
      "underne": 4392,
      "##aked": 4393,
      "asks": 4394,
      "singing": 4395,
      "2008": 4396,
      "reduc": 4397,
      "cultures": 4398,
      "circle": 4399,
      "northern": 4400,
      "walls": 4401,
      "pollen": 4402,
      "civilization": 4403,
      "negot": 4404,
      "##ometers": 4405,
      "grandmother": 4406,
      "underneath": 4407,
      "pages": 4408,
      "pounds": 4409,
      "ride": 4410,
      "tall": 4411,
      "##lation": 4412,
      "##cers": 4413,
      "##lex": 4414,
      "##ula": 4415,
      "myth": 4416,
      "##ests": 4417,
      "##iff": 4418,
      "##cipl": 4419,
      "plus": 4420,
      "resc": 4421,
      "phones": 4422,
      "designers": 4423,
      "plane": 4424,
      "treated": 4425,
      "motion": 4426,
      "improv": 4427,
      "institution": 4428,
      "empathy": 4429,
      "controlled": 4430,
      "vehicle": 4431,
      "eld": 4432,
      "jul": 4433,
      "lu": 4434,
      "nar": 4435,
      "ves": 4436,
      "wars": 4437,
      "##ov": 4438,
      "beach": 4439,
      "reci": 4440,
      "soil": 4441,
      "quiet": 4442,
      "chart": 4443,
      "chain": 4444,
      "tex": 4445,
      "spoke": 4446,
      "pregn": 4447,
      "dish": 4448,
      "##acing": 4449,
      "adam": 4450,
      "scen": 4451,
      "driver": 4452,
      "player": 4453,
      "warm": 4454,
      "signal": 4455,
      "conduct": 4456,
      "deeper": 4457,
      "construct": 4458,
      "grandf": 4459,
      "practical": 4460,
      "silence": 4461,
      "encourage": 4462,
      "michael": 4463,
      "politicians": 4464,
      "convinced": 4465,
      "liquid": 4466,
      "pak": 4467,
      "tap": 4468,
      "##rodu": 4469,
      "##och": 4470,
      "inner": 4471,
      "refer": 4472,
      "dogs": 4473,
      "abst": 4474,
      "coal": 4475,
      "##ension": 4476,
      "grass": 4477,
      "fewer": 4478,
      "profit": 4479,
      "expected": 4480,
      "psychology": 4481,
      "fields": 4482,
      "released": 4483,
      "concl": 4484,
      "intelligent": 4485,
      "birthday": 4486,
      "covered": 4487,
      "printing": 4488,
      "debate": 4489,
      "narrative": 4490,
      "poetry": 4491,
      "algorithms": 4492,
      "tumor": 4493,
      "ingred": 4494,
      "mushroom": 4495,
      "pakistan": 4496,
      "fiction": 4497,
      "gam": 4498,
      "nerv": 4499,
      "rit": 4500,
      "witness": 4501,
      "##iors": 4502,
      "##yth": 4503,
      "weak": 4504,
      "staff": 4505,
      "##urally": 4506,
      "lies": 4507,
      "manip": 4508,
      "##ensity": 4509,
      "acqu": 4510,
      "producing": 4511,
      "solving": 4512,
      "march": 4513,
      "location": 4514,
      "protection": 4515,
      "affected": 4516,
      "promise": 4517,
      "arrived": 4518,
      "awareness": 4519,
      "reaction": 4520,
      "mirac": 4521,
      "21st": 4522,
      "independent": 4523,
      "display": 4524,
      "battery": 4525,
      "folks": 4526,
      "equivalent": 4527,
      "cere": 4528,
      "gps": 4529,
      "lic": 4530,
      "ox": 4531,
      "##und": 4532,
      "##uary": 4533,
      "##cil": 4534,
      "##icated": 4535,
      "wel": 4536,
      "stood": 4537,
      "##urance": 4538,
      "lie": 4539,
      "saved": 4540,
      "uns": 4541,
      "impress": 4542,
      "brief": 4543,
      "colon": 4544,
      "techniques": 4545,
      "invention": 4546,
      "importance": 4547,
      "personally": 4548,
      "thoughts": 4549,
      "players": 4550,
      "organisms": 4551,
      "define": 4552,
      "gender": 4553,
      "sources": 4554,
      "hospitals": 4555,
      "observ": 4556,
      "mountains": 4557,
      "snow": 4558,
      "blocks": 4559,
      "infected": 4560,
      "heavy": 4561,
      "launched": 4562,
      "relatively": 4563,
      "gentlemen": 4564,
      "dynamic": 4565,
      "vessel": 4566,
      "cave": 4567,
      "gain": 4568,
      "lect": 4569,
      "pm": 4570,
      "rational": 4571,
      "##oved": 4572,
      "##ann": 4573,
      "yout": 4574,
      "que": 4575,
      "qual": 4576,
      "forced": 4577,
      "cha": 4578,
      "##ateful": 4579,
      "calling": 4580,
      "phr": 4581,
      "ideal": 4582,
      "scar": 4583,
      "genet": 4584,
      "court": 4585,
      "lessons": 4586,
      "warming": 4587,
      "prote": 4588,
      "eastern": 4589,
      "typically": 4590,
      "picked": 4591,
      "critic": 4592,
      "emerging": 4593,
      "budget": 4594,
      "circumst": 4595,
      "spectrum": 4596,
      "lifetime": 4597,
      "false": 4598,
      "thomas": 4599,
      "35": 4600,
      "bath": 4601,
      "nurs": 4602,
      "ru": 4603,
      "##ey": 4604,
      "##care": 4605,
      "##met": 4606,
      "toward": 4607,
      "##itarian": 4608,
      "anx": 4609,
      "lift": 4610,
      "sem": 4611,
      "worried": 4612,
      "prove": 4613,
      "##cience": 4614,
      "buying": 4615,
      "poem": 4616,
      "emissions": 4617,
      "flat": 4618,
      "strang": 4619,
      "metal": 4620,
      "##grad": 4621,
      "processes": 4622,
      "auton": 4623,
      "robert": 4624,
      "confidence": 4625,
      "effectively": 4626,
      "risks": 4627,
      "stronger": 4628,
      "status": 4629,
      "severe": 4630,
      "definitely": 4631,
      "harvard": 4632,
      "##point": 4633,
      "garden": 4634,
      "newspaper": 4635,
      "mortality": 4636,
      "intellectual": 4637,
      "nervous": 4638,
      "youtube": 4639,
      "ber": 4640,
      "kore": 4641,
      "pun": 4642,
      "rot": 4643,
      "sides": 4644,
      "##ih": 4645,
      "##hi": 4646,
      "##ha": 4647,
      "##ka": 4648,
      "##ato": 4649,
      "##reg": 4650,
      "##ald": 4651,
      "init": 4652,
      "##illing": 4653,
      "##oking": 4654,
      "spring": 4655,
      "contain": 4656,
      "contract": 4657,
      "goods": 4658,
      "gravity": 4659,
      "subm": 4660,
      "connections": 4661,
      "yester": 4662,
      "marketing": 4663,
      "eleph": 4664,
      "analog": 4665,
      "satis": 4666,
      "tracking": 4667,
      "microb": 4668,
      "requires": 4669,
      "victims": 4670,
      "principle": 4671,
      "exercise": 4672,
      "dere": 4673,
      "pin": 4674,
      "rig": 4675,
      "ske": 4676,
      "und": 4677,
      "##oom": 4678,
      "##set": 4679,
      "##zed": 4680,
      "##encing": 4681,
      "##amin": 4682,
      "pray": 4683,
      "shall": 4684,
      "notes": 4685,
      "dece": 4686,
      "channel": 4687,
      "##place": 4688,
      "roof": 4689,
      "technical": 4690,
      "designing": 4691,
      "bits": 4692,
      "serve": 4693,
      "repair": 4694,
      "bike": 4695,
      "memories": 4696,
      "winter": 4697,
      "occup": 4698,
      "selling": 4699,
      "trials": 4700,
      "vulnerable": 4701,
      "galaxy": 4702,
      "roughly": 4703,
      "epidemic": 4704,
      "jail": 4705,
      "las": 4706,
      "nose": 4707,
      "##pes": 4708,
      "##inations": 4709,
      "##icy": 4710,
      "##irty": 4711,
      "goals": 4712,
      "height": 4713,
      "mand": 4714,
      "maps": 4715,
      "ens": 4716,
      "unus": 4717,
      "##aren": 4718,
      "##izz": 4719,
      "claim": 4720,
      "co2": 4721,
      "command": 4722,
      "engaged": 4723,
      "minim": 4724,
      "valley": 4725,
      "topic": 4726,
      "signals": 4727,
      "defined": 4728,
      "release": 4729,
      "relevant": 4730,
      "institute": 4731,
      "mistakes": 4732,
      "germany": 4733,
      "credit": 4734,
      "illeg": 4735,
      "grandfather": 4736,
      "yesterday": 4737,
      "bare": 4738,
      "kh": 4739,
      "wine": 4740,
      "##head": 4741,
      "##kn": 4742,
      "##ara": 4743,
      "##lement": 4744,
      "hem": 4745,
      "shr": 4746,
      "grateful": 4747,
      "##athers": 4748,
      "regard": 4749,
      "anti": 4750,
      "bottle": 4751,
      "falling": 4752,
      "authority": 4753,
      "laboratory": 4754,
      "ignor": 4755,
      "principles": 4756,
      "candid": 4757,
      "forgot": 4758,
      "restaurant": 4759,
      "dolph": 4760,
      "99": 4761,
      "aug": 4762,
      "cath": 4763,
      "gall": 4764,
      "hill": 4765,
      "horm": 4766,
      "rates": 4767,
      "sir": 4768,
      "##alu": 4769,
      "##owers": 4770,
      "isol": 4771,
      "exists": 4772,
      "spin": 4773,
      "##iev": 4774,
      "sacr": 4775,
      "unit": 4776,
      "##abol": 4777,
      "remain": 4778,
      "transpl": 4779,
      "polio": 4780,
      "finance": 4781,
      "##azz": 4782,
      "bush": 4783,
      "possibilities": 4784,
      "added": 4785,
      "environments": 4786,
      "existing": 4787,
      "aston": 4788,
      "estab": 4789,
      "layer": 4790,
      "mathematics": 4791,
      "doubt": 4792,
      "darwin": 4793,
      "alternative": 4794,
      "sophistic": 4795,
      "james": 4796,
      "oct": 4797,
      "ven": 4798,
      "##osition": 4799,
      "inher": 4800,
      "reven": 4801,
      "haiti": 4802,
      "anonym": 4803,
      "seat": 4804,
      "sees": 4805,
      "plans": 4806,
      "actions": 4807,
      "##eline": 4808,
      "scared": 4809,
      "medium": 4810,
      "carefully": 4811,
      "animation": 4812,
      "wake": 4813,
      "milk": 4814,
      "explains": 4815,
      "profession": 4816,
      "error": 4817,
      "lifest": 4818,
      "introduced": 4819,
      "2010": 4820,
      "kilometers": 4821,
      "dramatic": 4822,
      "agriculture": 4823,
      "axis": 4824,
      "assemb": 4825,
      "proteins": 4826,
      "22": 4827,
      "cortex": 4828,
      "##oll": 4829,
      "##off": 4830,
      "##bed": 4831,
      "##aled": 4832,
      "##ament": 4833,
      "##ulating": 4834,
      "##erson": 4835,
      "orch": 4836,
      "compl": 4837,
      "decl": 4838,
      "economies": 4839,
      "reprodu": 4840,
      "##gged": 4841,
      "label": 4842,
      "member": 4843,
      "sites": 4844,
      "constant": 4845,
      "steel": 4846,
      "dealing": 4847,
      "amounts": 4848,
      "behavioral": 4849,
      "richard": 4850,
      "meaningful": 4851,
      "depends": 4852,
      "participate": 4853,
      "sports": 4854,
      "opinion": 4855,
      "length": 4856,
      "entertain": 4857,
      "exchange": 4858,
      "23": 4859,
      "75": 4860,
      "ded": 4861,
      "dot": 4862,
      "gree": 4863,
      "##ox": 4864,
      "##gets": 4865,
      "##ught": 4866,
      "##cap": 4867,
      "##cast": 4868,
      "##erves": 4869,
      "##rets": 4870,
      "item": 4871,
      "##estic": 4872,
      "##unt": 4873,
      "worlds": 4874,
      "brothers": 4875,
      "flower": 4876,
      "factor": 4877,
      "interests": 4878,
      "generate": 4879,
      "particles": 4880,
      "micro": 4881,
      "cyber": 4882,
      "multi": 4883,
      "combine": 4884,
      "fundamentally": 4885,
      "subjects": 4886,
      "disappear": 4887,
      "inev": 4888,
      "inequ": 4889,
      "resistance": 4890,
      "mentioned": 4891,
      "border": 4892,
      "scratch": 4893,
      "graduate": 4894,
      "framework": 4895,
      "components": 4896,
      "interpret": 4897,
      "sweden": 4898,
      "circumstances": 4899,
      "dip": 4900,
      "ends": 4901,
      "gulf": 4902,
      "ol": 4903,
      "pac": 4904,
      "ring": 4905,
      "wave": 4906,
      "##cest": 4907,
      "##sters": 4908,
      "section": 4909,
      "shake": 4910,
      "chose": 4911,
      "chocol": 4912,
      "fright": 4913,
      "span": 4914,
      "suit": 4915,
      "twe": 4916,
      "boat": 4917,
      "polar": 4918,
      "clever": 4919,
      "internal": 4920,
      "earthqu": 4921,
      "##lessly": 4922,
      "advice": 4923,
      "innovative": 4924,
      "estim": 4925,
      "movies": 4926,
      "applied": 4927,
      "##porary": 4928,
      "introduce": 4929,
      "carrying": 4930,
      "variety": 4931,
      "swimming": 4932,
      "sequence": 4933,
      "survey": 4934,
      "accurate": 4935,
      "hydrogen": 4936,
      "rapidly": 4937,
      "telescope": 4938,
      "##craft": 4939,
      "unusual": 4940,
      "600": 4941,
      "hi": 4942,
      "jer": 4943,
      "kitch": 4944,
      "ly": 4945,
      "lung": 4946,
      "bee": 4947,
      "bell": 4948,
      "##ums": 4949,
      "##iel": 4950,
      "intense": 4951,
      "overwh": 4952,
      "disaster": 4953,
      "discipl": 4954,
      "pool": 4955,
      "percentage": 4956,
      "funding": 4957,
      "195": 4958,
      "explan": 4959,
      "coun": 4960,
      "films": 4961,
      "constit": 4962,
      "collapse": 4963,
      "senses": 4964,
      "sensitive": 4965,
      "oceans": 4966,
      "privile": 4967,
      "sample": 4968,
      "mechanical": 4969,
      "encoura": 4970,
      "portra": 4971,
      "ridic": 4972,
      "capture": 4973,
      "primary": 4974,
      "dinos": 4975,
      "forests": 4976,
      "britain": 4977,
      "announ": 4978,
      "romantic": 4979,
      "instrument": 4980,
      "philosophy": 4981,
      "rhyth": 4982,
      "navig": 4983,
      "abstract": 4984,
      "overwhel": 4985,
      "du": 4986,
      "fake": 4987,
      "hide": 4988,
      "ip": 4989,
      "rub": 4990,
      "voc": 4991,
      "##rus": 4992,
      "##oons": 4993,
      "##iency": 4994,
      "tons": 4995,
      "reverse": 4996,
      "##stream": 4997,
      "wash": 4998,
      "ancest": 4999,
      "acting": 5000,
      "compar": 5001,
      "resil": 5002,
      "##rovers": 5003,
      "adj": 5004,
      "writer": 5005,
      "consist": 5006,
      "string": 5007,
      "apparent": 5008,
      "economists": 5009,
      "generally": 5010,
      "runs": 5011,
      "contrast": 5012,
      "wondered": 5013,
      "defense": 5014,
      "##ternal": 5015,
      "increased": 5016,
      "sunlight": 5017,
      "messages": 5018,
      "elev": 5019,
      "operate": 5020,
      "option": 5021,
      "##heim": 5022,
      "clouds": 5023,
      "muslim": 5024,
      "dense": 5025,
      "ric": 5026,
      "##aters": 5027,
      "stone": 5028,
      "asp": 5029,
      "comment": 5030,
      "atoms": 5031,
      "##ela": 5032,
      "unkn": 5033,
      "compr": 5034,
      "##abled": 5035,
      "##ago": 5036,
      "prem": 5037,
      "shell": 5038,
      "flash": 5039,
      "repub": 5040,
      "computing": 5041,
      "movements": 5042,
      "regions": 5043,
      "joined": 5044,
      "airport": 5045,
      "soul": 5046,
      "teams": 5047,
      "southern": 5048,
      "consumer": 5049,
      "obser": 5050,
      "destruction": 5051,
      "sustainability": 5052,
      "concrete": 5053,
      "judge": 5054,
      "hoping": 5055,
      "vaccines": 5056,
      "collaboration": 5057,
      "hunger": 5058,
      "cooking": 5059,
      "harvest": 5060,
      "transportation": 5061,
      "##force": 5062,
      "manufacturing": 5063,
      "passwords": 5064,
      "embrace": 5065,
      "accompl": 5066,
      "ritual": 5067,
      "ack": 5068,
      "alex": 5069,
      "hol": 5070,
      "ii": 5071,
      "mere": 5072,
      "mile": 5073,
      "pian": 5074,
      "wise": 5075,
      "##ront": 5076,
      "##iate": 5077,
      "##lom": 5078,
      "##hol": 5079,
      "##wor": 5080,
      "thick": 5081,
      "##oned": 5082,
      "##iture": 5083,
      "reject": 5084,
      "comed": 5085,
      "frog": 5086,
      "teeth": 5087,
      "club": 5088,
      "##rove": 5089,
      "phase": 5090,
      "factors": 5091,
      "owners": 5092,
      "centers": 5093,
      "centuries": 5094,
      "confront": 5095,
      "paris": 5096,
      "infin": 5097,
      "advanced": 5098,
      "literature": 5099,
      "operation": 5100,
      "violent": 5101,
      "traveling": 5102,
      "combination": 5103,
      "chemicals": 5104,
      "mirror": 5105,
      "discussion": 5106,
      "borders": 5107,
      "rebu": 5108,
      "antibiot": 5109,
      "library": 5110,
      "bes": 5111,
      "cup": 5112,
      "lying": 5113,
      "##hr": 5114,
      "##qually": 5115,
      "##lym": 5116,
      "##iring": 5117,
      "##iled": 5118,
      "loop": 5119,
      "##oked": 5120,
      "union": 5121,
      "##abet": 5122,
      "bold": 5123,
      "desk": 5124,
      "smith": 5125,
      "solved": 5126,
      "194": 5127,
      "former": 5128,
      "processing": 5129,
      "##gging": 5130,
      "2000": 5131,
      "productive": 5132,
      "assign": 5133,
      "crack": 5134,
      "refr": 5135,
      "windows": 5136,
      "convince": 5137,
      "horiz": 5138,
      "conversations": 5139,
      "facial": 5140,
      "heroes": 5141,
      "prepared": 5142,
      "flex": 5143,
      "islamic": 5144,
      "applications": 5145,
      "equally": 5146,
      "gab": 5147,
      "hip": 5148,
      "iphone": 5149,
      "mt": 5150,
      "mim": 5151,
      "nasa": 5152,
      "##ca": 5153,
      "##bors": 5154,
      "input": 5155,
      "##igm": 5156,
      "##opher": 5157,
      "shar": 5158,
      "tea": 5159,
      "sahar": 5160,
      "flag": 5161,
      "instinct": 5162,
      "obama": 5163,
      "busy": 5164,
      "2007": 5165,
      "##ographer": 5166,
      "memor": 5167,
      "challenging": 5168,
      "behaviors": 5169,
      "fears": 5170,
      "stayed": 5171,
      "footprint": 5172,
      "include": 5173,
      "circuit": 5174,
      "shaped": 5175,
      "prosper": 5176,
      "nutr": 5177,
      "russia": 5178,
      "eggs": 5179,
      "chocolate": 5180,
      "kitchen": 5181,
      "republic": 5182,
      "dut": 5183,
      "furn": 5184,
      "gal": 5185,
      "gut": 5186,
      "kick": 5187,
      "loud": 5188,
      "mall": 5189,
      "ought": 5190,
      "##talk": 5191,
      "##cal": 5192,
      "ther": 5193,
      "##nda": 5194,
      "##nday": 5195,
      "##eding": 5196,
      "##icing": 5197,
      "##icip": 5198,
      "##lyn": 5199,
      "##lying": 5200,
      "stands": 5201,
      "ali": 5202,
      "knee": 5203,
      "proced": 5204,
      "##abilities": 5205,
      "arrest": 5206,
      "offers": 5207,
      "storyt": 5208,
      "19th": 5209,
      "tedtalk": 5210,
      "parking": 5211,
      "constrain": 5212,
      "radiation": 5213,
      "identical": 5214,
      "embarr": 5215,
      "represents": 5216,
      "cameras": 5217,
      "burning": 5218,
      "hotel": 5219,
      "flowers": 5220,
      "samples": 5221,
      "mechanism": 5222,
      "encounter": 5223,
      "divide": 5224,
      "bombs": 5225,
      "entrepreneur": 5226,
      "tonight": 5227,
      "inspiration": 5228,
      "therapy": 5229,
      "authent": 5230,
      "laptop": 5231,
      "martin": 5232,
      "illegal": 5233,
      "sophisticated": 5234,
      "lifestyle": 5235,
      "earthquake": 5236,
      "unknown": 5237,
      "embarrass": 5238,
      "ba": 5239,
      "cure": 5240,
      "cents": 5241,
      "dict": 5242,
      "hits": 5243,
      "males": 5244,
      "##pic": 5245,
      "##den": 5246,
      "##inate": 5247,
      "##itz": 5248,
      "whist": 5249,
      "haw": 5250,
      "stan": 5251,
      "stere": 5252,
      "##iminal": 5253,
      "##imeter": 5254,
      "prime": 5255,
      "##tered": 5256,
      "##ession": 5257,
      "acts": 5258,
      "##ogram": 5259,
      "ages": 5260,
      "desper": 5261,
      "plays": 5262,
      "metabol": 5263,
      "globe": 5264,
      "collecting": 5265,
      "steve": 5266,
      "interactive": 5267,
      "boxes": 5268,
      "conventional": 5269,
      "situations": 5270,
      "pollution": 5271,
      "mainly": 5272,
      "dancing": 5273,
      "transformed": 5274,
      "islands": 5275,
      "mistake": 5276,
      "spiritual": 5277,
      "verb": 5278,
      "fabric": 5279,
      "hypothes": 5280,
      "horrible": 5281,
      "satellite": 5282,
      "wikip": 5283,
      "francisco": 5284,
      "bicy": 5285,
      "cub": 5286,
      "fis": 5287,
      "ped": 5288,
      "pitch": 5289,
      "rush": 5290,
      "tape": 5291,
      "ze": 5292,
      "##car": 5293,
      "thin": 5294,
      "style": 5295,
      "##chair": 5296,
      "liver": 5297,
      "##olving": 5298,
      "meg": 5299,
      "chap": 5300,
      "chip": 5301,
      "atl": 5302,
      "##illed": 5303,
      "exec": 5304,
      "##ortion": 5305,
      "somewh": 5306,
      "##aret": 5307,
      "manh": 5308,
      "sheep": 5309,
      "overall": 5310,
      "brib": 5311,
      "gray": 5312,
      "blank": 5313,
      "technique": 5314,
      "obst": 5315,
      "healthcare": 5316,
      "formed": 5317,
      "suppose": 5318,
      "walks": 5319,
      "physically": 5320,
      "signs": 5321,
      "surely": 5322,
      "devast": 5323,
      "largely": 5324,
      "potentially": 5325,
      "options": 5326,
      "reaching": 5327,
      "broke": 5328,
      "pulled": 5329,
      "neighbors": 5330,
      "immune": 5331,
      "viruses": 5332,
      "palest": 5333,
      "determine": 5334,
      "latin": 5335,
      "journalist": 5336,
      "properties": 5337,
      "vehicles": 5338,
      "fifth": 5339,
      "mystery": 5340,
      "appropriate": 5341,
      "wikipedia": 5342,
      "somewhat": 5343,
      "cast": 5344,
      "der": 5345,
      "foss": 5346,
      "fert": 5347,
      "gates": 5348,
      "hat": 5349,
      "pill": 5350,
      "sets": 5351,
      "upper": 5352,
      "##la": 5353,
      "##now": 5354,
      "##bre": 5355,
      "##esity": 5356,
      "whales": 5357,
      "plate": 5358,
      "##ogue": 5359,
      "suic": 5360,
      "pocket": 5361,
      "contem": 5362,
      "controvers": 5363,
      "underwater": 5364,
      "##elly": 5365,
      "instruct": 5366,
      "obesity": 5367,
      "mont": 5368,
      "regener": 5369,
      "joke": 5370,
      "marg": 5371,
      "district": 5372,
      "paral": 5373,
      "allowing": 5374,
      "stret": 5375,
      "tests": 5376,
      "advance": 5377,
      "continent": 5378,
      "collected": 5379,
      "greenhouse": 5380,
      "closely": 5381,
      "existence": 5382,
      "records": 5383,
      "ultimate": 5384,
      "vulnerability": 5385,
      "mathematical": 5386,
      "wheelchair": 5387,
      "puzzle": 5388,
      "january": 5389,
      "dictionary": 5390,
      "derek": 5391,
      "transplant": 5392,
      "establish": 5393,
      "entertainment": 5394,
      "acknow": 5395,
      "gest": 5396,
      "honey": 5397,
      "jon": 5398,
      "ment": 5399,
      "nin": 5400,
      "nic": 5401,
      "pushing": 5402,
      "wal": 5403,
      "##gl": 5404,
      "##ba": 5405,
      "##xies": 5406,
      "##nders": 5407,
      "##ita": 5408,
      "##icate": 5409,
      "beet": 5410,
      "storm": 5411,
      "golf": 5412,
      "neither": 5413,
      "fro": 5414,
      "conver": 5415,
      "trig": 5416,
      "knock": 5417,
      "outc": 5418,
      "theme": 5419,
      "perman": 5420,
      "clust": 5421,
      "implement": 5422,
      "diss": 5423,
      "##ocin": 5424,
      "regret": 5425,
      "keeps": 5426,
      "educational": 5427,
      "distinct": 5428,
      "breaking": 5429,
      "waves": 5430,
      "painful": 5431,
      "director": 5432,
      "explained": 5433,
      "measuring": 5434,
      "illusion": 5435,
      "arguments": 5436,
      "irr": 5437,
      "spreading": 5438,
      "conflicts": 5439,
      "activities": 5440,
      "admit": 5441,
      "christmas": 5442,
      "angry": 5443,
      "housing": 5444,
      "tort": 5445,
      "frankly": 5446,
      "pilot": 5447,
      "advertising": 5448,
      "shadow": 5449,
      "implications": 5450,
      "nigeria": 5451,
      "symptoms": 5452,
      "astonishing": 5453,
      "cod": 5454,
      "cous": 5455,
      "sin": 5456,
      "##oint": 5457,
      "##lines": 5458,
      "##tocin": 5459,
      "##pet": 5460,
      "##do": 5461,
      "initi": 5462,
      "##arant": 5463,
      "##lete": 5464,
      "##cend": 5465,
      "prost": 5466,
      "sept": 5467,
      "max": 5468,
      "spoken": 5469,
      "nobel": 5470,
      "adoles": 5471,
      "remove": 5472,
      "insurance": 5473,
      "transfer": 5474,
      "traum": 5475,
      "naturally": 5476,
      "careful": 5477,
      "handle": 5478,
      "2009": 5479,
      "providing": 5480,
      "occasion": 5481,
      "faced": 5482,
      "roads": 5483,
      "religions": 5484,
      "attacks": 5485,
      "uncom": 5486,
      "uncertain": 5487,
      "oxytocin": 5488,
      "kingdom": 5489,
      "galaxies": 5490,
      "athlet": 5491,
      "murder": 5492,
      "toilet": 5493,
      "pregnant": 5494,
      "conclusion": 5495,
      "welcome": 5496,
      "september": 5497,
      "raw": 5498,
      "##my": 5499,
      "##vi": 5500,
      "##20": 5501,
      "##orter": 5502,
      "inject": 5503,
      "whale": 5504,
      "alph": 5505,
      "evalu": 5506,
      "feature": 5507,
      "agency": 5508,
      "wherever": 5509,
      "imper": 5510,
      "##ires": 5511,
      "lets": 5512,
      "carol": 5513,
      "designs": 5514,
      "coral": 5515,
      "younger": 5516,
      "signed": 5517,
      "classes": 5518,
      "classic": 5519,
      "treating": 5520,
      "retire": 5521,
      "##attan": 5522,
      "protected": 5523,
      "reached": 5524,
      "photography": 5525,
      "required": 5526,
      "songs": 5527,
      "dropped": 5528,
      "surrounded": 5529,
      "taste": 5530,
      "intuitive": 5531,
      "incentives": 5532,
      "obsessed": 5533,
      "prototype": 5534,
      "season": 5535,
      "ignorance": 5536,
      "diplom": 5537,
      "rhythm": 5538,
      "##heimer": 5539,
      "manhattan": 5540,
      "boring": 5541,
      "cord": 5542,
      "dress": 5543,
      "na": 5544,
      "ros": 5545,
      "rating": 5546,
      "rail": 5547,
      "zone": 5548,
      "##ole": 5549,
      "##gue": 5550,
      "##isters": 5551,
      "##keep": 5552,
      "button": 5553,
      "##anta": 5554,
      "outcome": 5555,
      "##usive": 5556,
      "actor": 5557,
      "leap": 5558,
      "bull": 5559,
      "ears": 5560,
      "generated": 5561,
      "presence": 5562,
      "tested": 5563,
      "diam": 5564,
      "collaps": 5565,
      "deaths": 5566,
      "limits": 5567,
      "recorded": 5568,
      "causing": 5569,
      "breathe": 5570,
      "assume": 5571,
      "methods": 5572,
      "efficiency": 5573,
      "tribe": 5574,
      "latest": 5575,
      "diagnosed": 5576,
      "customers": 5577,
      "fingers": 5578,
      "academic": 5579,
      "conservation": 5580,
      "disorder": 5581,
      "recyc": 5582,
      "phrase": 5583,
      "nurses": 5584,
      "furniture": 5585,
      "36": 5586,
      "pour": 5587,
      "papers": 5588,
      "tent": 5589,
      "##nes": 5590,
      "##ae": 5591,
      "##zheimer": 5592,
      "toy": 5593,
      "##esh": 5594,
      "##iters": 5595,
      "likes": 5596,
      "##umps": 5597,
      "alzheimer": 5598,
      "##agram": 5599,
      "agencies": 5600,
      "clothes": 5601,
      "bran": 5602,
      "download": 5603,
      "surf": 5604,
      "criminal": 5605,
      "colum": 5606,
      "afterno": 5607,
      "olds": 5608,
      "bias": 5609,
      "visible": 5610,
      "curios": 5611,
      "continued": 5612,
      "depth": 5613,
      "embedd": 5614,
      "volume": 5615,
      "##going": 5616,
      "struck": 5617,
      "translate": 5618,
      "apartment": 5619,
      "fascinated": 5620,
      "teenagers": 5621,
      "strangers": 5622,
      "rebuild": 5623,
      "antibiotics": 5624,
      "bat": 5625,
      "fan": 5626,
      "od": 5627,
      "peter": 5628,
      "rw": 5629,
      "ub": 5630,
      "wings": 5631,
      "yield": 5632,
      "##ua": 5633,
      "##yal": 5634,
      "##da": 5635,
      "##van": 5636,
      "##child": 5637,
      "##tery": 5638,
      "neut": 5639,
      "mail": 5640,
      "##rous": 5641,
      "clay": 5642,
      "cock": 5643,
      "pharm": 5644,
      "##icted": 5645,
      "smoke": 5646,
      "crash": 5647,
      "193": 5648,
      "passen": 5649,
      "hearts": 5650,
      "virg": 5651,
      "trend": 5652,
      "speaker": 5653,
      "absor": 5654,
      "interactions": 5655,
      "sensors": 5656,
      "performing": 5657,
      "chrom": 5658,
      "robotic": 5659,
      "concepts": 5660,
      "evolutionary": 5661,
      "offered": 5662,
      "engagement": 5663,
      "tribes": 5664,
      "angle": 5665,
      "historical": 5666,
      "maintain": 5667,
      "license": 5668,
      "orchest": 5669,
      "refriger": 5670,
      "outcomes": 5671,
      "cards": 5672,
      "eric": 5673,
      "gy": 5674,
      "pion": 5675,
      "##rors": 5676,
      "##lands": 5677,
      "##lock": 5678,
      "##gers": 5679,
      "##cut": 5680,
      "##err": 5681,
      "##ingu": 5682,
      "##ano": 5683,
      "anthrop": 5684,
      "dozen": 5685,
      "champ": 5686,
      "##orest": 5687,
      "##okes": 5688,
      "nowhere": 5689,
      "proof": 5690,
      "tack": 5691,
      "interconnect": 5692,
      "aff": 5693,
      "drives": 5694,
      "technological": 5695,
      "schol": 5696,
      "invite": 5697,
      "imaging": 5698,
      "datab": 5699,
      "elimin": 5700,
      "explos": 5701,
      "functions": 5702,
      "##while": 5703,
      "curve": 5704,
      "amazon": 5705,
      "figures": 5706,
      "cheaper": 5707,
      "assist": 5708,
      "raising": 5709,
      "meetings": 5710,
      "traveled": 5711,
      "feeding": 5712,
      "pupp": 5713,
      "rainforest": 5714,
      "frag": 5715,
      "contribute": 5716,
      "celebrate": 5717,
      "selection": 5718,
      "application": 5719,
      "component": 5720,
      "##frie": 5721,
      "makers": 5722,
      "volunteers": 5723,
      "appreciate": 5724,
      "precisely": 5725,
      "narrow": 5726,
      "stretch": 5727,
      "frozen": 5728,
      "curiosity": 5729,
      "embedded": 5730,
      "pione": 5731,
      "27": 5732,
      "aim": 5733,
      "os": 5734,
      "py": 5735,
      "pink": 5736,
      "tube": 5737,
      "##ras": 5738,
      "##ias": 5739,
      "##iety": 5740,
      "##mates": 5741,
      "##bi": 5742,
      "##bling": 5743,
      "toler": 5744,
      "##arctic": 5745,
      "reference": 5746,
      "quarter": 5747,
      "##opath": 5748,
      "sevent": 5749,
      "ash": 5750,
      "deploy": 5751,
      "load": 5752,
      "##usions": 5753,
      "plenty": 5754,
      "##oston": 5755,
      "worker": 5756,
      "wanting": 5757,
      "clar": 5758,
      "happier": 5759,
      "poorest": 5760,
      "spell": 5761,
      "evening": 5762,
      "guarant": 5763,
      "relate": 5764,
      "recom": 5765,
      "behave": 5766,
      "joe": 5767,
      "elections": 5768,
      "populations": 5769,
      "charity": 5770,
      "2005": 5771,
      "disturb": 5772,
      "standards": 5773,
      "paras": 5774,
      "##cript": 5775,
      "statement": 5776,
      "equation": 5777,
      "antarctic": 5778,
      "funded": 5779,
      "hyper": 5780,
      "practices": 5781,
      "existed": 5782,
      "touched": 5783,
      "transparen": 5784,
      "receive": 5785,
      "higgs": 5786,
      "banks": 5787,
      "distributed": 5788,
      "##iveness": 5789,
      "seeds": 5790,
      "angeles": 5791,
      "commitment": 5792,
      "ingredients": 5793,
      "fossil": 5794,
      "afternoon": 5795,
      "chromos": 5796,
      "transparency": 5797,
      "boston": 5798,
      "hans": 5799,
      "pump": 5800,
      "vert": 5801,
      "##fish": 5802,
      "##uity": 5803,
      "##aci": 5804,
      "##bits": 5805,
      "toxic": 5806,
      "##orus": 5807,
      "##icago": 5808,
      "##think": 5809,
      "aband": 5810,
      "chicago": 5811,
      "france": 5812,
      "trillion": 5813,
      "##inder": 5814,
      "willi": 5815,
      "needle": 5816,
      "phosph": 5817,
      "##ologically": 5818,
      "granted": 5819,
      "score": 5820,
      "flood": 5821,
      "instant": 5822,
      "minor": 5823,
      "extinct": 5824,
      "attrib": 5825,
      "subs": 5826,
      "##box": 5827,
      "##aneously": 5828,
      "expectations": 5829,
      "limb": 5830,
      "combined": 5831,
      "250": 5832,
      "concert": 5833,
      "achieved": 5834,
      "captured": 5835,
      "budd": 5836,
      "fixed": 5837,
      "linked": 5838,
      "arabic": 5839,
      "occurred": 5840,
      "dramatically": 5841,
      "surgeon": 5842,
      "exploration": 5843,
      "split": 5844,
      "hungry": 5845,
      "chaos": 5846,
      "inequality": 5847,
      "piano": 5848,
      "26": 5849,
      "95": 5850,
      "bay": 5851,
      "gon": 5852,
      "hen": 5853,
      "lake": 5854,
      "##over": 5855,
      "##oft": 5856,
      "##nic": 5857,
      "##aves": 5858,
      "##wich": 5859,
      "##inction": 5860,
      "##oster": 5861,
      "##rel": 5862,
      "##ota": 5863,
      "##lets": 5864,
      "beer": 5865,
      "stack": 5866,
      "##iday": 5867,
      "ate": 5868,
      "##aus": 5869,
      "mac": 5870,
      "spr": 5871,
      "enemy": 5872,
      "##emen": 5873,
      "coach": 5874,
      "herself": 5875,
      "boom": 5876,
      "##athan": 5877,
      "genius": 5878,
      "flies": 5879,
      "remains": 5880,
      "engaging": 5881,
      "extent": 5882,
      "native": 5883,
      "foods": 5884,
      "proto": 5885,
      "protest": 5886,
      "robust": 5887,
      "rooms": 5888,
      "advoc": 5889,
      "successfully": 5890,
      "craft": 5891,
      "increases": 5892,
      "anticip": 5893,
      "accessible": 5894,
      "silic": 5895,
      "silent": 5896,
      "privacy": 5897,
      "crying": 5898,
      "optimistic": 5899,
      "copyright": 5900,
      "neuroscience": 5901,
      "destroyed": 5902,
      "unclear": 5903,
      "fortunately": 5904,
      "mosquito": 5905,
      "apparently": 5906,
      "bicycle": 5907,
      "bol": 5908,
      "cab": 5909,
      "jim": 5910,
      "kiss": 5911,
      "ow": 5912,
      "ooh": 5913,
      "olym": 5914,
      "tes": 5915,
      "till": 5916,
      "tight": 5917,
      "wol": 5918,
      "wired": 5919,
      "zoom": 5920,
      "##time": 5921,
      "##yard": 5922,
      "tony": 5923,
      "##itors": 5924,
      "weigh": 5925,
      "##stage": 5926,
      "stations": 5927,
      "##opard": 5928,
      "ants": 5929,
      "abund": 5930,
      "myster": 5931,
      "orange": 5932,
      "seek": 5933,
      "intent": 5934,
      "fool": 5935,
      "##bert": 5936,
      "##aks": 5937,
      "decline": 5938,
      "guard": 5939,
      "removed": 5940,
      "##ubes": 5941,
      "oldest": 5942,
      "imagined": 5943,
      "monkey": 5944,
      "stri": 5945,
      "economist": 5946,
      "farmer": 5947,
      "respo": 5948,
      "charl": 5949,
      "connecting": 5950,
      "musicians": 5951,
      "##otech": 5952,
      "cheese": 5953,
      "drag": 5954,
      "household": 5955,
      "rising": 5956,
      "provided": 5957,
      "viet": 5958,
      "erad": 5959,
      "villages": 5960,
      "amongst": 5961,
      "ignore": 5962,
      "clinic": 5963,
      "appears": 5964,
      "talent": 5965,
      "injury": 5966,
      "instruments": 5967,
      "finger": 5968,
      "inspiring": 5969,
      "aspects": 5970,
      "hemis": 5971,
      "anonymous": 5972,
      "obstac": 5973,
      "award": 5974,
      "bible": 5975,
      "cats": 5976,
      "gand": 5977,
      "icon": 5978,
      "mri": 5979,
      "pace": 5980,
      "##ek": 5981,
      "##hen": 5982,
      "##cence": 5983,
      "##case": 5984,
      "##aurs": 5985,
      "##bing": 5986,
      "##eness": 5987,
      "anger": 5988,
      "##ille": 5989,
      "excell": 5990,
      "peer": 5991,
      "tries": 5992,
      "spinal": 5993,
      "##ogen": 5994,
      "evolve": 5995,
      "sheet": 5996,
      "coin": 5997,
      "##iac": 5998,
      "##phones": 5999,
      "##onscious": 6000,
      "glad": 6001,
      "powered": 6002,
      "lovely": 6003,
      "exploring": 6004,
      "secondly": 6005,
      "biom": 6006,
      "##hips": 6007,
      "morality": 6008,
      "agenda": 6009,
      "classical": 6010,
      "nonp": 6011,
      "recording": 6012,
      "extrem": 6013,
      "descript": 6014,
      "consume": 6015,
      "depending": 6016,
      "rocket": 6017,
      "sandwich": 6018,
      "divided": 6019,
      "reported": 6020,
      "delivered": 6021,
      "surprisingly": 6022,
      "savings": 6023,
      "hackers": 6024,
      "unlikely": 6025,
      "tower": 6026,
      "scenar": 6027,
      "elephant": 6028,
      "laser": 6029,
      "comprom": 6030,
      "cas": 6031,
      "fet": 6032,
      "jes": 6033,
      "rose": 6034,
      "sed": 6035,
      "veter": 6036,
      "##osen": 6037,
      "##oran": 6038,
      "rely": 6039,
      "chief": 6040,
      "chosen": 6041,
      "external": 6042,
      "orient": 6043,
      "congo": 6044,
      "enh": 6045,
      "clip": 6046,
      "##roke": 6047,
      "underground": 6048,
      "scary": 6049,
      "flip": 6050,
      "carr": 6051,
      "colony": 6052,
      "guide": 6053,
      "instantly": 6054,
      "grace": 6055,
      "##airs": 6056,
      "corn": 6057,
      "accum": 6058,
      "presented": 6059,
      "researcher": 6060,
      "paraly": 6061,
      "properly": 6062,
      "speakers": 6063,
      "missed": 6064,
      "winning": 6065,
      "consumers": 6066,
      "intrig": 6067,
      "origami": 6068,
      "females": 6069,
      "describes": 6070,
      "conclud": 6071,
      "functional": 6072,
      "breathing": 6073,
      "floating": 6074,
      "cartoons": 6075,
      "printed": 6076,
      "participants": 6077,
      "debt": 6078,
      "suspe": 6079,
      "efforts": 6080,
      "paintings": 6081,
      "demonstrate": 6082,
      "beliefs": 6083,
      "title": 6084,
      "reveal": 6085,
      "muslims": 6086,
      "appeared": 6087,
      "recovery": 6088,
      "corporate": 6089,
      "astronom": 6090,
      "agreed": 6091,
      "rescue": 6092,
      "anxiety": 6093,
      "adjust": 6094,
      "gabby": 6095,
      "suicide": 6096,
      "bos": 6097,
      "bones": 6098,
      "cens": 6099,
      "dust": 6100,
      "fathers": 6101,
      "sar": 6102,
      "wra": 6103,
      "##mon": 6104,
      "##maker": 6105,
      "##vin": 6106,
      "##vas": 6107,
      "##ino": 6108,
      "##alian": 6109,
      "youth": 6110,
      "##ica": 6111,
      "##struct": 6112,
      "quad": 6113,
      "##ida": 6114,
      "chest": 6115,
      "delic": 6116,
      "orbit": 6117,
      "outs": 6118,
      "sphere": 6119,
      "##uses": 6120,
      "placed": 6121,
      "yours": 6122,
      "unh": 6123,
      "perm": 6124,
      "arctic": 6125,
      "contains": 6126,
      "letting": 6127,
      "flour": 6128,
      "drill": 6129,
      "finds": 6130,
      "##aze": 6131,
      "failing": 6132,
      "sensory": 6133,
      "falls": 6134,
      "football": 6135,
      "represented": 6136,
      "measured": 6137,
      "combat": 6138,
      "fluid": 6139,
      "searching": 6140,
      "administ": 6141,
      "thrown": 6142,
      "fortune": 6143,
      "utter": 6144,
      "algorithm": 6145,
      "cooperation": 6146,
      "microscope": 6147,
      "shifting": 6148,
      "sculpture": 6149,
      "satisf": 6150,
      "dinosaurs": 6151,
      "rwanda": 6152,
      "silicon": 6153,
      "nonprof": 6154,
      "administr": 6155,
      "65": 6156,
      "800": 6157,
      "cake": 6158,
      "dung": 6159,
      "density": 6160,
      "lens": 6161,
      "nets": 6162,
      "pound": 6163,
      "ram": 6164,
      "ts": 6165,
      "##ooth": 6166,
      "##well": 6167,
      "ink": 6168,
      "stun": 6169,
      "aside": 6170,
      "chimp": 6171,
      "##illy": 6172,
      "##ulse": 6173,
      "loves": 6174,
      "alco": 6175,
      "plain": 6176,
      "suck": 6177,
      "units": 6178,
      "amy": 6179,
      "arist": 6180,
      "coord": 6181,
      "reson": 6182,
      "##ptions": 6183,
      "bless": 6184,
      "committed": 6185,
      "##akers": 6186,
      "county": 6187,
      "drone": 6188,
      "drones": 6189,
      "decre": 6190,
      "ending": 6191,
      "glaci": 6192,
      "imagery": 6193,
      "slides": 6194,
      "grows": 6195,
      "organize": 6196,
      "musician": 6197,
      "distant": 6198,
      "##iox": 6199,
      "restore": 6200,
      "trends": 6201,
      "delight": 6202,
      "grandp": 6203,
      "protecting": 6204,
      "friendly": 6205,
      "essence": 6206,
      "presentation": 6207,
      "architects": 6208,
      "balloon": 6209,
      "improvement": 6210,
      "miser": 6211,
      "sticks": 6212,
      "returned": 6213,
      "struggling": 6214,
      "halluc": 6215,
      "hello": 6216,
      "baseball": 6217,
      "logic": 6218,
      "##ecd": 6219,
      "paradigm": 6220,
      "##iminals": 6221,
      "boundaries": 6222,
      "federal": 6223,
      "senior": 6224,
      "adopt": 6225,
      "explanation": 6226,
      "comedy": 6227,
      "alcohol": 6228,
      "cash": 6229,
      "dign": 6230,
      "fusion": 6231,
      "fishing": 6232,
      "jaw": 6233,
      "jazz": 6234,
      "lou": 6235,
      "sales": 6236,
      "tied": 6237,
      "tatt": 6238,
      "tears": 6239,
      "vital": 6240,
      "##eon": 6241,
      "##ding": 6242,
      "bears": 6243,
      "##sey": 6244,
      "stroke": 6245,
      "##ulum": 6246,
      "##ckets": 6247,
      "##umin": 6248,
      "trash": 6249,
      "spark": 6250,
      "features": 6251,
      "##ache": 6252,
      "flor": 6253,
      "##angible": 6254,
      "afterwards": 6255,
      "schiz": 6256,
      "involves": 6257,
      "personality": 6258,
      "lighting": 6259,
      "capita": 6260,
      "##inson": 6261,
      "proper": 6262,
      "expectancy": 6263,
      "interacting": 6264,
      "silver": 6265,
      "recognition": 6266,
      "policies": 6267,
      "tasks": 6268,
      "mathematic": 6269,
      "palm": 6270,
      "separated": 6271,
      "affordable": 6272,
      "synthes": 6273,
      "prepare": 6274,
      "flew": 6275,
      "resistant": 6276,
      "shocking": 6277,
      "neighborhoods": 6278,
      "motivation": 6279,
      "electronic": 6280,
      "##flies": 6281,
      "vessels": 6282,
      "ridiculous": 6283,
      "richer": 6284,
      "permanent": 6285,
      "33": 6286,
      "aes": 6287,
      "bob": 6288,
      "boss": 6289,
      "dur": 6290,
      "fib": 6291,
      "fulf": 6292,
      "jam": 6293,
      "lone": 6294,
      "mice": 6295,
      "om": 6296,
      "rio": 6297,
      "tu": 6298,
      "tank": 6299,
      "wing": 6300,
      "wip": 6301,
      "wound": 6302,
      "##bur": 6303,
      "##isons": 6304,
      "##itory": 6305,
      "##omp": 6306,
      "##uting": 6307,
      "##stand": 6308,
      "stable": 6309,
      "stages": 6310,
      "chop": 6311,
      "lob": 6312,
      "usual": 6313,
      "tri": 6314,
      "spider": 6315,
      "unbel": 6316,
      "##agger": 6317,
      "aggress": 6318,
      "firm": 6319,
      "overcome": 6320,
      "carried": 6321,
      "crops": 6322,
      "##tended": 6323,
      "creature": 6324,
      "produces": 6325,
      "meter": 6326,
      "explo": 6327,
      "corres": 6328,
      "2004": 6329,
      "interestingly": 6330,
      "diabet": 6331,
      "sleeping": 6332,
      "recognized": 6333,
      "textbook": 6334,
      "activist": 6335,
      "emergency": 6336,
      "characteristics": 6337,
      "cryst": 6338,
      "depressed": 6339,
      "automatically": 6340,
      "controlling": 6341,
      "physicist": 6342,
      "crucial": 6343,
      "agricultural": 6344,
      "locked": 6345,
      "ugly": 6346,
      "attached": 6347,
      "autonom": 6348,
      "pacific": 6349,
      "resilience": 6350,
      "saharan": 6351,
      "stereoty": 6352,
      "uncomfort": 6353,
      "virgin": 6354,
      "##friend": 6355,
      "protocell": 6356,
      "schizoph": 6357,
      "70s": 6358,
      "80s": 6359,
      "cig": 6360,
      "dough": 6361,
      "diox": 6362,
      "june": 6363,
      "pizz": 6364,
      "##rian": 6365,
      "##iance": 6366,
      "##nels": 6367,
      "##uel": 6368,
      "##mble": 6369,
      "##organ": 6370,
      "beij": 6371,
      "rehab": 6372,
      "##iders": 6373,
      "##iment": 6374,
      "abuse": 6375,
      "##adays": 6376,
      "atom": 6377,
      "nowadays": 6378,
      "##ifice": 6379,
      "##iform": 6380,
      "##using": 6381,
      "plot": 6382,
      "intention": 6383,
      "bug": 6384,
      "disrupt": 6385,
      "bron": 6386,
      "opens": 6387,
      "mining": 6388,
      "muscles": 6389,
      "2003": 6390,
      "2006": 6391,
      "photographer": 6392,
      "parli": 6393,
      "productivity": 6394,
      "secure": 6395,
      "soup": 6396,
      "continues": 6397,
      "##bridge": 6398,
      "holds": 6399,
      "escape": 6400,
      "explaining": 6401,
      "improved": 6402,
      "psychological": 6403,
      "psychiat": 6404,
      "impacts": 6405,
      "directions": 6406,
      "entered": 6407,
      "ultra": 6408,
      "strategies": 6409,
      "calculate": 6410,
      "philosopher": 6411,
      "liberal": 6412,
      "wireless": 6413,
      "shopping": 6414,
      "electronics": 6415,
      "dependent": 6416,
      "dominant": 6417,
      "diverse": 6418,
      "renew": 6419,
      "lawyers": 6420,
      "lux": 6421,
      "queen": 6422,
      "ensure": 6423,
      "barely": 6424,
      "dolphins": 6425,
      "##capes": 6426,
      "nutrition": 6427,
      "paralle": 6428,
      "uncertainty": 6429,
      "pyram": 6430,
      "phosphorus": 6431,
      "diabetes": 6432,
      "uncomfortable": 6433,
      "dioxide": 6434,
      "ain": 6435,
      "dive": 6436,
      "jih": 6437,
      "powers": 6438,
      "tired": 6439,
      "##life": 6440,
      "##eared": 6441,
      "##hop": 6442,
      "##ket": 6443,
      "##bru": 6444,
      "##atar": 6445,
      "inh": 6446,
      "inch": 6447,
      "anes": 6448,
      "prices": 6449,
      "neural": 6450,
      "meal": 6451,
      "trop": 6452,
      "output": 6453,
      "enable": 6454,
      "howard": 6455,
      "##astics": 6456,
      "##ague": 6457,
      "shoulder": 6458,
      "obl": 6459,
      "trag": 6460,
      "served": 6461,
      "hardly": 6462,
      "entrop": 6463,
      "openness": 6464,
      "visited": 6465,
      "subtle": 6466,
      "accidents": 6467,
      "marath": 6468,
      "tedx": 6469,
      "curric": 6470,
      "adding": 6471,
      "educated": 6472,
      "painted": 6473,
      "controls": 6474,
      "filter": 6475,
      "equality": 6476,
      "provides": 6477,
      "sensor": 6478,
      "identified": 6479,
      "legis": 6480,
      "operations": 6481,
      "yorker": 6482,
      "staying": 6483,
      "##archy": 6484,
      "purch": 6485,
      "estimate": 6486,
      "promot": 6487,
      "predictions": 6488,
      "lifes": 6489,
      "crossing": 6490,
      "virtually": 6491,
      "homeless": 6492,
      "disappoint": 6493,
      "synthetic": 6494,
      "chairs": 6495,
      "mixed": 6496,
      "drinking": 6497,
      "rarely": 6498,
      "repeat": 6499,
      "repeated": 6500,
      "quantum": 6501,
      "texting": 6502,
      "stanford": 6503,
      "gonna": 6504,
      "henry": 6505,
      "unbeliev": 6506,
      "28": 6507,
      "gif": 6508,
      "hier": 6509,
      "sco": 6510,
      "wid": 6511,
      "wand": 6512,
      "##rix": 6513,
      "##fast": 6514,
      "##col": 6515,
      "render": 6516,
      "reef": 6517,
      "dear": 6518,
      "enth": 6519,
      "cla": 6520,
      "arth": 6521,
      "fox": 6522,
      "mayor": 6523,
      "persu": 6524,
      "drivers": 6525,
      "helic": 6526,
      "traged": 6527,
      "globally": 6528,
      "governance": 6529,
      "confident": 6530,
      "stops": 6531,
      "labs": 6532,
      "killer": 6533,
      "geographic": 6534,
      "views": 6535,
      "tempt": 6536,
      "psychopath": 6537,
      "supermark": 6538,
      "statist": 6539,
      "burst": 6540,
      "ceiling": 6541,
      "laid": 6542,
      "wheat": 6543,
      "citizen": 6544,
      "translation": 6545,
      "assumptions": 6546,
      "colleague": 6547,
      "demonstration": 6548,
      "tricks": 6549,
      "paradox": 6550,
      "vegetables": 6551,
      "elderly": 6552,
      "lecture": 6553,
      "korea": 6554,
      "therm": 6555,
      "trigger": 6556,
      "schizophren": 6557,
      "parliament": 6558,
      "jihad": 6559,
      "32": 6560,
      "700": 6561,
      "dow": 6562,
      "eve": 6563,
      "hitting": 6564,
      "nom": 6565,
      "nick": 6566,
      "pand": 6567,
      "rang": 6568,
      "rays": 6569,
      "session": 6570,
      "yemen": 6571,
      "##lies": 6572,
      "##lings": 6573,
      "##gi": 6574,
      "##bage": 6575,
      "##wr": 6576,
      "thumb": 6577,
      "##era": 6578,
      "##orous": 6579,
      "##itous": 6580,
      "##arters": 6581,
      "##ometer": 6582,
      "##vey": 6583,
      "##ette": 6584,
      "sel": 6585,
      "butt": 6586,
      "##ifer": 6587,
      "outer": 6588,
      "##aint": 6589,
      "plastics": 6590,
      "exposed": 6591,
      "closing": 6592,
      "dism": 6593,
      "##iban": 6594,
      "brian": 6595,
      "emph": 6596,
      "scott": 6597,
      "offs": 6598,
      "persist": 6599,
      "monitor": 6600,
      "sket": 6601,
      "cambridge": 6602,
      "globalization": 6603,
      "diagram": 6604,
      "assets": 6605,
      "drawn": 6606,
      "innocent": 6607,
      "nonvi": 6608,
      "strongly": 6609,
      "darkness": 6610,
      "suggesting": 6611,
      "immun": 6612,
      "tasman": 6613,
      "detailed": 6614,
      "stores": 6615,
      "collaborative": 6616,
      "victim": 6617,
      "disappeared": 6618,
      "prosthetic": 6619,
      "spectac": 6620,
      "laughing": 6621,
      "simplicity": 6622,
      "gathering": 6623,
      "academy": 6624,
      "insights": 6625,
      "neuroscient": 6626,
      "trucks": 6627,
      "ghana": 6628,
      "nurse": 6629,
      "reduced": 6630,
      "sacrifice": 6631,
      "assembly": 6632,
      "inevitable": 6633,
      "instructions": 6634,
      "antarctica": 6635,
      "grandparent": 6636,
      "pizza": 6637,
      "helicop": 6638,
      "nonviol": 6639,
      "bin": 6640,
      "borrow": 6641,
      "duck": 6642,
      "drove": 6643,
      "gang": 6644,
      "hub": 6645,
      "lions": 6646,
      "picking": 6647,
      "rod": 6648,
      "rats": 6649,
      "sits": 6650,
      "##ixt": 6651,
      "##uum": 6652,
      "##under": 6653,
      "##kward": 6654,
      "##di": 6655,
      "##bl": 6656,
      "##war": 6657,
      "##ndr": 6658,
      "##osal": 6659,
      "##osure": 6660,
      "##oning": 6661,
      "##onia": 6662,
      "##anthrop": 6663,
      "##ora": 6664,
      "##itud": 6665,
      "onstage": 6666,
      "stab": 6667,
      "ford": 6668,
      "doors": 6669,
      "neat": 6670,
      "compelling": 6671,
      "lee": 6672,
      "lean": 6673,
      "leather": 6674,
      "febru": 6675,
      "parties": 6676,
      "poly": 6677,
      "underlying": 6678,
      "grat": 6679,
      "scores": 6680,
      "roots": 6681,
      "smooth": 6682,
      "schem": 6683,
      "sciences": 6684,
      "relax": 6685,
      "founded": 6686,
      "healthier": 6687,
      "skull": 6688,
      "probability": 6689,
      "redef": 6690,
      "settle": 6691,
      "begun": 6692,
      "curren": 6693,
      "##ontal": 6694,
      "elsewhere": 6695,
      "magical": 6696,
      "secrets": 6697,
      "awkward": 6698,
      "120": 6699,
      "sentences": 6700,
      "robotics": 6701,
      "fastest": 6702,
      "spreads": 6703,
      "facility": 6704,
      "telephone": 6705,
      "affects": 6706,
      "judgment": 6707,
      "graphic": 6708,
      "reduction": 6709,
      "pushed": 6710,
      "influenced": 6711,
      "christian": 6712,
      "links": 6713,
      "2011": 6714,
      "israeli": 6715,
      "optimism": 6716,
      "scanner": 6717,
      "habitat": 6718,
      "frequency": 6719,
      "odds": 6720,
      "category": 6721,
      "dialogue": 6722,
      "sauce": 6723,
      "frustrated": 6724,
      "initial": 6725,
      "professionals": 6726,
      "dedicated": 6727,
      "ownership": 6728,
      "fertil": 6729,
      "passenger": 6730,
      "chimpanz": 6731,
      "dignity": 6732,
      "parallel": 6733,
      "entropy": 6734,
      "february": 6735,
      "bure": 6736,
      "cute": 6737,
      "dys": 6738,
      "dump": 6739,
      "dirty": 6740,
      "gear": 6741,
      "hut": 6742,
      "jose": 6743,
      "lun": 6744,
      "naked": 6745,
      "silly": 6746,
      "wedd": 6747,
      "##tes": 6748,
      "##kind": 6749,
      "##kins": 6750,
      "##ye": 6751,
      "##jo": 6752,
      "##inated": 6753,
      "toys": 6754,
      "##ication": 6755,
      "##through": 6756,
      "##raction": 6757,
      "##allow": 6758,
      "intend": 6759,
      "sunday": 6760,
      "##ares": 6761,
      "chances": 6762,
      "indo": 6763,
      "scream": 6764,
      "smiling": 6765,
      "drum": 6766,
      "consult": 6767,
      "highlight": 6768,
      "muscle": 6769,
      "serving": 6770,
      "recru": 6771,
      "attitude": 6772,
      "joint": 6773,
      "subt": 6774,
      "organism": 6775,
      "marine": 6776,
      "poster": 6777,
      "assess": 6778,
      "programm": 6779,
      "programming": 6780,
      "viewer": 6781,
      "focusing": 6782,
      "steal": 6783,
      "grandchild": 6784,
      "improving": 6785,
      "legit": 6786,
      "legacy": 6787,
      "eaten": 6788,
      "supported": 6789,
      "breakthrough": 6790,
      "photographed": 6791,
      "irre": 6792,
      "footage": 6793,
      "request": 6794,
      "philanthrop": 6795,
      "industries": 6796,
      "suggested": 6797,
      "arrive": 6798,
      "bedroom": 6799,
      "soldier": 6800,
      "delivery": 6801,
      "luckily": 6802,
      "packed": 6803,
      "ethical": 6804,
      "hunting": 6805,
      "##fficient": 6806,
      "determined": 6807,
      "physician": 6808,
      "1970s": 6809,
      "microsoft": 6810,
      "route": 6811,
      "refugees": 6812,
      "nurt": 6813,
      "reducing": 6814,
      "oxford": 6815,
      "colonies": 6816,
      "genetically": 6817,
      "forgotten": 6818,
      "revenue": 6819,
      "privilege": 6820,
      "prosperity": 6821,
      "retirement": 6822,
      "ubiqu": 6823,
      "suspended": 6824,
      "cigaret": 6825,
      "curriculum": 6826,
      "cree": 6827,
      "dies": 6828,
      "ib": 6829,
      "koran": 6830,
      "sink": 6831,
      "tan": 6832,
      "wider": 6833,
      "##ris": 6834,
      "##uce": 6835,
      "##ups": 6836,
      "##hm": 6837,
      "##ault": 6838,
      "##bar": 6839,
      "##erge": 6840,
      "##rect": 6841,
      "##onic": 6842,
      "##onge": 6843,
      "##arre": 6844,
      "recess": 6845,
      "recept": 6846,
      "ongoing": 6847,
      "anat": 6848,
      "doz": 6849,
      "##aming": 6850,
      "##thet": 6851,
      "conven": 6852,
      "convert": 6853,
      "##umes": 6854,
      "sac": 6855,
      "unem": 6856,
      "agent": 6857,
      "clients": 6858,
      "backwards": 6859,
      "brut": 6860,
      "blo": 6861,
      "smarter": 6862,
      "incident": 6863,
      "warning": 6864,
      "formula": 6865,
      "passing": 6866,
      "distract": 6867,
      "choosing": 6868,
      "##crib": 6869,
      "##riers": 6870,
      "experimental": 6871,
      "universities": 6872,
      "investors": 6873,
      "fires": 6874,
      "keyboard": 6875,
      "includes": 6876,
      "specialized": 6877,
      "burden": 6878,
      "expressions": 6879,
      "pulling": 6880,
      "enterpr": 6881,
      "targets": 6882,
      "transparent": 6883,
      "layers": 6884,
      "translated": 6885,
      "domestic": 6886,
      "accepted": 6887,
      "concern": 6888,
      "taliban": 6889,
      "integrated": 6890,
      "conservative": 6891,
      "russian": 6892,
      "additional": 6893,
      "restaurants": 6894,
      "shelf": 6895,
      "shooting": 6896,
      "matrix": 6897,
      "categories": 6898,
      "originally": 6899,
      "##copes": 6900,
      "perceive": 6901,
      "refugee": 6902,
      "adventure": 6903,
      "microbes": 6904,
      "portrait": 6905,
      "ancestors": 6906,
      "infinite": 6907,
      "sharp": 6908,
      "hypothesis": 6909,
      "maxim": 6910,
      "autonomous": 6911,
      "grandparents": 6912,
      "ak": 6913,
      "aer": 6914,
      "bars": 6915,
      "batt": 6916,
      "dop": 6917,
      "dressed": 6918,
      "hire": 6919,
      "josh": 6920,
      "kar": 6921,
      "nord": 6922,
      "nerve": 6923,
      "pause": 6924,
      "rab": 6925,
      "rice": 6926,
      "tubes": 6927,
      "##list": 6928,
      "##night": 6929,
      "##greg": 6930,
      "##ses": 6931,
      "##xual": 6932,
      "##eroid": 6933,
      "##reh": 6934,
      "##asy": 6935,
      "##asters": 6936,
      "rethink": 6937,
      "##cel": 6938,
      "##imag": 6939,
      "abra": 6940,
      "cham": 6941,
      "##illa": 6942,
      "ours": 6943,
      "spots": 6944,
      "##unction": 6945,
      "enables": 6946,
      "upload": 6947,
      "sup": 6948,
      "##emics": 6949,
      "precious": 6950,
      "pretend": 6951,
      "armed": 6952,
      "##obi": 6953,
      "disag": 6954,
      "poison": 6955,
      "commod": 6956,
      "writers": 6957,
      "remained": 6958,
      "owned": 6959,
      "earn": 6960,
      "insane": 6961,
      "helpful": 6962,
      "fuels": 6963,
      "traits": 6964,
      "publ": 6965,
      "headlines": 6966,
      "confused": 6967,
      "answered": 6968,
      "located": 6969,
      "trains": 6970,
      "harness": 6971,
      "millenn": 6972,
      "neuron": 6973,
      "objective": 6974,
      "barr": 6975,
      "breakfast": 6976,
      "inspire": 6977,
      "peaceful": 6978,
      "circuits": 6979,
      "promote": 6980,
      "mobility": 6981,
      "damn": 6982,
      "panel": 6983,
      "representation": 6984,
      "immediate": 6985,
      "infection": 6986,
      "suspect": 6987,
      "documents": 6988,
      "salt": 6989,
      "catast": 6990,
      "magnetic": 6991,
      "reminded": 6992,
      "independence": 6993,
      "penguin": 6994,
      "attractive": 6995,
      "garage": 6996,
      "terrorism": 6997,
      "disorders": 6998,
      "implant": 6999,
      "lawyer": 7000,
      "negoti": 7001,
      "miracle": 7002,
      "skept": 7003,
      "december": 7004,
      "items": 7005,
      "spanish": 7006,
      "wolf": 7007,
      "aristot": 7008,
      "miserable": 7009,
      "beijing": 7010,
      "##itudes": 7011,
      "grandchildren": 7012,
      "unemploy": 7013,
      "biz": 7014,
      "fg": 7015,
      "fer": 7016,
      "fought": 7017,
      "gig": 7018,
      "mate": 7019,
      "nu": 7020,
      "nit": 7021,
      "sque": 7022,
      "sisters": 7023,
      "tip": 7024,
      "vit": 7025,
      "yo": 7026,
      "##rics": 7027,
      "##pal": 7028,
      "##pass": 7029,
      "##bia": 7030,
      "##eda": 7031,
      "##itate": 7032,
      "##asm": 7033,
      "wet": 7034,
      "##utical": 7035,
      "##keys": 7036,
      "anno": 7037,
      "##thal": 7038,
      "healing": 7039,
      "shine": 7040,
      "shirt": 7041,
      "neander": 7042,
      "chips": 7043,
      "fruit": 7044,
      "tro": 7045,
      "upd": 7046,
      "compos": 7047,
      "managers": 7048,
      "exped": 7049,
      "resolution": 7050,
      "discr": 7051,
      "mood": 7052,
      "gras": 7053,
      "emerge": 7054,
      "incor": 7055,
      "offices": 7056,
      "crop": 7057,
      "involve": 7058,
      "insist": 7059,
      "artwork": 7060,
      "articles": 7061,
      "funds": 7062,
      "engines": 7063,
      "monit": 7064,
      "pointing": 7065,
      "edges": 7066,
      "extension": 7067,
      "biologists": 7068,
      "biotech": 7069,
      "homework": 7070,
      "holly": 7071,
      "woke": 7072,
      "2001": 7073,
      "weeke": 7074,
      "opposed": 7075,
      "remembered": 7076,
      "proposed": 7077,
      "proportion": 7078,
      "figuring": 7079,
      "devil": 7080,
      "audio": 7081,
      "harbor": 7082,
      "##mingly": 7083,
      "difficulty": 7084,
      "eleg": 7085,
      "satur": 7086,
      "facilities": 7087,
      "ceo": 7088,
      "turkey": 7089,
      "medicines": 7090,
      "gradually": 7091,
      "primarily": 7092,
      "suffered": 7093,
      "tissues": 7094,
      "iranian": 7095,
      "diagnosis": 7096,
      "jeff": 7097,
      "tongue": 7098,
      "tunnel": 7099,
      "analyze": 7100,
      "weapon": 7101,
      "hanging": 7102,
      "routine": 7103,
      "substance": 7104,
      "pursuit": 7105,
      "uganda": 7106,
      "unpre": 7107,
      "merely": 7108,
      "procedure": 7109,
      "palestin": 7110,
      "occasionally": 7111,
      "jesus": 7112,
      "paralyzed": 7113,
      "unhapp": 7114,
      "nonprofit": 7115,
      "florida": 7116,
      "bureau": 7117,
      "bizarre": 7118,
      "bust": 7119,
      "cert": 7120,
      "dil": 7121,
      "hob": 7122,
      "kir": 7123,
      "lamp": 7124,
      "ner": 7125,
      "nodes": 7126,
      "punch": 7127,
      "waters": 7128,
      "##fall": 7129,
      "##iences": 7130,
      "##ship": 7131,
      "##ev": 7132,
      "##mm": 7133,
      "##mony": 7134,
      "##down": 7135,
      "##bled": 7136,
      "##val": 7137,
      "##viet": 7138,
      "##ini": 7139,
      "##aland": 7140,
      "##isy": 7141,
      "##itage": 7142,
      "##itating": 7143,
      "whis": 7144,
      "##etown": 7145,
      "soviet": 7146,
      "##stone": 7147,
      "quit": 7148,
      "strain": 7149,
      "stew": 7150,
      "whatso": 7151,
      "##olic": 7152,
      "chim": 7153,
      "chron": 7154,
      "deaf": 7155,
      "actors": 7156,
      "sav": 7157,
      "uniform": 7158,
      "##ardo": 7159,
      "manager": 7160,
      "expans": 7161,
      "##agen": 7162,
      "##aceutical": 7163,
      "firing": 7164,
      "accent": 7165,
      "gotta": 7166,
      "ads": 7167,
      "blame": 7168,
      "syndr": 7169,
      "##phere": 7170,
      "factories": 7171,
      "basket": 7172,
      "insul": 7173,
      "completed": 7174,
      "crew": 7175,
      "recall": 7176,
      "generous": 7177,
      "##cedented": 7178,
      "regime": 7179,
      "preserve": 7180,
      "choir": 7181,
      "##otted": 7182,
      "retina": 7183,
      "engineered": 7184,
      "landed": 7185,
      "opera": 7186,
      "terrifying": 7187,
      "personalized": 7188,
      "drawings": 7189,
      "brook": 7190,
      "index": 7191,
      "daniel": 7192,
      "array": 7193,
      "mechanisms": 7194,
      "leaf": 7195,
      "intervention": 7196,
      "association": 7197,
      "rolling": 7198,
      "straightfor": 7199,
      "heaven": 7200,
      "democrat": 7201,
      "preparing": 7202,
      "broadcast": 7203,
      "wealthy": 7204,
      "bubbles": 7205,
      "voting": 7206,
      "maker": 7207,
      "previously": 7208,
      "blowing": 7209,
      "briefly": 7210,
      "observation": 7211,
      "august": 7212,
      "isolated": 7213,
      "accomplish": 7214,
      "alien": 7215,
      "##keepers": 7216,
      "pharmaceutical": 7217,
      "orchestra": 7218,
      "fragile": 7219,
      "hemisphere": 7220,
      "excellent": 7221,
      "conclude": 7222,
      "rehabil": 7223,
      "emphas": 7224,
      "spectacular": 7225,
      "currency": 7226,
      "dozens": 7227,
      "unprecedented": 7228,
      "whatsoever": 7229,
      "straightforward": 7230,
      "29": 7231,
      "bother": 7232,
      "dv": 7233,
      "gate": 7234,
      "hiding": 7235,
      "junk": 7236,
      "kr": 7237,
      "lit": 7238,
      "lord": 7239,
      "nest": 7240,
      "pad": 7241,
      "tear": 7242,
      "vel": 7243,
      "##rid": 7244,
      "##fly": 7245,
      "##walk": 7246,
      "threw": 7247,
      "tooth": 7248,
      "##ancing": 7249,
      "##orious": 7250,
      "inches": 7251,
      "inhab": 7252,
      "beating": 7253,
      "stability": 7254,
      "dood": 7255,
      "##ola": 7256,
      "shir": 7257,
      "shipping": 7258,
      "meals": 7259,
      "attend": 7260,
      "friday": 7261,
      "extend": 7262,
      "alb": 7263,
      "upset": 7264,
      "plug": 7265,
      "amate": 7266,
      "##abul": 7267,
      "donor": 7268,
      "prec": 7269,
      "twenty": 7270,
      "interrupt": 7271,
      "##ober": 7272,
      "disabled": 7273,
      "##roid": 7274,
      "caring": 7275,
      "remaining": 7276,
      "##ocr": 7277,
      "demo": 7278,
      "register": 7279,
      "caps": 7280,
      "elected": 7281,
      "valid": 7282,
      "headed": 7283,
      "aircraft": 7284,
      "freely": 7285,
      "calories": 7286,
      "norway": 7287,
      "thirds": 7288,
      "delay": 7289,
      "bottles": 7290,
      "arguing": 7291,
      "cyl": 7292,
      "psychologist": 7293,
      "communications": 7294,
      "beneath": 7295,
      "observe": 7296,
      "silk": 7297,
      "responses": 7298,
      "##ascular": 7299,
      "favel": 7300,
      "immigr": 7301,
      "printer": 7302,
      "##ugal": 7303,
      "accounts": 7304,
      "panels": 7305,
      "mindset": 7306,
      "clinics": 7307,
      "glasses": 7308,
      "capitalism": 7309,
      "automob": 7310,
      "honestly": 7311,
      "widely": 7312,
      "fabulous": 7313,
      "garbage": 7314,
      "mammals": 7315,
      "newspapers": 7316,
      "expanding": 7317,
      "intuition": 7318,
      "texas": 7319,
      "genetics": 7320,
      "punish": 7321,
      "hormone": 7322,
      "october": 7323,
      "tweet": 7324,
      "besides": 7325,
      "prostate": 7326,
      "scholars": 7327,
      "william": 7328,
      "cabin": 7329,
      "description": 7330,
      "triang": 7331,
      "marathon": 7332,
      "tragedy": 7333,
      "downt": 7334,
      "ubiquitous": 7335,
      "sacred": 7336,
      "85": 7337,
      "90s": 7338,
      "aqu": 7339,
      "bam": 7340,
      "bored": 7341,
      "dose": 7342,
      "fits": 7343,
      "germ": 7344,
      "hind": 7345,
      "oy": 7346,
      "pir": 7347,
      "pile": 7348,
      "tune": 7349,
      "##py": 7350,
      "##wind": 7351,
      "theore": 7352,
      "##inarily": 7353,
      "##oust": 7354,
      "##icial": 7355,
      "habits": 7356,
      "##idential": 7357,
      "##opia": 7358,
      "prisons": 7359,
      "##oded": 7360,
      "##raph": 7361,
      "degrad": 7362,
      "conce": 7363,
      "mapping": 7364,
      "spa": 7365,
      "seeking": 7366,
      "intim": 7367,
      "intensive": 7368,
      "leban": 7369,
      "tag": 7370,
      "percept": 7371,
      "##agon": 7372,
      "arrow": 7373,
      "coch": 7374,
      "coke": 7375,
      "partly": 7376,
      "acid": 7377,
      "realizing": 7378,
      "##icks": 7379,
      "smoking": 7380,
      "flaw": 7381,
      "crows": 7382,
      "simult": 7383,
      "transcend": 7384,
      "believes": 7385,
      "strip": 7386,
      "slums": 7387,
      "191": 7388,
      "recl": 7389,
      "terrain": 7390,
      "elite": 7391,
      "hardware": 7392,
      "contrary": 7393,
      "charming": 7394,
      "sett": 7395,
      "gee": 7396,
      "##rients": 7397,
      "excit": 7398,
      "speaks": 7399,
      "deliber": 7400,
      "brave": 7401,
      "lego": 7402,
      "cyrus": 7403,
      "performed": 7404,
      "supporting": 7405,
      "nearby": 7406,
      "smartphone": 7407,
      "empire": 7408,
      "dawn": 7409,
      "predicted": 7410,
      "ultras": 7411,
      "panc": 7412,
      "emerged": 7413,
      "captain": 7414,
      "threatened": 7415,
      "prisoners": 7416,
      "ethnic": 7417,
      "ignored": 7418,
      "unconscious": 7419,
      "despair": 7420,
      "officer": 7421,
      "reminds": 7422,
      "profoundly": 7423,
      "ambig": 7424,
      "puzzles": 7425,
      "shelter": 7426,
      "ecosystems": 7427,
      "illustrate": 7428,
      "stimul": 7429,
      "ticket": 7430,
      "mosquitos": 7431,
      "qualities": 7432,
      "bathroom": 7433,
      "mandela": 7434,
      "candidate": 7435,
      "discipline": 7436,
      "council": 7437,
      "announced": 7438,
      "comparison": 7439,
      "flexible": 7440,
      "athletes": 7441,
      "collapsed": 7442,
      "database": 7443,
      "vertical": 7444,
      "charlie": 7445,
      "vietnam": 7446,
      "scenario": 7447,
      "claims": 7448,
      "stewart": 7449,
      "syndrome": 7450,
      "insulin": 7451,
      "31": 7452,
      "60s": 7453,
      "gorge": 7454,
      "jet": 7455,
      "wrest": 7456,
      "##ria": 7457,
      "##field": 7458,
      "##han": 7459,
      "##hal": 7460,
      "##bul": 7461,
      "##ville": 7462,
      "thyl": 7463,
      "##ata": 7464,
      "##ounder": 7465,
      "tone": 7466,
      "##eday": 7467,
      "##leton": 7468,
      "##uther": 7469,
      "##sec": 7470,
      "##ctu": 7471,
      "##idi": 7472,
      "##igation": 7473,
      "forb": 7474,
      "##irm": 7475,
      "##olit": 7476,
      "seal": 7477,
      "butter": 7478,
      "shy": 7479,
      "shakes": 7480,
      "comments": 7481,
      "##gend": 7482,
      "##ila": 7483,
      "##ilize": 7484,
      "##ilty": 7485,
      "someday": 7486,
      "tends": 7487,
      "spons": 7488,
      "ups": 7489,
      "unable": 7490,
      "##izers": 7491,
      "perpet": 7492,
      "adap": 7493,
      "heritage": 7494,
      "brid": 7495,
      "bond": 7496,
      "indones": 7497,
      "##pless": 7498,
      "##icked": 7499,
      "drown": 7500,
      "crimes": 7501,
      "glow": 7502,
      "kidney": 7503,
      "mini": 7504,
      "2050": 7505,
      "careg": 7506,
      "profile": 7507,
      "positions": 7508,
      "treatments": 7509,
      "geomet": 7510,
      "excuse": 7511,
      "hybr": 7512,
      "temporary": 7513,
      "posted": 7514,
      "circles": 7515,
      "errors": 7516,
      "experiencing": 7517,
      "exception": 7518,
      "activate": 7519,
      "dimension": 7520,
      "divor": 7521,
      "1990s": 7522,
      "wheels": 7523,
      "threats": 7524,
      "denial": 7525,
      "variation": 7526,
      "daughters": 7527,
      "folding": 7528,
      "historic": 7529,
      "surrounding": 7530,
      "guns": 7531,
      "ratio": 7532,
      "authors": 7533,
      "jewish": 7534,
      "dictionaries": 7535,
      "fortunate": 7536,
      "ceremony": 7537,
      "initially": 7538,
      "navigate": 7539,
      "rituals": 7540,
      "storytelling": 7541,
      "devastating": 7542,
      "contemporary": 7543,
      "column": 7544,
      "interconnected": 7545,
      "guarantee": 7546,
      "compromise": 7547,
      "glacier": 7548,
      "schizophrenia": 7549,
      "wedding": 7550,
      "hollywood": 7551,
      "excitement": 7552,
      "thylac": 7553,
      "bj": 7554,
      "bite": 7555,
      "dent": 7556,
      "fi": 7557,
      "fiber": 7558,
      "han": 7559,
      "hors": 7560,
      "jar": 7561,
      "jelly": 7562,
      "mike": 7563,
      "ng": 7564,
      "rivers": 7565,
      "tam": 7566,
      "tact": 7567,
      "via": 7568,
      "##ril": 7569,
      "##oe": 7570,
      "##oying": 7571,
      "##tical": 7572,
      "##mar": 7573,
      "##aust": 7574,
      "##aving": 7575,
      "##ds": 7576,
      "##bod": 7577,
      "##erved": 7578,
      "andrew": 7579,
      "tox": 7580,
      "##ania": 7581,
      "inn": 7582,
      "infer": 7583,
      "##ari": 7584,
      "##leep": 7585,
      "italy": 7586,
      "stored": 7587,
      "##imination": 7588,
      "##oli": 7589,
      "shan": 7590,
      "asleep": 7591,
      "neck": 7592,
      "chile": 7593,
      "triv": 7594,
      "spill": 7595,
      "spont": 7596,
      "enlight": 7597,
      "safer": 7598,
      "manual": 7599,
      "twist": 7600,
      "covers": 7601,
      "impr": 7602,
      "buff": 7603,
      "backyard": 7604,
      "contag": 7605,
      "brush": 7606,
      "##pled": 7607,
      "commission": 7608,
      "##phony": 7609,
      "scot": 7610,
      "##aken": 7611,
      "genu": 7612,
      "colored": 7613,
      "guerr": 7614,
      "socially": 7615,
      "##ighter": 7616,
      "meanwhile": 7617,
      "artistic": 7618,
      "monkeys": 7619,
      "grave": 7620,
      "readers": 7621,
      "demands": 7622,
      "biologist": 7623,
      "warr": 7624,
      "forming": 7625,
      "subway": 7626,
      "presents": 7627,
      "swiss": 7628,
      "detro": 7629,
      "##pring": 7630,
      "marker": 7631,
      "membr": 7632,
      "excl": 7633,
      "continuing": 7634,
      "treas": 7635,
      "gods": 7636,
      "sexy": 7637,
      "listened": 7638,
      "structural": 7639,
      "radi": 7640,
      "radically": 7641,
      "innovations": 7642,
      "potato": 7643,
      "approx": 7644,
      "psychologists": 7645,
      "iceland": 7646,
      "architectural": 7647,
      "##apping": 7648,
      "democracies": 7649,
      "urg": 7650,
      "arrange": 7651,
      "rocks": 7652,
      "flowing": 7653,
      "division": 7654,
      "tendency": 7655,
      "hopes": 7656,
      "sweat": 7657,
      "wildlife": 7658,
      "hometown": 7659,
      "significantly": 7660,
      "throwing": 7661,
      "candy": 7662,
      "consequence": 7663,
      "burned": 7664,
      "reveals": 7665,
      "bags": 7666,
      "corporations": 7667,
      "climbing": 7668,
      "volunteer": 7669,
      "transmit": 7670,
      "surgeons": 7671,
      "expertise": 7672,
      "agreement": 7673,
      "linear": 7674,
      "perceived": 7675,
      "exhibition": 7676,
      "improvis": 7677,
      "mushrooms": 7678,
      "augment": 7679,
      "chapter": 7680,
      "cousin": 7681,
      "alpha": 7682,
      "surfaces": 7683,
      "tackle": 7684,
      "obstacles": 7685,
      "tragic": 7686,
      "selves": 7687,
      "norden": 7688,
      "abraham": 7689,
      "barrier": 7690,
      "aristotle": 7691,
      "gorgeous": 7692,
      "bind": 7693,
      "dub": 7694,
      "gases": 7695,
      "jac": 7696,
      "ky": 7697,
      "rope": 7698,
      "rape": 7699,
      "racing": 7700,
      "tale": 7701,
      "ward": 7702,
      "wats": 7703,
      "wrap": 7704,
      "##nis": 7705,
      "##ties": 7706,
      "##uk": 7707,
      "##equ": 7708,
      "##pa": 7709,
      "##power": 7710,
      "##ja": 7711,
      "thus": 7712,
      "thirty": 7713,
      "##ona": 7714,
      "##enh": 7715,
      "ingen": 7716,
      "##oma": 7717,
      "##vember": 7718,
      "##ched": 7719,
      "##amine": 7720,
      "gore": 7721,
      "shred": 7722,
      "neoc": 7723,
      "deals": 7724,
      "##umber": 7725,
      "yourselves": 7726,
      "##apor": 7727,
      "##apore": 7728,
      "##ghai": 7729,
      "november": 7730,
      "manif": 7731,
      "##ansas": 7732,
      "interf": 7733,
      "happily": 7734,
      "resolve": 7735,
      "disconnect": 7736,
      "lottery": 7737,
      "brows": 7738,
      "genoc": 7739,
      "guid": 7740,
      "##ression": 7741,
      "owner": 7742,
      "courses": 7743,
      "trace": 7744,
      "ministry": 7745,
      "pointed": 7746,
      "##licit": 7747,
      "demos": 7748,
      "demographic": 7749,
      "##cycl": 7750,
      "singapore": 7751,
      "holy": 7752,
      "patents": 7753,
      "cambod": 7754,
      "educate": 7755,
      "physi": 7756,
      "infl": 7757,
      "kills": 7758,
      "##ashed": 7759,
      "condoms": 7760,
      "nights": 7761,
      "audiences": 7762,
      "stephen": 7763,
      "microph": 7764,
      "measures": 7765,
      "failures": 7766,
      "motors": 7767,
      "traditions": 7768,
      "barriers": 7769,
      "embod": 7770,
      "civic": 7771,
      "survived": 7772,
      "approaches": 7773,
      "buried": 7774,
      "mainstream": 7775,
      "asteroid": 7776,
      "similarly": 7777,
      "compete": 7778,
      "competitive": 7779,
      "johns": 7780,
      "reactions": 7781,
      "reports": 7782,
      "bacterial": 7783,
      "domain": 7784,
      "strategic": 7785,
      "purposes": 7786,
      "sadly": 7787,
      "nutrients": 7788,
      "golden": 7789,
      "graduated": 7790,
      "reconstruct": 7791,
      "symbols": 7792,
      "satellites": 7793,
      "recipe": 7794,
      "regardless": 7795,
      "aspir": 7796,
      "arrested": 7797,
      "constraints": 7798,
      "adolescent": 7799,
      "mysterious": 7800,
      "pyramid": 7801,
      "lifespan": 7802,
      "unbelievable": 7803,
      "wandering": 7804,
      "enthus": 7805,
      "arthur": 7806,
      "supermarket": 7807,
      "indonesia": 7808,
      "ngos": 7809,
      "watson": 7810,
      "37": 7811,
      "bot": 7812,
      "dun": 7813,
      "drought": 7814,
      "ell": 7815,
      "file": 7816,
      "gained": 7817,
      "lanes": 7818,
      "nap": 7819,
      "pants": 7820,
      "rome": 7821,
      "sale": 7822,
      "sulf": 7823,
      "santa": 7824,
      "tiger": 7825,
      "##lson": 7826,
      "##gal": 7827,
      "##gments": 7828,
      "##hh": 7829,
      "##hah": 7830,
      "##aver": 7831,
      "##bal": 7832,
      "##30": 7833,
      "thresh": 7834,
      "##osity": 7835,
      "##utan": 7836,
      "##eters": 7837,
      "soap": 7838,
      "static": 7839,
      "prol": 7840,
      "pride": 7841,
      "shit": 7842,
      "##ading": 7843,
      "nelson": 7844,
      "melt": 7845,
      "##cking": 7846,
      "spray": 7847,
      "shepher": 7848,
      "clot": 7849,
      "clue": 7850,
      "intervent": 7851,
      "pockets": 7852,
      "##quis": 7853,
      "boots": 7854,
      "gran": 7855,
      "endanger": 7856,
      "##peare": 7857,
      "##ails": 7858,
      "glimp": 7859,
      "foundations": 7860,
      "trail": 7861,
      "traject": 7862,
      "miner": 7863,
      "editor": 7864,
      "highway": 7865,
      "particle": 7866,
      "possess": 7867,
      "marry": 7868,
      "cultiv": 7869,
      "profits": 7870,
      "##boo": 7871,
      "restrict": 7872,
      "propag": 7873,
      "##aneous": 7874,
      "investing": 7875,
      "winner": 7876,
      "fireflies": 7877,
      "##liest": 7878,
      "breaks": 7879,
      "included": 7880,
      "worthy": 7881,
      "femin": 7882,
      "truths": 7883,
      "affecting": 7884,
      "immense": 7885,
      "ecological": 7886,
      "blindness": 7887,
      "banking": 7888,
      "tomato": 7889,
      "graphics": 7890,
      "sweep": 7891,
      "package": 7892,
      "offering": 7893,
      "hunt": 7894,
      "calculations": 7895,
      "magnific": 7896,
      "achievement": 7897,
      "interviews": 7898,
      "applying": 7899,
      "shocked": 7900,
      "customer": 7901,
      "teenage": 7902,
      "teenager": 7903,
      "pigs": 7904,
      "mastery": 7905,
      "##etti": 7906,
      "1960": 7907,
      "exerc": 7908,
      "pairs": 7909,
      "elementary": 7910,
      "defend": 7911,
      "installed": 7912,
      "officials": 7913,
      "reinvent": 7914,
      "institutional": 7915,
      "recip": 7916,
      "analogy": 7917,
      "shrimp": 7918,
      "hormones": 7919,
      "estimates": 7920,
      "##working": 7921,
      "mimic": 7922,
      "dutch": 7923,
      "tedtalks": 7924,
      "authentic": 7925,
      "embarrassing": 7926,
      "whistle": 7927,
      "zealand": 7928,
      "clusters": 7929,
      "carolina": 7930,
      "rosling": 7931,
      "neutral": 7932,
      "explosion": 7933,
      "seventh": 7934,
      "recommend": 7935,
      "abandoned": 7936,
      "coinc": 7937,
      "##burgh": 7938,
      "bronx": 7939,
      "anesthes": 7940,
      "pandemic": 7941,
      "shakespeare": 7942,
      "shanghai": 7943,
      "genuine": 7944,
      "threshold": 7945,
      "interventions": 7946,
      "endangered": 7947,
      "glimpse": 7948,
      "55": 7949,
      "cott": 7950,
      "drew": 7951,
      "fallen": 7952,
      "hipp": 7953,
      "pear": 7954,
      "ron": 7955,
      "sib": 7956,
      "ties": 7957,
      "##hist": 7958,
      "##de": 7959,
      "inmates": 7960,
      "##ashing": 7961,
      "##see": 7962,
      "##section": 7963,
      "hamb": 7964,
      "##ching": 7965,
      "##celi": 7966,
      "##oped": 7967,
      "heal": 7968,
      "##aded": 7969,
      "chat": 7970,
      "##illance": 7971,
      "myceli": 7972,
      "loving": 7973,
      "align": 7974,
      "proven": 7975,
      "encycl": 7976,
      "##orted": 7977,
      "sake": 7978,
      "##asty": 7979,
      "lew": 7980,
      "##izer": 7981,
      "sheets": 7982,
      "bucks": 7983,
      "##enses": 7984,
      "deserve": 7985,
      "##berry": 7986,
      "scaff": 7987,
      "flavor": 7988,
      "obt": 7989,
      "obese": 7990,
      "keys": 7991,
      "artic": 7992,
      "strict": 7993,
      "cellular": 7994,
      "192": 7995,
      "bio": 7996,
      "capabilities": 7997,
      "passage": 7998,
      "marvel": 7999,
      "2002": 8000,
      "autistic": 8001,
      "connects": 8002,
      "momentum": 8003,
      "topics": 8004,
      "stopping": 8005,
      "sixth": 8006,
      "defic": 8007,
      "infant": 8008,
      "locations": 8009,
      "beautifully": 8010,
      "discovering": 8011,
      "collectively": 8012,
      "parenting": 8013,
      "typing": 8014,
      "surviv": 8015,
      "deadly": 8016,
      "destiny": 8017,
      "statistic": 8018,
      "turk": 8019,
      "covering": 8020,
      "mechanics": 8021,
      "portion": 8022,
      "representative": 8023,
      "victor": 8024,
      "reflection": 8025,
      "magnet": 8026,
      "1980s": 8027,
      "physicians": 8028,
      "scanning": 8029,
      "simplest": 8030,
      "classrooms": 8031,
      "wires": 8032,
      "cooperate": 8033,
      "bullet": 8034,
      "juice": 8035,
      "transmission": 8036,
      "telescopes": 8037,
      "venture": 8038,
      "##forestation": 8039,
      "autonomy": 8040,
      "candidates": 8041,
      "cybercr": 8042,
      "##itzer": 8043,
      "desperately": 8044,
      "fisher": 8045,
      "acknowled": 8046,
      "responding": 8047,
      "recession": 8048,
      "mycelium": 8049,
      "scaffold": 8050,
      "aur": 8051,
      "bern": 8052,
      "cage": 8053,
      "dumb": 8054,
      "fate": 8055,
      "hong": 8056,
      "jay": 8057,
      "jung": 8058,
      "july": 8059,
      "ku": 8060,
      "mild": 8061,
      "mary": 8062,
      "ss": 8063,
      "sized": 8064,
      "sna": 8065,
      "tut": 8066,
      "tie": 8067,
      "tide": 8068,
      "wil": 8069,
      "##nology": 8070,
      "##uff": 8071,
      "##uction": 8072,
      "##via": 8073,
      "##west": 8074,
      "##ati": 8075,
      "##esign": 8076,
      "bend": 8077,
      "rewards": 8078,
      "stor": 8079,
      "prince": 8080,
      "sew": 8081,
      "asian": 8082,
      "##ado": 8083,
      "worms": 8084,
      "chess": 8085,
      "conqu": 8086,
      "convey": 8087,
      "enabled": 8088,
      "intro": 8089,
      "sail": 8090,
      "##ema": 8091,
      "unst": 8092,
      "compound": 8093,
      "leon": 8094,
      "ambit": 8095,
      "explicit": 8096,
      "agents": 8097,
      "##udd": 8098,
      "cliff": 8099,
      "interven": 8100,
      "##00s": 8101,
      "overl": 8102,
      "##road": 8103,
      "##seless": 8104,
      "boost": 8105,
      "grant": 8106,
      "gross": 8107,
      "gramm": 8108,
      "goodby": 8109,
      "criter": 8110,
      "simulation": 8111,
      "builds": 8112,
      "reliable": 8113,
      "believing": 8114,
      "mines": 8115,
      "stranger": 8116,
      "mode": 8117,
      "extinction": 8118,
      "reader": 8119,
      "visually": 8120,
      "camps": 8121,
      "redesign": 8122,
      "##neys": 8123,
      "breeding": 8124,
      "signature": 8125,
      "restor": 8126,
      "challenged": 8127,
      "##ucks": 8128,
      "revol": 8129,
      "namely": 8130,
      "stepped": 8131,
      "invested": 8132,
      "brands": 8133,
      "cycles": 8134,
      "temp": 8135,
      "temple": 8136,
      "medication": 8137,
      "replicate": 8138,
      "transforming": 8139,
      "defining": 8140,
      "damaged": 8141,
      "riding": 8142,
      "electrodes": 8143,
      "primitive": 8144,
      "websites": 8145,
      "determines": 8146,
      "smells": 8147,
      "landscapes": 8148,
      "corrupt": 8149,
      "nuts": 8150,
      "historically": 8151,
      "simpler": 8152,
      "sexuality": 8153,
      "injured": 8154,
      "gathered": 8155,
      "cruel": 8156,
      "script": 8157,
      "surveillance": 8158,
      "airplanes": 8159,
      "concentration": 8160,
      "##ulses": 8161,
      "manipulate": 8162,
      "catholic": 8163,
      "constitution": 8164,
      "atlantic": 8165,
      "controversial": 8166,
      "gesture": 8167,
      "disturbing": 8168,
      "intriguing": 8169,
      "wrapped": 8170,
      "hallucinations": 8171,
      "aggressive": 8172,
      "legislation": 8173,
      "joseph": 8174,
      "lungs": 8175,
      "dopamine": 8176,
      "joshua": 8177,
      "grasp": 8178,
      "unhappy": 8179,
      "expansion": 8180,
      "cylinder": 8181,
      "downtown": 8182,
      "simultaneously": 8183,
      "ultrasound": 8184,
      "genocide": 8185,
      "goodbye": 8186,
      "cass": 8187,
      "gel": 8188,
      "hated": 8189,
      "ig": 8190,
      "iv": 8191,
      "jord": 8192,
      "jane": 8193,
      "lion": 8194,
      "lem": 8195,
      "lak": 8196,
      "matt": 8197,
      "nerves": 8198,
      "oven": 8199,
      "qa": 8200,
      "rick": 8201,
      "sons": 8202,
      "tid": 8203,
      "vic": 8204,
      "##lon": 8205,
      "##dam": 8206,
      "##va": 8207,
      "##view": 8208,
      "##za": 8209,
      "theories": 8210,
      "##oral": 8211,
      "offe": 8212,
      "inex": 8213,
      "##itated": 8214,
      "reass": 8215,
      "##etr": 8216,
      "sty": 8217,
      "stom": 8218,
      "stead": 8219,
      "stake": 8220,
      "staring": 8221,
      "prose": 8222,
      "abilities": 8223,
      "shout": 8224,
      "##rah": 8225,
      "fried": 8226,
      "##ilized": 8227,
      "extended": 8228,
      "congest": 8229,
      "usage": 8230,
      "spo": 8231,
      "workforce": 8232,
      "compreh": 8233,
      "leverage": 8234,
      "clues": 8235,
      "newton": 8236,
      "##obs": 8237,
      "disability": 8238,
      "channels": 8239,
      "realm": 8240,
      "realistic": 8241,
      "##eller": 8242,
      "##otherap": 8243,
      "counting": 8244,
      "carries": 8245,
      "decor": 8246,
      "findings": 8247,
      "guilty": 8248,
      "remitt": 8249,
      "helpless": 8250,
      "kevin": 8251,
      "strike": 8252,
      "handed": 8253,
      "passes": 8254,
      "girlfriend": 8255,
      "badly": 8256,
      "answering": 8257,
      "proposal": 8258,
      "cheat": 8259,
      "continuous": 8260,
      "deepest": 8261,
      "raises": 8262,
      "millimeter": 8263,
      "investments": 8264,
      "##ushed": 8265,
      "winds": 8266,
      "tempor": 8267,
      "approved": 8268,
      "cuts": 8269,
      "bills": 8270,
      "filmmaker": 8271,
      "intrins": 8272,
      "civilizations": 8273,
      "suggestion": 8274,
      "volc": 8275,
      "straw": 8276,
      "lawn": 8277,
      "replaced": 8278,
      "immers": 8279,
      "immort": 8280,
      "competing": 8281,
      "epis": 8282,
      "consciously": 8283,
      "participation": 8284,
      "authorities": 8285,
      "remarkably": 8286,
      "detection": 8287,
      "suspic": 8288,
      "appearance": 8289,
      "fraction": 8290,
      "talents": 8291,
      "contribution": 8292,
      "jumped": 8293,
      "physicists": 8294,
      "interviewed": 8295,
      "pigeon": 8296,
      "gentleman": 8297,
      "tumors": 8298,
      "assemble": 8299,
      "prevention": 8300,
      "astronaut": 8301,
      "pursue": 8302,
      "altitude": 8303,
      "courageous": 8304,
      "exhibit": 8305,
      "limitations": 8306,
      "conducted": 8307,
      "impression": 8308,
      "gallery": 8309,
      "encouraging": 8310,
      "bombsight": 8311,
      "acknowledge": 8312,
      "beetles": 8313,
      "recycled": 8314,
      "minority": 8315,
      "veterans": 8316,
      "stunning": 8317,
      "aesthetic": 8318,
      "luxury": 8319,
      "tasmanian": 8320,
      "helicopter": 8321,
      "ibm": 8322,
      "squee": 8323,
      "rehabilitation": 8324,
      "hybrid": 8325,
      "detroit": 8326,
      "magnificent": 8327,
      "storage": 8328,
      "ambitious": 8329,
      "criteria": 8330,
      "qaeda": 8331,
      "46": 8332,
      "awe": 8333,
      "dirt": 8334,
      "eco": 8335,
      "fancy": 8336,
      "gaps": 8337,
      "jill": 8338,
      "pills": 8339,
      "sne": 8340,
      "tib": 8341,
      "tanz": 8342,
      "wins": 8343,
      "zimb": 8344,
      "##oot": 8345,
      "##lers": 8346,
      "##nut": 8347,
      "##top": 8348,
      "##hand": 8349,
      "##eng": 8350,
      "beef": 8351,
      "##utation": 8352,
      "revel": 8353,
      "stair": 8354,
      "##igur": 8355,
      "##cher": 8356,
      "##theless": 8357,
      "pra": 8358,
      "canad": 8359,
      "shaking": 8360,
      "ships": 8361,
      "decent": 8362,
      "knife": 8363,
      "outrage": 8364,
      "enzy": 8365,
      "upside": 8366,
      "##emies": 8367,
      "uncon": 8368,
      "legend": 8369,
      "##agos": 8370,
      "aged": 8371,
      "overse": 8372,
      "disasters": 8373,
      "syring": 8374,
      "royal": 8375,
      "genomes": 8376,
      "flows": 8377,
      "humanitarian": 8378,
      "##rence": 8379,
      "systematically": 8380,
      "technically": 8381,
      "instruction": 8382,
      "nevertheless": 8383,
      "minus": 8384,
      "planned": 8385,
      "projections": 8386,
      "biosphere": 8387,
      "hardest": 8388,
      "##grade": 8389,
      "capability": 8390,
      "supplies": 8391,
      "hook": 8392,
      "africans": 8393,
      "##ierra": 8394,
      "reasonable": 8395,
      "proposition": 8396,
      "freezing": 8397,
      "viral": 8398,
      "messy": 8399,
      "fundra": 8400,
      "##ccoli": 8401,
      "terrified": 8402,
      "prediction": 8403,
      "barb": 8404,
      "penn": 8405,
      "versions": 8406,
      "broccoli": 8407,
      "saturn": 8408,
      "purple": 8409,
      "vacuum": 8410,
      "feminist": 8411,
      "tracks": 8412,
      "dropping": 8413,
      "laden": 8414,
      "planted": 8415,
      "methane": 8416,
      "1990": 8417,
      "extraordinarily": 8418,
      "assumption": 8419,
      "raped": 8420,
      "concerns": 8421,
      "fragment": 8422,
      "annual": 8423,
      "bench": 8424,
      "wooden": 8425,
      "enjoyed": 8426,
      "fatal": 8427,
      "worrying": 8428,
      "motivated": 8429,
      "injuries": 8430,
      "ambul": 8431,
      "dynamics": 8432,
      "batteries": 8433,
      "embracing": 8434,
      "regularly": 8435,
      "frequently": 8436,
      "partnership": 8437,
      "sculptures": 8438,
      "succeeded": 8439,
      "summar": 8440,
      "grains": 8441,
      "bowl": 8442,
      "julian": 8443,
      "lectures": 8444,
      "minimum": 8445,
      "dolphin": 8446,
      "labeled": 8447,
      "frightening": 8448,
      "counsel": 8449,
      "overwhelmed": 8450,
      "vocal": 8451,
      "horizon": 8452,
      "execut": 8453,
      "bribe": 8454,
      "montana": 8455,
      "established": 8456,
      "striking": 8457,
      "astronomers": 8458,
      "permission": 8459,
      "lonely": 8460,
      "offspring": 8461,
      "troops": 8462,
      "expedition": 8463,
      "discrimination": 8464,
      "reclaim": 8465,
      "bridges": 8466,
      "manifest": 8467,
      "shepherd": 8468,
      "trajectory": 8469,
      "38": 8470,
      "48": 8471,
      "aunt": 8472,
      "boun": 8473,
      "cube": 8474,
      "diving": 8475,
      "eb": 8476,
      "founder": 8477,
      "hired": 8478,
      "jh": 8479,
      "lam": 8480,
      "longe": 8481,
      "rog": 8482,
      "yards": 8483,
      "##iated": 8484,
      "##nia": 8485,
      "##gie": 8486,
      "##gence": 8487,
      "##mat": 8488,
      "##makers": 8489,
      "##away": 8490,
      "##burg": 8491,
      "##reme": 8492,
      "toast": 8493,
      "##ester": 8494,
      "apples": 8495,
      "##oric": 8496,
      "##isa": 8497,
      "##seen": 8498,
      "haz": 8499,
      "##che": 8500,
      "##cha": 8501,
      "##outs": 8502,
      "loose": 8503,
      "usa": 8504,
      "sperm": 8505,
      "enemies": 8506,
      "seemingly": 8507,
      "actively": 8508,
      "##ghetti": 8509,
      "lever": 8510,
      "prepar": 8511,
      "twins": 8512,
      "clint": 8513,
      "ark": 8514,
      "disney": 8515,
      "acids": 8516,
      "shower": 8517,
      "scales": 8518,
      "incl": 8519,
      "wright": 8520,
      "systematic": 8521,
      "earliest": 8522,
      "##tending": 8523,
      "relation": 8524,
      "understands": 8525,
      "modest": 8526,
      "meditation": 8527,
      "generating": 8528,
      "farms": 8529,
      "computation": 8530,
      "computational": 8531,
      "format": 8532,
      "viscer": 8533,
      "passive": 8534,
      "marrow": 8535,
      "heading": 8536,
      "parag": 8537,
      "inflation": 8538,
      "propose": 8539,
      "cheating": 8540,
      "selfish": 8541,
      "condom": 8542,
      "secular": 8543,
      "calc": 8544,
      "calm": 8545,
      "craw": 8546,
      "expecting": 8547,
      "illusions": 8548,
      "superst": 8549,
      "##lihood": 8550,
      "origins": 8551,
      "screw": 8552,
      "periods": 8553,
      "safely": 8554,
      "compassionate": 8555,
      "parks": 8556,
      "authoritarian": 8557,
      "judgments": 8558,
      "detector": 8559,
      "assumed": 8560,
      "temperatures": 8561,
      "associate": 8562,
      "tribal": 8563,
      "randomly": 8564,
      "##faction": 8565,
      "woods": 8566,
      "jeopard": 8567,
      "destroying": 8568,
      "logical": 8569,
      "narratives": 8570,
      "doubled": 8571,
      "philosophical": 8572,
      "manufactur": 8573,
      "therapies": 8574,
      "voted": 8575,
      "accompan": 8576,
      "dominated": 8577,
      "substant": 8578,
      "opinions": 8579,
      "incentive": 8580,
      "caves": 8581,
      "empowered": 8582,
      "scenes": 8583,
      "constructed": 8584,
      "reproduce": 8585,
      "inevit": 8586,
      "encouraged": 8587,
      "portraits": 8588,
      "overwhelming": 8589,
      "observed": 8590,
      "hawai": 8591,
      "beetle": 8592,
      "torture": 8593,
      "initiative": 8594,
      "traumatic": 8595,
      "1930s": 8596,
      "tolerance": 8597,
      "abundance": 8598,
      "gandhi": 8599,
      "iconic": 8600,
      "administration": 8601,
      "tattoo": 8602,
      "hierarchy": 8603,
      "chimpanzees": 8604,
      "monitoring": 8605,
      "palestinian": 8606,
      "brooklyn": 8607,
      "spaghetti": 8608,
      "improvisation": 8609,
      "microphone": 8610,
      "clothing": 8611,
      "encyclop": 8612,
      "##otherapy": 8613,
      "longevity": 8614,
      "44": 8615,
      "cad": 8616,
      "cable": 8617,
      "cows": 8618,
      "gg": 8619,
      "hint": 8620,
      "jones": 8621,
      "mesh": 8622,
      "nich": 8623,
      "naz": 8624,
      "nathan": 8625,
      "pow": 8626,
      "pher": 8627,
      "rip": 8628,
      "rib": 8629,
      "sands": 8630,
      "tangible": 8631,
      "uh": 8632,
      "useless": 8633,
      "vivid": 8634,
      "wk": 8635,
      "zones": 8636,
      "##oos": 8637,
      "##oves": 8638,
      "##nn": 8639,
      "##ux": 8640,
      "##yer": 8641,
      "##mo": 8642,
      "##mill": 8643,
      "##bra": 8644,
      "##zler": 8645,
      "##inter": 8646,
      "##atts": 8647,
      "##inger": 8648,
      "##ena": 8649,
      "apolog": 8650,
      "april": 8651,
      "##itative": 8652,
      "##otion": 8653,
      "##asive": 8654,
      "italian": 8655,
      "rever": 8656,
      "##etal": 8657,
      "stol": 8658,
      "##igma": 8659,
      "goli": 8660,
      "shore": 8661,
      "shatter": 8662,
      "shining": 8663,
      "chord": 8664,
      "chains": 8665,
      "depr": 8666,
      "orang": 8667,
      "confer": 8668,
      "likelihood": 8669,
      "loyal": 8670,
      "##umble": 8671,
      "##umented": 8672,
      "##inda": 8673,
      "spare": 8674,
      "##usal": 8675,
      "##elines": 8676,
      "unw": 8677,
      "comparing": 8678,
      "manner": 8679,
      "sheer": 8680,
      "client": 8681,
      "arbit": 8682,
      "##achel": 8683,
      "reserv": 8684,
      "disg": 8685,
      "##irect": 8686,
      "##asses": 8687,
      "moore": 8688,
      "contest": 8689,
      "kindness": 8690,
      "realization": 8691,
      "ideology": 8692,
      "carc": 8693,
      "criminals": 8694,
      "cola": 8695,
      "colom": 8696,
      "columb": 8697,
      "involving": 8698,
      "##weight": 8699,
      "basking": 8700,
      "transit": 8701,
      "trapped": 8702,
      "apps": 8703,
      "##aza": 8704,
      "recre": 8705,
      "cares": 8706,
      "generosity": 8707,
      "biod": 8708,
      "formal": 8709,
      "entry": 8710,
      "swallow": 8711,
      "easiest": 8712,
      "addiction": 8713,
      "amazed": 8714,
      "##ographical": 8715,
      "discoveries": 8716,
[...]
